{
  "version": "1.0",
  "truncation": null,
  "padding": null,
  "added_tokens": [
    {
      "id": 0,
      "content": "<s>",
      "single_word": false,
      "lstrip": false,
      "rstrip": false,
      "normalized": false,
      "special": true
    },
    {
      "id": 1,
      "content": "<pad>",
      "single_word": false,
      "lstrip": false,
      "rstrip": false,
      "normalized": false,
      "special": true
    },
    {
      "id": 2,
      "content": "</s>",
      "single_word": false,
      "lstrip": false,
      "rstrip": false,
      "normalized": false,
      "special": true
    },
    {
      "id": 3,
      "content": "<unk>",
      "single_word": false,
      "lstrip": false,
      "rstrip": false,
      "normalized": false,
      "special": true
    },
    {
      "id": 4,
      "content": "<mask>",
      "single_word": false,
      "lstrip": false,
      "rstrip": false,
      "normalized": false,
      "special": true
    },
    {
      "id": 5,
      "content": "<eos>",
      "single_word": false,
      "lstrip": false,
      "rstrip": false,
      "normalized": false,
      "special": true
    }
  ],
  "normalizer": {
    "type": "NFKC"
  },
  "pre_tokenizer": {
    "type": "Whitespace"
  },
  "post_processor": null,
  "decoder": null,
  "model": {
    "type": "BPE",
    "dropout": null,
    "unk_token": "<unk>",
    "continuing_subword_prefix": null,
    "end_of_word_suffix": null,
    "fuse_unk": false,
    "byte_fallback": false,
    "ignore_merges": false,
    "vocab": {
      "<s>": 0,
      "<pad>": 1,
      "</s>": 2,
      "<unk>": 3,
      "<mask>": 4,
      "<eos>": 5,
      "!": 6,
      "\"": 7,
      "#": 8,
      "$": 9,
      "%": 10,
      "&": 11,
      "'": 12,
      "(": 13,
      ")": 14,
      "*": 15,
      "+": 16,
      ",": 17,
      "-": 18,
      ".": 19,
      "/": 20,
      "0": 21,
      "1": 22,
      "2": 23,
      "3": 24,
      "4": 25,
      "5": 26,
      "6": 27,
      "7": 28,
      "8": 29,
      "9": 30,
      ":": 31,
      ";": 32,
      "<": 33,
      "=": 34,
      ">": 35,
      "?": 36,
      "@": 37,
      "A": 38,
      "B": 39,
      "C": 40,
      "D": 41,
      "E": 42,
      "F": 43,
      "G": 44,
      "H": 45,
      "I": 46,
      "J": 47,
      "K": 48,
      "L": 49,
      "M": 50,
      "N": 51,
      "O": 52,
      "P": 53,
      "Q": 54,
      "R": 55,
      "S": 56,
      "T": 57,
      "U": 58,
      "V": 59,
      "W": 60,
      "X": 61,
      "Y": 62,
      "Z": 63,
      "[": 64,
      "\\": 65,
      "]": 66,
      "^": 67,
      "_": 68,
      "`": 69,
      "a": 70,
      "b": 71,
      "c": 72,
      "d": 73,
      "e": 74,
      "f": 75,
      "g": 76,
      "h": 77,
      "i": 78,
      "j": 79,
      "k": 80,
      "l": 81,
      "m": 82,
      "n": 83,
      "o": 84,
      "p": 85,
      "q": 86,
      "r": 87,
      "s": 88,
      "t": 89,
      "u": 90,
      "v": 91,
      "w": 92,
      "x": 93,
      "y": 94,
      "z": 95,
      "{": 96,
      "|": 97,
      "}": 98,
      "~": 99,
      "": 100,
      "": 101,
      "": 102,
      "": 103,
      "¡": 104,
      "¢": 105,
      "£": 106,
      "¥": 107,
      "§": 108,
      "©": 109,
      "«": 110,
      "­": 111,
      "®": 112,
      "°": 113,
      "±": 114,
      "¶": 115,
      "·": 116,
      "»": 117,
      "¿": 118,
      "À": 119,
      "Á": 120,
      "Â": 121,
      "Ä": 122,
      "Å": 123,
      "Æ": 124,
      "Ç": 125,
      "È": 126,
      "É": 127,
      "Ì": 128,
      "Í": 129,
      "Î": 130,
      "Ñ": 131,
      "Ó": 132,
      "Ô": 133,
      "Ö": 134,
      "×": 135,
      "Ø": 136,
      "Ú": 137,
      "Ü": 138,
      "Ý": 139,
      "Þ": 140,
      "ß": 141,
      "à": 142,
      "á": 143,
      "â": 144,
      "ã": 145,
      "ä": 146,
      "å": 147,
      "æ": 148,
      "ç": 149,
      "è": 150,
      "é": 151,
      "ê": 152,
      "ë": 153,
      "ì": 154,
      "í": 155,
      "î": 156,
      "ï": 157,
      "ð": 158,
      "ñ": 159,
      "ò": 160,
      "ó": 161,
      "ô": 162,
      "õ": 163,
      "ö": 164,
      "÷": 165,
      "ø": 166,
      "ù": 167,
      "ú": 168,
      "û": 169,
      "ü": 170,
      "ý": 171,
      "þ": 172,
      "ÿ": 173,
      "Ā": 174,
      "ā": 175,
      "ă": 176,
      "ą": 177,
      "Ć": 178,
      "ć": 179,
      "Č": 180,
      "č": 181,
      "Ď": 182,
      "Đ": 183,
      "đ": 184,
      "ē": 185,
      "ė": 186,
      "ę": 187,
      "ě": 188,
      "ğ": 189,
      "ġ": 190,
      "Ħ": 191,
      "ħ": 192,
      "ĩ": 193,
      "Ī": 194,
      "ī": 195,
      "İ": 196,
      "ı": 197,
      "ķ": 198,
      "Ľ": 199,
      "ľ": 200,
      "Ł": 201,
      "ł": 202,
      "ń": 203,
      "ņ": 204,
      "ň": 205,
      "ŋ": 206,
      "Ō": 207,
      "ō": 208,
      "ŏ": 209,
      "ő": 210,
      "Œ": 211,
      "œ": 212,
      "Ř": 213,
      "ř": 214,
      "Ś": 215,
      "ś": 216,
      "Ş": 217,
      "ş": 218,
      "Š": 219,
      "š": 220,
      "Ţ": 221,
      "ţ": 222,
      "ť": 223,
      "ũ": 224,
      "ū": 225,
      "ŭ": 226,
      "ů": 227,
      "ų": 228,
      "ŵ": 229,
      "ŷ": 230,
      "Ź": 231,
      "ź": 232,
      "Ż": 233,
      "ż": 234,
      "Ž": 235,
      "ž": 236,
      "Ə": 237,
      "ƒ": 238,
      "ơ": 239,
      "ư": 240,
      "ǂ": 241,
      "ǎ": 242,
      "ǐ": 243,
      "ǒ": 244,
      "ǔ": 245,
      "ǫ": 246,
      "Ș": 247,
      "ș": 248,
      "Ț": 249,
      "ț": 250,
      "ɐ": 251,
      "ɑ": 252,
      "ɒ": 253,
      "ɓ": 254,
      "ɔ": 255,
      "ɕ": 256,
      "ɖ": 257,
      "ɗ": 258,
      "ə": 259,
      "ɛ": 260,
      "ɟ": 261,
      "ɡ": 262,
      "ɢ": 263,
      "ɣ": 264,
      "ɦ": 265,
      "ɧ": 266,
      "ɨ": 267,
      "ɪ": 268,
      "ɬ": 269,
      "ɯ": 270,
      "ɲ": 271,
      "ɴ": 272,
      "ɵ": 273,
      "ɸ": 274,
      "ɻ": 275,
      "ɾ": 276,
      "ʀ": 277,
      "ʁ": 278,
      "ʂ": 279,
      "ʃ": 280,
      "ʇ": 281,
      "ʈ": 282,
      "ʊ": 283,
      "ʋ": 284,
      "ʌ": 285,
      "ʍ": 286,
      "ʎ": 287,
      "ʒ": 288,
      "ʔ": 289,
      "ʕ": 290,
      "ʘ": 291,
      "ʝ": 292,
      "ʟ": 293,
      "ʻ": 294,
      "ʼ": 295,
      "ʾ": 296,
      "ʿ": 297,
      "ˀ": 298,
      "ˁ": 299,
      "ˈ": 300,
      "ˌ": 301,
      "ː": 302,
      "˔": 303,
      "˞": 304,
      "˥": 305,
      "˦": 306,
      "˧": 307,
      "˨": 308,
      "˩": 309,
      "̀": 310,
      "́": 311,
      "̂": 312,
      "̃": 313,
      "̄": 314,
      "̆": 315,
      "̈": 316,
      "̊": 317,
      "̌": 318,
      "̍": 319,
      "̐": 320,
      "̚": 321,
      "̝": 322,
      "̞": 323,
      "̟": 324,
      "̠": 325,
      "̣": 326,
      "̤": 327,
      "̥": 328,
      "̧": 329,
      "̩": 330,
      "̪": 331,
      "̯": 332,
      "̰": 333,
      "̱": 334,
      "̲": 335,
      "̺": 336,
      "̽": 337,
      "͍": 338,
      "͘": 339,
      "͜": 340,
      "͡": 341,
      "Α": 342,
      "Β": 343,
      "Γ": 344,
      "Δ": 345,
      "Ε": 346,
      "Η": 347,
      "Θ": 348,
      "Ι": 349,
      "Κ": 350,
      "Λ": 351,
      "Μ": 352,
      "Ν": 353,
      "Ξ": 354,
      "Ο": 355,
      "Π": 356,
      "Σ": 357,
      "Τ": 358,
      "Φ": 359,
      "Χ": 360,
      "Ψ": 361,
      "Ω": 362,
      "ά": 363,
      "έ": 364,
      "ή": 365,
      "ί": 366,
      "α": 367,
      "β": 368,
      "γ": 369,
      "δ": 370,
      "ε": 371,
      "ζ": 372,
      "η": 373,
      "θ": 374,
      "ι": 375,
      "κ": 376,
      "λ": 377,
      "μ": 378,
      "ν": 379,
      "ξ": 380,
      "ο": 381,
      "π": 382,
      "ρ": 383,
      "ς": 384,
      "σ": 385,
      "τ": 386,
      "υ": 387,
      "φ": 388,
      "χ": 389,
      "ψ": 390,
      "ω": 391,
      "ό": 392,
      "ύ": 393,
      "ώ": 394,
      "Ј": 395,
      "А": 396,
      "Б": 397,
      "В": 398,
      "Г": 399,
      "Д": 400,
      "Е": 401,
      "З": 402,
      "И": 403,
      "Й": 404,
      "К": 405,
      "М": 406,
      "Н": 407,
      "О": 408,
      "П": 409,
      "Р": 410,
      "С": 411,
      "Т": 412,
      "Ч": 413,
      "Ш": 414,
      "Я": 415,
      "а": 416,
      "б": 417,
      "в": 418,
      "г": 419,
      "д": 420,
      "е": 421,
      "ж": 422,
      "з": 423,
      "и": 424,
      "й": 425,
      "к": 426,
      "л": 427,
      "м": 428,
      "н": 429,
      "о": 430,
      "п": 431,
      "р": 432,
      "с": 433,
      "т": 434,
      "у": 435,
      "х": 436,
      "ц": 437,
      "ч": 438,
      "ш": 439,
      "ъ": 440,
      "ы": 441,
      "ь": 442,
      "э": 443,
      "ю": 444,
      "я": 445,
      "ё": 446,
      "і": 447,
      "ј": 448,
      "љ": 449,
      "ў": 450,
      "Կ": 451,
      "Հ": 452,
      "Մ": 453,
      "Ս": 454,
      "ա": 455,
      "բ": 456,
      "ե": 457,
      "թ": 458,
      "ի": 459,
      "կ": 460,
      "հ": 461,
      "ղ": 462,
      "յ": 463,
      "ն": 464,
      "շ": 465,
      "ո": 466,
      "պ": 467,
      "ս": 468,
      "վ": 469,
      "տ": 470,
      "ր": 471,
      "ց": 472,
      "ւ": 473,
      "ք": 474,
      "֤": 475,
      "֫": 476,
      "ֵ": 477,
      "ֶ": 478,
      "ּ": 479,
      "א": 480,
      "ב": 481,
      "ג": 482,
      "ד": 483,
      "ו": 484,
      "ח": 485,
      "י": 486,
      "כ": 487,
      "ל": 488,
      "ם": 489,
      "מ": 490,
      "ן": 491,
      "נ": 492,
      "ס": 493,
      "ע": 494,
      "צ": 495,
      "ר": 496,
      "ש": 497,
      "ת": 498,
      "،": 499,
      "ء": 500,
      "أ": 501,
      "إ": 502,
      "ا": 503,
      "ب": 504,
      "ة": 505,
      "ت": 506,
      "ث": 507,
      "ج": 508,
      "ح": 509,
      "خ": 510,
      "د": 511,
      "ر": 512,
      "ز": 513,
      "س": 514,
      "ش": 515,
      "ص": 516,
      "ط": 517,
      "ع": 518,
      "غ": 519,
      "ف": 520,
      "ق": 521,
      "ك": 522,
      "ل": 523,
      "م": 524,
      "ن": 525,
      "ه": 526,
      "و": 527,
      "ي": 528,
      "ی": 529,
      "ं": 530,
      "अ": 531,
      "आ": 532,
      "उ": 533,
      "क": 534,
      "ग": 535,
      "ट": 536,
      "ड": 537,
      "त": 538,
      "द": 539,
      "न": 540,
      "प": 541,
      "ब": 542,
      "भ": 543,
      "म": 544,
      "य": 545,
      "र": 546,
      "ल": 547,
      "श": 548,
      "ष": 549,
      "स": 550,
      "ह": 551,
      "़": 552,
      "ा": 553,
      "ि": 554,
      "ी": 555,
      "ु": 556,
      "े": 557,
      "ो": 558,
      "्": 559,
      "।": 560,
      "॥": 561,
      "ক": 562,
      "ত": 563,
      "ন": 564,
      "ব": 565,
      "ম": 566,
      "ল": 567,
      "়": 568,
      "া": 569,
      "ি": 570,
      "্": 571,
      "க": 572,
      "ன": 573,
      "ள": 574,
      "்": 575,
      "్": 576,
      "್": 577,
      "്": 578,
      "්": 579,
      "ก": 580,
      "ข": 581,
      "ง": 582,
      "จ": 583,
      "ช": 584,
      "ฐ": 585,
      "ณ": 586,
      "ต": 587,
      "ท": 588,
      "น": 589,
      "ป": 590,
      "พ": 591,
      "ม": 592,
      "ย": 593,
      "ร": 594,
      "ล": 595,
      "ว": 596,
      "ะ": 597,
      "ั": 598,
      "า": 599,
      "ิ": 600,
      "ี": 601,
      "ู": 602,
      "฿": 603,
      "เ": 604,
      "แ": 605,
      "็": 606,
      "่": 607,
      "้": 608,
      "์": 609,
      "་": 610,
      "།": 611,
      "င": 612,
      "ဆ": 613,
      "န": 614,
      "ရ": 615,
      "္": 616,
      "်": 617,
      "გ": 618,
      "დ": 619,
      "ვ": 620,
      "ზ": 621,
      "ი": 622,
      "კ": 623,
      "ო": 624,
      "რ": 625,
      "ს": 626,
      "უ": 627,
      "ც": 628,
      "ძ": 629,
      "წ": 630,
      "ხ": 631,
      "ჯ": 632,
      "჻": 633,
      "፡": 634,
      "ᛃ": 635,
      "ᛋ": 636,
      "ᛟ": 637,
      "ត": 638,
      "ន": 639,
      "ព": 640,
      "ម": 641,
      "រ": 642,
      "ស": 643,
      "ហ": 644,
      "ី": 645,
      "ុ": 646,
      "ោ": 647,
      "ះ": 648,
      "់": 649,
      "្": 650,
      "᷉": 651,
      "ḍ": 652,
      "ḑ": 653,
      "Ḥ": 654,
      "ḥ": 655,
      "ḩ": 656,
      "ḷ": 657,
      "ḻ": 658,
      "ṃ": 659,
      "ṅ": 660,
      "ṇ": 661,
      "ṉ": 662,
      "ṛ": 663,
      "ṟ": 664,
      "Ṣ": 665,
      "ṣ": 666,
      "ṭ": 667,
      "ṯ": 668,
      "ạ": 669,
      "ả": 670,
      "ấ": 671,
      "ầ": 672,
      "ẩ": 673,
      "ẫ": 674,
      "ậ": 675,
      "ắ": 676,
      "ằ": 677,
      "ẵ": 678,
      "ặ": 679,
      "ẹ": 680,
      "ế": 681,
      "ề": 682,
      "ể": 683,
      "ễ": 684,
      "ệ": 685,
      "ị": 686,
      "Ọ": 687,
      "ọ": 688,
      "ỏ": 689,
      "ố": 690,
      "ồ": 691,
      "ổ": 692,
      "ỗ": 693,
      "ộ": 694,
      "ớ": 695,
      "ờ": 696,
      "ở": 697,
      "ợ": 698,
      "ụ": 699,
      "ủ": 700,
      "ứ": 701,
      "ừ": 702,
      "ử": 703,
      "ữ": 704,
      "ự": 705,
      "ỳ": 706,
      "ỵ": 707,
      "ỹ": 708,
      "ἀ": 709,
      "ἄ": 710,
      "Ἀ": 711,
      "ἐ": 712,
      "Ἕ": 713,
      "ἡ": 714,
      "Ἠ": 715,
      "ἰ": 716,
      "ἱ": 717,
      "ἵ": 718,
      "ἶ": 719,
      "Ἰ": 720,
      "ὁ": 721,
      "Ὄ": 722,
      "ὐ": 723,
      "ὑ": 724,
      "ὡ": 725,
      "ὰ": 726,
      "ὲ": 727,
      "ὴ": 728,
      "ὶ": 729,
      "ὸ": 730,
      "ὺ": 731,
      "ὼ": 732,
      "ᾶ": 733,
      "ῆ": 734,
      "ῖ": 735,
      "ῦ": 736,
      "Ῥ": 737,
      "ῶ": 738,
      "ῷ": 739,
      "​": 740,
      "‌": 741,
      "‍": 742,
      "‐": 743,
      "‒": 744,
      "–": 745,
      "—": 746,
      "―": 747,
      "‘": 748,
      "’": 749,
      "‚": 750,
      "“": 751,
      "”": 752,
      "„": 753,
      "†": 754,
      "‡": 755,
      "•": 756,
      "‰": 757,
      "′": 758,
      "※": 759,
      "‿": 760,
      "⁄": 761,
      "⁊": 762,
      "⁡": 763,
      "₡": 764,
      "₣": 765,
      "₤": 766,
      "₦": 767,
      "₩": 768,
      "₫": 769,
      "€": 770,
      "₱": 771,
      "₹": 772,
      "←": 773,
      "↑": 774,
      "→": 775,
      "↓": 776,
      "↔": 777,
      "↗": 778,
      "↦": 779,
      "↪": 780,
      "⇄": 781,
      "⇌": 782,
      "∀": 783,
      "∂": 784,
      "∆": 785,
      "∈": 786,
      "∑": 787,
      "−": 788,
      "∕": 789,
      "∖": 790,
      "∗": 791,
      "∘": 792,
      "√": 793,
      "∝": 794,
      "∞": 795,
      "∩": 796,
      "∪": 797,
      "∴": 798,
      "∼": 799,
      "≈": 800,
      "≠": 801,
      "≡": 802,
      "≢": 803,
      "≤": 804,
      "≥": 805,
      "≪": 806,
      "⊂": 807,
      "⊕": 808,
      "⊗": 809,
      "⊙": 810,
      "⊥": 811,
      "⋅": 812,
      "⋯": 813,
      "⌊": 814,
      "⌋": 815,
      "█": 816,
      "▲": 817,
      "★": 818,
      "☆": 819,
      "☉": 820,
      "♀": 821,
      "♠": 822,
      "♣": 823,
      "♥": 824,
      "♦": 825,
      "♩": 826,
      "♪": 827,
      "♭": 828,
      "♮": 829,
      "♯": 830,
      "⟦": 831,
      "⟧": 832,
      "⟨": 833,
      "⟩": 834,
      "⩽": 835,
      "ⴷ": 836,
      "、": 837,
      "。": 838,
      "〈": 839,
      "〉": 840,
      "「": 841,
      "」": 842,
      "『": 843,
      "』": 844,
      "〜": 845,
      "あ": 846,
      "い": 847,
      "ぅ": 848,
      "う": 849,
      "お": 850,
      "か": 851,
      "が": 852,
      "き": 853,
      "く": 854,
      "ぐ": 855,
      "こ": 856,
      "さ": 857,
      "し": 858,
      "じ": 859,
      "す": 860,
      "ず": 861,
      "せ": 862,
      "た": 863,
      "ち": 864,
      "つ": 865,
      "て": 866,
      "と": 867,
      "ど": 868,
      "な": 869,
      "の": 870,
      "は": 871,
      "ば": 872,
      "ふ": 873,
      "へ": 874,
      "ぽ": 875,
      "ま": 876,
      "み": 877,
      "め": 878,
      "よ": 879,
      "ら": 880,
      "り": 881,
      "る": 882,
      "ん": 883,
      "ァ": 884,
      "ア": 885,
      "ィ": 886,
      "イ": 887,
      "ウ": 888,
      "ェ": 889,
      "エ": 890,
      "ォ": 891,
      "オ": 892,
      "カ": 893,
      "ガ": 894,
      "キ": 895,
      "ギ": 896,
      "ク": 897,
      "グ": 898,
      "ケ": 899,
      "コ": 900,
      "ゴ": 901,
      "サ": 902,
      "ザ": 903,
      "シ": 904,
      "ジ": 905,
      "ス": 906,
      "ズ": 907,
      "セ": 908,
      "ゼ": 909,
      "ソ": 910,
      "タ": 911,
      "ダ": 912,
      "チ": 913,
      "ッ": 914,
      "ツ": 915,
      "テ": 916,
      "デ": 917,
      "ト": 918,
      "ド": 919,
      "ナ": 920,
      "ニ": 921,
      "ノ": 922,
      "ハ": 923,
      "バ": 924,
      "パ": 925,
      "ヒ": 926,
      "ビ": 927,
      "フ": 928,
      "ブ": 929,
      "プ": 930,
      "ベ": 931,
      "ペ": 932,
      "ボ": 933,
      "ポ": 934,
      "マ": 935,
      "ミ": 936,
      "ム": 937,
      "メ": 938,
      "モ": 939,
      "ャ": 940,
      "ヤ": 941,
      "ュ": 942,
      "ユ": 943,
      "ョ": 944,
      "ラ": 945,
      "リ": 946,
      "ル": 947,
      "レ": 948,
      "ロ": 949,
      "ワ": 950,
      "ン": 951,
      "ヴ": 952,
      "・": 953,
      "ー": 954,
      "一": 955,
      "三": 956,
      "上": 957,
      "下": 958,
      "不": 959,
      "丑": 960,
      "世": 961,
      "个": 962,
      "久": 963,
      "之": 964,
      "乙": 965,
      "二": 966,
      "五": 967,
      "亦": 968,
      "京": 969,
      "人": 970,
      "介": 971,
      "仙": 972,
      "令": 973,
      "伝": 974,
      "住": 975,
      "佛": 976,
      "作": 977,
      "併": 978,
      "侠": 979,
      "個": 980,
      "催": 981,
      "像": 982,
      "光": 983,
      "内": 984,
      "写": 985,
      "冴": 986,
      "净": 987,
      "凪": 988,
      "分": 989,
      "列": 990,
      "刘": 991,
      "初": 992,
      "判": 993,
      "別": 994,
      "前": 995,
      "剛": 996,
      "剣": 997,
      "劇": 998,
      "動": 999,
      "勝": 1000,
      "北": 1001,
      "匹": 1002,
      "千": 1003,
      "卒": 1004,
      "南": 1005,
      "博": 1006,
      "厘": 1007,
      "双": 1008,
      "台": 1009,
      "号": 1010,
      "同": 1011,
      "名": 1012,
      "君": 1013,
      "呼": 1014,
      "哈": 1015,
      "四": 1016,
      "回": 1017,
      "国": 1018,
      "國": 1019,
      "土": 1020,
      "坂": 1021,
      "場": 1022,
      "境": 1023,
      "士": 1024,
      "外": 1025,
      "大": 1026,
      "天": 1027,
      "太": 1028,
      "女": 1029,
      "姉": 1030,
      "婷": 1031,
      "子": 1032,
      "字": 1033,
      "季": 1034,
      "孩": 1035,
      "守": 1036,
      "宋": 1037,
      "宗": 1038,
      "寔": 1039,
      "寺": 1040,
      "小": 1041,
      "少": 1042,
      "尾": 1043,
      "巨": 1044,
      "廷": 1045,
      "式": 1046,
      "弘": 1047,
      "张": 1048,
      "張": 1049,
      "彼": 1050,
      "後": 1051,
      "心": 1052,
      "思": 1053,
      "愛": 1054,
      "憲": 1055,
      "戦": 1056,
      "房": 1057,
      "所": 1058,
      "撃": 1059,
      "攻": 1060,
      "新": 1061,
      "方": 1062,
      "日": 1063,
      "旦": 1064,
      "早": 1065,
      "星": 1066,
      "春": 1067,
      "時": 1068,
      "書": 1069,
      "月": 1070,
      "朝": 1071,
      "木": 1072,
      "本": 1073,
      "李": 1074,
      "杜": 1075,
      "束": 1076,
      "条": 1077,
      "東": 1078,
      "松": 1079,
      "枚": 1080,
      "條": 1081,
      "植": 1082,
      "椎": 1083,
      "楽": 1084,
      "様": 1085,
      "機": 1086,
      "正": 1087,
      "武": 1088,
      "歩": 1089,
      "死": 1090,
      "殻": 1091,
      "氏": 1092,
      "民": 1093,
      "気": 1094,
      "氣": 1095,
      "水": 1096,
      "氷": 1097,
      "氾": 1098,
      "法": 1099,
      "活": 1100,
      "流": 1101,
      "浅": 1102,
      "海": 1103,
      "溜": 1104,
      "瀬": 1105,
      "火": 1106,
      "無": 1107,
      "版": 1108,
      "特": 1109,
      "王": 1110,
      "瓦": 1111,
      "生": 1112,
      "用": 1113,
      "田": 1114,
      "町": 1115,
      "界": 1116,
      "畫": 1117,
      "皮": 1118,
      "真": 1119,
      "礮": 1120,
      "神": 1121,
      "秋": 1122,
      "積": 1123,
      "空": 1124,
      "章": 1125,
      "箇": 1126,
      "節": 1127,
      "米": 1128,
      "約": 1129,
      "紋": 1130,
      "綾": 1131,
      "緑": 1132,
      "編": 1133,
      "群": 1134,
      "羽": 1135,
      "耕": 1136,
      "聖": 1137,
      "肖": 1138,
      "膺": 1139,
      "芝": 1140,
      "花": 1141,
      "草": 1142,
      "莊": 1143,
      "蛍": 1144,
      "街": 1145,
      "裁": 1146,
      "装": 1147,
      "西": 1148,
      "見": 1149,
      "語": 1150,
      "説": 1151,
      "議": 1152,
      "词": 1153,
      "谷": 1154,
      "路": 1155,
      "軍": 1156,
      "転": 1157,
      "輝": 1158,
      "逆": 1159,
      "進": 1160,
      "道": 1161,
      "遠": 1162,
      "邪": 1163,
      "部": 1164,
      "野": 1165,
      "量": 1166,
      "金": 1167,
      "銀": 1168,
      "銖": 1169,
      "錬": 1170,
      "隊": 1171,
      "隴": 1172,
      "隻": 1173,
      "雄": 1174,
      "集": 1175,
      "雪": 1176,
      "零": 1177,
      "靈": 1178,
      "青": 1179,
      "韓": 1180,
      "風": 1181,
      "鬼": 1182,
      "魂": 1183,
      "魄": 1184,
      "魔": 1185,
      "鼓": 1186,
      "거": 1187,
      "루": 1188,
      "마": 1189,
      "막": 1190,
      "말": 1191,
      "사": 1192,
      "인": 1193,
      "전": 1194,
      "지": 1195,
      "짓": 1196,
      "투": 1197,
      "하": 1198,
      "﻿": 1199,
      "th": 1200,
      "in": 1201,
      "er": 1202,
      "an": 1203,
      "the": 1204,
      "on": 1205,
      "ed": 1206,
      "re": 1207,
      "at": 1208,
      "en": 1209,
      "or": 1210,
      "al": 1211,
      "st": 1212,
      "ar": 1213,
      "and": 1214,
      "as": 1215,
      "of": 1216,
      "ing": 1217,
      "es": 1218,
      "to": 1219,
      "is": 1220,
      "it": 1221,
      "ou": 1222,
      "ic": 1223,
      "ion": 1224,
      "le": 1225,
      "he": 1226,
      "ro": 1227,
      "il": 1228,
      "ac": 1229,
      "ent": 1230,
      "ad": 1231,
      "se": 1232,
      "un": 1233,
      "am": 1234,
      "om": 1235,
      "be": 1236,
      "ly": 1237,
      "was": 1238,
      "for": 1239,
      "ch": 1240,
      "ve": 1241,
      "de": 1242,
      "ur": 1243,
      "ol": 1244,
      "ir": 1245,
      "The": 1246,
      "im": 1247,
      "-@": 1248,
      "@-@": 1249,
      "ig": 1250,
      "ver": 1251,
      "ter": 1252,
      "wh": 1253,
      "ow": 1254,
      "ith": 1255,
      "ce": 1256,
      "ay": 1257,
      "con": 1258,
      "id": 1259,
      "ation": 1260,
      "ct": 1261,
      "with": 1262,
      "that": 1263,
      "ag": 1264,
      "te": 1265,
      "by": 1266,
      "us": 1267,
      "ot": 1268,
      "ere": 1269,
      "el": 1270,
      "ri": 1271,
      "ul": 1272,
      "ap": 1273,
      "ut": 1274,
      "19": 1275,
      "et": 1276,
      "res": 1277,
      "ain": 1278,
      "ers": 1279,
      "op": 1280,
      "pl": 1281,
      "com": 1282,
      "his": 1283,
      "rom": 1284,
      "um": 1285,
      "all": 1286,
      "00": 1287,
      "oun": 1288,
      "ab": 1289,
      "unk": 1290,
      "mo": 1291,
      "ist": 1292,
      "su": 1293,
      "ne": 1294,
      "pro": 1295,
      "sh": 1296,
      "from": 1297,
      "pe": 1298,
      "In": 1299,
      "cl": 1300,
      "ate": 1301,
      "are": 1302,
      "art": 1303,
      "li": 1304,
      "tr": 1305,
      "ther": 1306,
      "igh": 1307,
      "os": 1308,
      "di": 1309,
      "em": 1310,
      "ex": 1311,
      "ber": 1312,
      "est": 1313,
      "ich": 1314,
      "were": 1315,
      "ld": 1316,
      "ard": 1317,
      "ill": 1318,
      "oc": 1319,
      "ak": 1320,
      "ast": 1321,
      "ies": 1322,
      "ant": 1323,
      "ong": 1324,
      "per": 1325,
      "qu": 1326,
      "gh": 1327,
      "ment": 1328,
      "ated": 1329,
      "ive": 1330,
      "out": 1331,
      "man": 1332,
      "ame": 1333,
      "ity": 1334,
      "fe": 1335,
      "ess": 1336,
      "our": 1337,
      "had": 1338,
      "od": 1339,
      "end": 1340,
      "ish": 1341,
      "ack": 1342,
      "ort": 1343,
      "one": 1344,
      "als": 1345,
      "ear": 1346,
      "av": 1347,
      "over": 1348,
      "ge": 1349,
      "tw": 1350,
      "af": 1351,
      "which": 1352,
      "ip": 1353,
      "ough": 1354,
      "ound": 1355,
      "but": 1356,
      "not": 1357,
      "vi": 1358,
      "act": 1359,
      "gr": 1360,
      "ass": 1361,
      "ord": 1362,
      "ally": 1363,
      "ave": 1364,
      "str": 1365,
      "ight": 1366,
      "ine": 1367,
      "her": 1368,
      "ary": 1369,
      "rit": 1370,
      "its": 1371,
      "du": 1372,
      "iv": 1373,
      "ud": 1374,
      "pr": 1375,
      "ep": 1376,
      "ian": 1377,
      "if": 1378,
      "St": 1379,
      "Ch": 1380,
      "ore": 1381,
      "20": 1382,
      "fir": 1383,
      "200": 1384,
      "up": 1385,
      "ew": 1386,
      "ould": 1387,
      "ia": 1388,
      "ous": 1389,
      "own": 1390,
      "der": 1391,
      "au": 1392,
      "bo": 1393,
      "bl": 1394,
      "aw": 1395,
      "ction": 1396,
      "wor": 1397,
      "comp": 1398,
      "ev": 1399,
      "ach": 1400,
      "age": 1401,
      "ke": 1402,
      "att": 1403,
      "first": 1404,
      "land": 1405,
      "port": 1406,
      "ign": 1407,
      "ition": 1408,
      "form": 1409,
      "their": 1410,
      "si": 1411,
      "ical": 1412,
      "low": 1413,
      "sc": 1414,
      "lo": 1415,
      "ial": 1416,
      "ser": 1417,
      "tim": 1418,
      "ater": 1419,
      "po": 1420,
      "ll": 1421,
      "also": 1422,
      "He": 1423,
      "who": 1424,
      "br": 1425,
      "part": 1426,
      "int": 1427,
      "ure": 1428,
      "18": 1429,
      "has": 1430,
      "other": 1431,
      "rec": 1432,
      "have": 1433,
      "play": 1434,
      "ome": 1435,
      "ans": 1436,
      "pt": 1437,
      "ust": 1438,
      "cont": 1439,
      "off": 1440,
      "ree": 1441,
      "ok": 1442,
      ".@": 1443,
      "@.@": 1444,
      "two": 1445,
      "ile": 1446,
      "ence": 1447,
      "pres": 1448,
      "uring": 1449,
      "been": 1450,
      "me": 1451,
      "ice": 1452,
      "ance": 1453,
      "we": 1454,
      "mer": 1455,
      ",@": 1456,
      "@,@": 1457,
      "dis": 1458,
      "201": 1459,
      "pos": 1460,
      "Th": 1461,
      "It": 1462,
      "this": 1463,
      "ory": 1464,
      "year": 1465,
      "after": 1466,
      "ren": 1467,
      "ph": 1468,
      "ult": 1469,
      "cre": 1470,
      "des": 1471,
      "ell": 1472,
      "ace": 1473,
      "ved": 1474,
      "fin": 1475,
      "ark": 1476,
      "ade": 1477,
      "they": 1478,
      "An": 1479,
      "able": 1480,
      "mon": 1481,
      "co": 1482,
      "sp": 1483,
      "incl": 1484,
      "ue": 1485,
      "ite": 1486,
      "ail": 1487,
      "Un": 1488,
      "ever": 1489,
      "work": 1490,
      "ang": 1491,
      "sion": 1492,
      "air": 1493,
      "ff": 1494,
      "time": 1495,
      "inter": 1496,
      "urn": 1497,
      "would": 1498,
      "ations": 1499,
      "ship": 1500,
      "pre": 1501,
      "og": 1502,
      "ced": 1503,
      "into": 1504,
      "cent": 1505,
      "him": 1506,
      "cr": 1507,
      "iz": 1508,
      "ick": 1509,
      "vel": 1510,
      "spe": 1511,
      "she": 1512,
      "mber": 1513,
      "ict": 1514,
      "ates": 1515,
      "no": 1516,
      "ie": 1517,
      "ased": 1518,
      "more": 1519,
      "ited": 1520,
      "ilm": 1521,
      "min": 1522,
      "old": 1523,
      "way": 1524,
      "ty": 1525,
      "ire": 1526,
      "most": 1527,
      "ces": 1528,
      "new": 1529,
      "amp": 1530,
      "son": 1531,
      "fore": 1532,
      "main": 1533,
      "Ar": 1534,
      "bec": 1535,
      "Al": 1536,
      "ry": 1537,
      "any": 1538,
      "ten": 1539,
      "ase": 1540,
      "ret": 1541,
      "used": 1542,
      "ason": 1543,
      "fl": 1544,
      "ann": 1545,
      "ood": 1546,
      "includ": 1547,
      "cond": 1548,
      "cted": 1549,
      "cess": 1550,
      "ings": 1551,
      "ran": 1552,
      "ind": 1553,
      "vis": 1554,
      "ors": 1555,
      "red": 1556,
      "when": 1557,
      "film": 1558,
      "day": 1559,
      "les": 1560,
      "ted": 1561,
      "ered": 1562,
      "rough": 1563,
      "ath": 1564,
      "ild": 1565,
      "comm": 1566,
      "ward": 1567,
      "ton": 1568,
      "col": 1569,
      "ake": 1570,
      "ican": 1571,
      "Mar": 1572,
      "Au": 1573,
      "ob": 1574,
      "bu": 1575,
      "though": 1576,
      "gan": 1577,
      "ts": 1578,
      "een": 1579,
      "ions": 1580,
      "reg": 1581,
      "sy": 1582,
      "ens": 1583,
      "Wh": 1584,
      "during": 1585,
      "ra": 1586,
      "than": 1587,
      "Re": 1588,
      "On": 1589,
      "De": 1590,
      "again": 1591,
      "game": 1592,
      "ose": 1593,
      "so": 1594,
      "under": 1595,
      "ble": 1596,
      "ubl": 1597,
      "gen": 1598,
      "nor": 1599,
      "char": 1600,
      "produ": 1601,
      "199": 1602,
      "only": 1603,
      "ck": 1604,
      "ollow": 1605,
      "them": 1606,
      "about": 1607,
      "row": 1608,
      "can": 1609,
      "ents": 1610,
      "while": 1611,
      "New": 1612,
      "ide": 1613,
      "ational": 1614,
      "some": 1615,
      "song": 1616,
      "En": 1617,
      "rele": 1618,
      "later": 1619,
      "oy": 1620,
      "led": 1621,
      "tween": 1622,
      "outh": 1623,
      "between": 1624,
      "ele": 1625,
      "sing": 1626,
      "three": 1627,
      "10": 1628,
      "ating": 1629,
      "Af": 1630,
      "where": 1631,
      "through": 1632,
      "num": 1633,
      "ron": 1634,
      "coun": 1635,
      "aid": 1636,
      "As": 1637,
      "season": 1638,
      "ics": 1639,
      "view": 1640,
      "ful": 1641,
      "lar": 1642,
      "cons": 1643,
      "Amer": 1644,
      "my": 1645,
      "tain": 1646,
      "ern": 1647,
      "writ": 1648,
      "stru": 1649,
      "sub": 1650,
      "ied": 1651,
      "then": 1652,
      "rel": 1653,
      "iver": 1654,
      "kn": 1655,
      "000": 1656,
      "ular": 1657,
      "dr": 1658,
      "Le": 1659,
      "ters": 1660,
      "Jo": 1661,
      "second": 1662,
      "high": 1663,
      "sel": 1664,
      "made": 1665,
      "med": 1666,
      "set": 1667,
      "Com": 1668,
      "ef": 1669,
      "ames": 1670,
      "bum": 1671,
      "record": 1672,
      "four": 1673,
      "follow": 1674,
      "do": 1675,
      "spec": 1676,
      "go": 1677,
      "such": 1678,
      "loc": 1679,
      "17": 1680,
      "sur": 1681,
      "ished": 1682,
      "cap": 1683,
      "arri": 1684,
      "eng": 1685,
      "ub": 1686,
      "before": 1687,
      "atch": 1688,
      "No": 1689,
      "back": 1690,
      "there": 1691,
      "cur": 1692,
      "..": 1693,
      "team": 1694,
      "well": 1695,
      "mus": 1696,
      "15": 1697,
      "years": 1698,
      "iel": 1699,
      "appe": 1700,
      "cho": 1701,
      "ven": 1702,
      "ma": 1703,
      "add": 1704,
      "inn": 1705,
      "This": 1706,
      "ident": 1707,
      "sup": 1708,
      "ks": 1709,
      "pol": 1710,
      "album": 1711,
      "Con": 1712,
      "ific": 1713,
      "publ": 1714,
      "ros": 1715,
      "reat": 1716,
      "owever": 1717,
      "ily": 1718,
      "call": 1719,
      "je": 1720,
      "fer": 1721,
      "tem": 1722,
      "Nor": 1723,
      "Sh": 1724,
      "gu": 1725,
      "ual": 1726,
      "ative": 1727,
      "many": 1728,
      "being": 1729,
      "point": 1730,
      "unt": 1731,
      "epis": 1732,
      "ale": 1733,
      "uary": 1734,
      "oup": 1735,
      "ond": 1736,
      "ince": 1737,
      "ode": 1738,
      "velop": 1739,
      "against": 1740,
      "At": 1741,
      "number": 1742,
      "ury": 1743,
      "use": 1744,
      "ped": 1745,
      "side": 1746,
      "lead": 1747,
      "ins": 1748,
      "show": 1749,
      "charac": 1750,
      "After": 1751,
      "ft": 1752,
      "sever": 1753,
      "Be": 1754,
      "mem": 1755,
      "16": 1756,
      "ause": 1757,
      "war": 1758,
      "par": 1759,
      "appear": 1760,
      "long": 1761,
      "found": 1762,
      "rece": 1763,
      "ious": 1764,
      "became": 1765,
      "12": 1766,
      "Brit": 1767,
      "ash": 1768,
      "including": 1769,
      "like": 1770,
      "United": 1771,
      "serv": 1772,
      "io": 1773,
      "both": 1774,
      "hn": 1775,
      "ese": 1776,
      "orn": 1777,
      "series": 1778,
      "Se": 1779,
      "198": 1780,
      "feat": 1781,
      "ise": 1782,
      "cy": 1783,
      "ost": 1784,
      "line": 1785,
      "cri": 1786,
      "mi": 1787,
      "igin": 1788,
      "194": 1789,
      "did": 1790,
      "ended": 1791,
      "She": 1792,
      "eral": 1793,
      "develop": 1794,
      "rop": 1795,
      "tri": 1796,
      "mill": 1797,
      "contin": 1798,
      "ments": 1799,
      "dire": 1800,
      "ley": 1801,
      "cer": 1802,
      "ities": 1803,
      "ures": 1804,
      "down": 1805,
      "ock": 1806,
      "Eng": 1807,
      "suc": 1808,
      "pop": 1809,
      "30": 1810,
      "diff": 1811,
      "head": 1812,
      "John": 1813,
      "dec": 1814,
      "road": 1815,
      "run": 1816,
      "pass": 1817,
      "az": 1818,
      "episode": 1819,
      "ird": 1820,
      "uch": 1821,
      "War": 1822,
      "said": 1823,
      "leg": 1824,
      "west": 1825,
      "ouse": 1826,
      "Wor": 1827,
      "could": 1828,
      "por": 1829,
      "ress": 1830,
      "erson": 1831,
      "several": 1832,
      "mis": 1833,
      "American": 1834,
      "known": 1835,
      "peri": 1836,
      "Ro": 1837,
      "origin": 1838,
      "vid": 1839,
      "vol": 1840,
      "lin": 1841,
      "ield": 1842,
      "197": 1843,
      "che": 1844,
      "comple": 1845,
      "arch": 1846,
      "rest": 1847,
      "ised": 1848,
      "196": 1849,
      "14": 1850,
      "II": 1851,
      "cord": 1852,
      "For": 1853,
      "ually": 1854,
      "sign": 1855,
      "self": 1856,
      "music": 1857,
      "Gr": 1858,
      "stem": 1859,
      "car": 1860,
      "remain": 1861,
      "return": 1862,
      "bed": 1863,
      "cept": 1864,
      "began": 1865,
      "oper": 1866,
      "design": 1867,
      "Ger": 1868,
      "try": 1869,
      "Br": 1870,
      "ste": 1871,
      "ting": 1872,
      "ople": 1873,
      "chool": 1874,
      "sm": 1875,
      "state": 1876,
      "early": 1877,
      "13": 1878,
      "aking": 1879,
      "hel": 1880,
      "ah": 1881,
      "cover": 1882,
      "released": 1883,
      "near": 1884,
      "dist": 1885,
      "ball": 1886,
      "ived": 1887,
      "descri": 1888,
      "Col": 1889,
      "until": 1890,
      "US": 1891,
      "called": 1892,
      "ject": 1893,
      "une": 1894,
      "success": 1895,
      "open": 1896,
      "present": 1897,
      "plac": 1898,
      "trans": 1899,
      "men": 1900,
      "Sc": 1901,
      "Tr": 1902,
      "fam": 1903,
      "arr": 1904,
      "hist": 1905,
      "ross": 1906,
      "olog": 1907,
      "May": 1908,
      "king": 1909,
      "hy": 1910,
      "offic": 1911,
      "get": 1912,
      "band": 1913,
      "ially": 1914,
      "crit": 1915,
      "overn": 1916,
      "gg": 1917,
      "val": 1918,
      "group": 1919,
      "gust": 1920,
      "less": 1921,
      "ists": 1922,
      "may": 1923,
      "along": 1924,
      "vent": 1925,
      "ves": 1926,
      "ms": 1927,
      "50": 1928,
      "nam": 1929,
      "bers": 1930,
      "million": 1931,
      "ower": 1932,
      "Cl": 1933,
      "mil": 1934,
      "British": 1935,
      "tow": 1936,
      "jor": 1937,
      "xt": 1938,
      "ving": 1939,
      "Sep": 1940,
      "sim": 1941,
      "bre": 1942,
      "cast": 1943,
      "these": 1944,
      "met": 1945,
      "come": 1946,
      "enn": 1947,
      "fect": 1948,
      "ather": 1949,
      "ric": 1950,
      "ized": 1951,
      "attack": 1952,
      "oci": 1953,
      "cut": 1954,
      "tember": 1955,
      "cle": 1956,
      "Wil": 1957,
      "national": 1958,
      "stral": 1959,
      "Sp": 1960,
      "now": 1961,
      "September": 1962,
      "August": 1963,
      "World": 1964,
      "ured": 1965,
      "States": 1966,
      "requ": 1967,
      "stor": 1968,
      "let": 1969,
      "took": 1970,
      "batt": 1971,
      "continu": 1972,
      "large": 1973,
      "same": 1974,
      "people": 1975,
      "Ju": 1976,
      "dep": 1977,
      "character": 1978,
      "oot": 1979,
      "und": 1980,
      "because": 1981,
      "vide": 1982,
      "Car": 1983,
      "ib": 1984,
      "light": 1985,
      "var": 1986,
      "grap": 1987,
      "position": 1988,
      "read": 1989,
      "11": 1990,
      "ism": 1991,
      "result": 1992,
      "around": 1993,
      "ired": 1994,
      "Oc": 1995,
      "start": 1996,
      "Is": 1997,
      "km": 1998,
      "aving": 1999,
      "class": 2000,
      "ctor": 2001,
      "wee": 2002,
      "ivers": 2003,
      "Bl": 2004,
      "Jan": 2005,
      "sk": 2006,
      "Ad": 2007,
      "cour": 2008,
      "aim": 2009,
      "Austral": 2010,
      "pon": 2011,
      "formed": 2012,
      "support": 2013,
      "oth": 2014,
      "vision": 2015,
      "mark": 2016,
      "la": 2017,
      "build": 2018,
      "ca": 2019,
      "following": 2020,
      "inc": 2021,
      "north": 2022,
      "life": 2023,
      "allow": 2024,
      "ants": 2025,
      "six": 2026,
      "system": 2027,
      "tal": 2028,
      "However": 2029,
      "ork": 2030,
      "ison": 2031,
      "track": 2032,
      "Octo": 2033,
      "Pl": 2034,
      "prom": 2035,
      "consid": 2036,
      "aft": 2037,
      "each": 2038,
      "received": 2039,
      "urch": 2040,
      "October": 2041,
      "rist": 2042,
      "will": 2043,
      "ime": 2044,
      "ained": 2045,
      "ium": 2046,
      "Pr": 2047,
      "West": 2048,
      "place": 2049,
      "ility": 2050,
      "very": 2051,
      "ys": 2052,
      "govern": 2053,
      "ax": 2054,
      "sol": 2055,
      "thern": 2056,
      "liam": 2057,
      "five": 2058,
      "ling": 2059,
      "just": 2060,
      "ru": 2061,
      "area": 2062,
      "stand": 2063,
      "right": 2064,
      "century": 2065,
      "ars": 2066,
      "wards": 2067,
      "appro": 2068,
      "They": 2069,
      "def": 2070,
      "partic": 2071,
      "match": 2072,
      "ately": 2073,
      "report": 2074,
      "city": 2075,
      "North": 2076,
      "By": 2077,
      "York": 2078,
      "rote": 2079,
      "ple": 2080,
      "public": 2081,
      "world": 2082,
      "June": 2083,
      "contro": 2084,
      "book": 2085,
      "giv": 2086,
      "tle": 2087,
      "top": 2088,
      "small": 2089,
      "major": 2090,
      "ked": 2091,
      "cording": 2092,
      "King": 2093,
      "jo": 2094,
      "ground": 2095,
      "July": 2096,
      "field": 2097,
      "ina": 2098,
      "Nove": 2099,
      "last": 2100,
      "Can": 2101,
      "November": 2102,
      "played": 2103,
      "organ": 2104,
      "what": 2105,
      "ger": 2106,
      "turn": 2107,
      "Man": 2108,
      "ored": 2109,
      "atter": 2110,
      "25": 2111,
      "tit": 2112,
      "east": 2113,
      "person": 2114,
      "since": 2115,
      "town": 2116,
      "single": 2117,
      "lish": 2118,
      "ional": 2119,
      "Apr": 2120,
      "sequ": 2121,
      "March": 2122,
      "April": 2123,
      "reach": 2124,
      "gun": 2125,
      "Fe": 2126,
      "app": 2127,
      "aged": 2128,
      "even": 2129,
      "Ac": 2130,
      "arm": 2131,
      "care": 2132,
      "ude": 2133,
      "ural": 2134,
      "name": 2135,
      "pri": 2136,
      "won": 2137,
      "ster": 2138,
      "Eu": 2139,
      "Ge": 2140,
      "differ": 2141,
      "power": 2142,
      "Mc": 2143,
      "Co": 2144,
      "dom": 2145,
      "hal": 2146,
      "vious": 2147,
      "0s": 2148,
      "ient": 2149,
      "Coun": 2150,
      "lit": 2151,
      "bro": 2152,
      "idge": 2153,
      "ague": 2154,
      "Indi": 2155,
      "final": 2156,
      "ined": 2157,
      "test": 2158,
      "left": 2159,
      "ref": 2160,
      "due": 2161,
      "South": 2162,
      "south": 2163,
      "event": 2164,
      "During": 2165,
      "version": 2166,
      "gre": 2167,
      "udi": 2168,
      "school": 2169,
      "ages": 2170,
      "list": 2171,
      "Dece": 2172,
      "ica": 2173,
      "ank": 2174,
      "December": 2175,
      "third": 2176,
      "German": 2177,
      "avy": 2178,
      "incre": 2179,
      "ilt": 2180,
      "water": 2181,
      "Me": 2182,
      "aff": 2183,
      "month": 2184,
      "Ph": 2185,
      "Ed": 2186,
      "moved": 2187,
      "ision": 2188,
      "Ste": 2189,
      "much": 2190,
      "ier": 2191,
      "child": 2192,
      "another": 2193,
      "expl": 2194,
      "ets": 2195,
      "named": 2196,
      "January": 2197,
      "included": 2198,
      "195": 2199,
      "based": 2200,
      "We": 2201,
      "...": 2202,
      "issu": 2203,
      "wrote": 2204,
      "claim": 2205,
      "camp": 2206,
      "government": 2207,
      "193": 2208,
      "ships": 2209,
      "All": 2210,
      "kill": 2211,
      "ales": 2212,
      "ians": 2213,
      "When": 2214,
      "ons": 2215,
      "apan": 2216,
      "home": 2217,
      "ls": 2218,
      "chan": 2219,
      "short": 2220,
      "story": 2221,
      "Or": 2222,
      "Pe": 2223,
      "death": 2224,
      "ane": 2225,
      "bert": 2226,
      "ute": 2227,
      "order": 2228,
      "24": 2229,
      "ought": 2230,
      "ature": 2231,
      "Japan": 2232,
      "ently": 2233,
      "Gu": 2234,
      "roy": 2235,
      "ner": 2236,
      "ext": 2237,
      "ically": 2238,
      "ody": 2239,
      "make": 2240,
      "press": 2241,
      "using": 2242,
      "tempt": 2243,
      "family": 2244,
      "review": 2245,
      "Pro": 2246,
      "ital": 2247,
      "species": 2248,
      "pect": 2249,
      "ution": 2250,
      "oss": 2251,
      "flu": 2252,
      "hand": 2253,
      "house": 2254,
      "described": 2255,
      "ement": 2256,
      "previous": 2257,
      "ik": 2258,
      "fact": 2259,
      "rench": 2260,
      "ney": 2261,
      "dam": 2262,
      "dest": 2263,
      "rown": 2264,
      "ards": 2265,
      "forman": 2266,
      "late": 2267,
      "Euro": 2268,
      "beli": 2269,
      "thing": 2270,
      "cas": 2271,
      "real": 2272,
      "urther": 2273,
      "built": 2274,
      "gener": 2275,
      "ilar": 2276,
      "former": 2277,
      "ified": 2278,
      "Bo": 2279,
      "best": 2280,
      "ene": 2281,
      "attempt": 2282,
      "oute": 2283,
      "placed": 2284,
      "tak": 2285,
      "games": 2286,
      "ler": 2287,
      "mp": 2288,
      "tract": 2289,
      "polit": 2290,
      "ness": 2291,
      "held": 2292,
      "command": 2293,
      "stud": 2294,
      "colle": 2295,
      "still": 2296,
      "put": 2297,
      "ety": 2298,
      "original": 2299,
      "stit": 2300,
      "His": 2301,
      "those": 2302,
      "ared": 2303,
      "addition": 2304,
      "constru": 2305,
      "Mon": 2306,
      "gram": 2307,
      "bruary": 2308,
      "February": 2309,
      "ford": 2310,
      "lim": 2311,
      "augh": 2312,
      "next": 2313,
      "vo": 2314,
      "effect": 2315,
      "anc": 2316,
      "Christ": 2317,
      "There": 2318,
      "fall": 2319,
      "performan": 2320,
      "fel": 2321,
      "mid": 2322,
      "fri": 2323,
      "gy": 2324,
      "den": 2325,
      "Par": 2326,
      "members": 2327,
      "rican": 2328,
      "sent": 2329,
      "21": 2330,
      "ctions": 2331,
      "ences": 2332,
      "ator": 2333,
      "National": 2334,
      "mar": 2335,
      "100": 2336,
      "Europe": 2337,
      "Gen": 2338,
      "iversity": 2339,
      "days": 2340,
      "see": 2341,
      "period": 2342,
      "adv": 2343,
      "within": 2344,
      "mit": 2345,
      "ats": 2346,
      "Li": 2347,
      "French": 2348,
      "ham": 2349,
      "22": 2350,
      "release": 2351,
      "role": 2352,
      "although": 2353,
      "move": 2354,
      "init": 2355,
      "thor": 2356,
      "video": 2357,
      "wind": 2358,
      "ush": 2359,
      "say": 2360,
      "half": 2361,
      "2010": 2362,
      "hip": 2363,
      "ines": 2364,
      "bur": 2365,
      "estab": 2366,
      "came": 2367,
      "ze": 2368,
      "cor": 2369,
      "William": 2370,
      "ropical": 2371,
      "continued": 2372,
      "Ser": 2373,
      "wom": 2374,
      "round": 2375,
      "23": 2376,
      "Her": 2377,
      "law": 2378,
      "ps": 2379,
      "win": 2380,
      "And": 2381,
      "aining": 2382,
      "craft": 2383,
      "na": 2384,
      "uc": 2385,
      "ains": 2386,
      "ribut": 2387,
      "ning": 2388,
      "ulation": 2389,
      "hum": 2390,
      "posed": 2391,
      "sou": 2392,
      "uss": 2393,
      "however": 2394,
      "ris": 2395,
      "ending": 2396,
      "ones": 2397,
      "27": 2398,
      "itary": 2399,
      "ched": 2400,
      "2008": 2401,
      "inning": 2402,
      "fac": 2403,
      "often": 2404,
      "2009": 2405,
      "you": 2406,
      "Geor": 2407,
      "few": 2408,
      "ral": 2409,
      "imes": 2410,
      "equ": 2411,
      "ister": 2412,
      "ampion": 2413,
      "ali": 2414,
      "take": 2415,
      "rad": 2416,
      "stri": 2417,
      "mag": 2418,
      "friend": 2419,
      "28": 2420,
      "local": 2421,
      "player": 2422,
      "similar": 2423,
      "2011": 2424,
      "sen": 2425,
      "Fran": 2426,
      "among": 2427,
      "Ear": 2428,
      "Air": 2429,
      "production": 2430,
      "beg": 2431,
      "Mich": 2432,
      "pite": 2433,
      "force": 2434,
      "Des": 2435,
      "went": 2436,
      "different": 2437,
      "wood": 2438,
      "ior": 2439,
      "ix": 2440,
      "Inter": 2441,
      "Bar": 2442,
      "chang": 2443,
      "possi": 2444,
      "mission": 2445,
      "ony": 2446,
      "England": 2447,
      "26": 2448,
      "ove": 2449,
      "Char": 2450,
      "atic": 2451,
      "storm": 2452,
      "40": 2453,
      "ery": 2454,
      "further": 2455,
      "strong": 2456,
      "One": 2457,
      "week": 2458,
      "night": 2459,
      "considered": 2460,
      "company": 2461,
      "level": 2462,
      "Mus": 2463,
      "sty": 2464,
      "served": 2465,
      "Dav": 2466,
      "ides": 2467,
      "2007": 2468,
      "post": 2469,
      "ided": 2470,
      "ices": 2471,
      "career": 2472,
      "aver": 2473,
      "Har": 2474,
      "fire": 2475,
      "provid": 2476,
      "having": 2477,
      "City": 2478,
      "ively": 2479,
      "East": 2480,
      "ged": 2481,
      "fort": 2482,
      "Park": 2483,
      "action": 2484,
      "exp": 2485,
      "commun": 2486,
      "trad": 2487,
      "English": 2488,
      "tele": 2489,
      "uck": 2490,
      "bas": 2491,
      "fron": 2492,
      "every": 2493,
      "enter": 2494,
      "club": 2495,
      "without": 2496,
      "history": 2497,
      "Although": 2498,
      "refer": 2499,
      "hold": 2500,
      "ives": 2501,
      "studi": 2502,
      "written": 2503,
      "wide": 2504,
      "2012": 2505,
      "become": 2506,
      "Scot": 2507,
      "lands": 2508,
      "stead": 2509,
      "ops": 2510,
      "board": 2511,
      "Fr": 2512,
      "respon": 2513,
      "Lond": 2514,
      "influ": 2515,
      "ink": 2516,
      "reet": 2517,
      "London": 2518,
      "graph": 2519,
      "sound": 2520,
      "Ang": 2521,
      "foot": 2522,
      "ggest": 2523,
      "With": 2524,
      "invol": 2525,
      "River": 2526,
      "suggest": 2527,
      "Batt": 2528,
      "ung": 2529,
      "29": 2530,
      "190": 2531,
      "So": 2532,
      "given": 2533,
      "announ": 2534,
      "ington": 2535,
      "que": 2536,
      "prof": 2537,
      "divid": 2538,
      "tro": 2539,
      "oung": 2540,
      "Ex": 2541,
      "bus": 2542,
      "iss": 2543,
      "mand": 2544,
      "want": 2545,
      "key": 2546,
      "reen": 2547,
      "Mo": 2548,
      "change": 2549,
      "building": 2550,
      "comb": 2551,
      "Canad": 2552,
      "High": 2553,
      "imp": 2554,
      "father": 2555,
      "gave": 2556,
      "successful": 2557,
      "Te": 2558,
      "anim": 2559,
      "common": 2560,
      "published": 2561,
      "Ne": 2562,
      "University": 2563,
      "To": 2564,
      "close": 2565,
      "import": 2566,
      "stated": 2567,
      "seven": 2568,
      "cop": 2569,
      "Sy": 2570,
      "rent": 2571,
      "sure": 2572,
      "never": 2573,
      "While": 2574,
      "good": 2575,
      "dri": 2576,
      "ailed": 2577,
      "returned": 2578,
      "ai": 2579,
      "bor": 2580,
      "produced": 2581,
      "total": 2582,
      "ug": 2583,
      "Pol": 2584,
      "beh": 2585,
      "iment": 2586,
      "ae": 2587,
      "country": 2588,
      "face": 2589,
      "sw": 2590,
      "omin": 2591,
      "prote": 2592,
      "Fl": 2593,
      "eved": 2594,
      "hour": 2595,
      "fr": 2596,
      "find": 2597,
      "away": 2598,
      "popular": 2599,
      "quad": 2600,
      "del": 2601,
      "sit": 2602,
      "tour": 2603,
      "reported": 2604,
      "aren": 2605,
      "Div": 2606,
      "omet": 2607,
      "ably": 2608,
      "2006": 2609,
      "lost": 2610,
      "program": 2611,
      "compos": 2612,
      "great": 2613,
      "aign": 2614,
      "particular": 2615,
      "ways": 2616,
      "draw": 2617,
      "vest": 2618,
      "making": 2619,
      "Cor": 2620,
      "include": 2621,
      "author": 2622,
      "According": 2623,
      "decl": 2624,
      "interest": 2625,
      "recorded": 2626,
      "chn": 2627,
      "how": 2628,
      "struct": 2629,
      "indu": 2630,
      "vers": 2631,
      "Dr": 2632,
      "forces": 2633,
      "arried": 2634,
      "need": 2635,
      "vict": 2636,
      "direct": 2637,
      "fle": 2638,
      "urrican": 2639,
      "plan": 2640,
      "ology": 2641,
      "body": 2642,
      "itions": 2643,
      "bar": 2644,
      "site": 2645,
      "aur": 2646,
      "should": 2647,
      "ama": 2648,
      "ploy": 2649,
      "service": 2650,
      "quar": 2651,
      "performance": 2652,
      "suff": 2653,
      "died": 2654,
      "moder": 2655,
      "Phil": 2656,
      "teen": 2657,
      "ument": 2658,
      "times": 2659,
      "These": 2660,
      "soci": 2661,
      "capt": 2662,
      "ox": 2663,
      "coming": 2664,
      "grad": 2665,
      "aircraft": 2666,
      "Roy": 2667,
      "himself": 2668,
      "2013": 2669,
      "pen": 2670,
      "military": 2671,
      "rock": 2672,
      "intro": 2673,
      "Australia": 2674,
      "depend": 2675,
      "flo": 2676,
      "battle": 2677,
      "ned": 2678,
      "sum": 2679,
      "Jack": 2680,
      "tell": 2681,
      "rew": 2682,
      "agre": 2683,
      "net": 2684,
      "room": 2685,
      "fan": 2686,
      "songs": 2687,
      "fun": 2688,
      "Pres": 2689,
      "member": 2690,
      "pur": 2691,
      "Am": 2692,
      "iness": 2693,
      "critic": 2694,
      "development": 2695,
      "ana": 2696,
      "elect": 2697,
      "General": 2698,
      "State": 2699,
      "Rep": 2700,
      "search": 2701,
      "xim": 2702,
      "aul": 2703,
      "front": 2704,
      "represent": 2705,
      "alth": 2706,
      "aster": 2707,
      "Min": 2708,
      "ened": 2709,
      "look": 2710,
      "189": 2711,
      "BC": 2712,
      "itive": 2713,
      "itch": 2714,
      "ael": 2715,
      "James": 2716,
      "histor": 2717,
      "developed": 2718,
      "akes": 2719,
      "acy": 2720,
      "ges": 2721,
      "istr": 2722,
      "medi": 2723,
      "control": 2724,
      "introdu": 2725,
      "destroy": 2726,
      "children": 2727,
      "gl": 2728,
      "Sw": 2729,
      "sl": 2730,
      "remained": 2731,
      "nal": 2732,
      "chart": 2733,
      "star": 2734,
      "Rom": 2735,
      "characters": 2736,
      "Army": 2737,
      "range": 2738,
      "fav": 2739,
      "ption": 2740,
      "vir": 2741,
      "title": 2742,
      "months": 2743,
      "60": 2744,
      "clear": 2745,
      "Sm": 2746,
      "ither": 2747,
      "mm": 2748,
      "campaign": 2749,
      "occur": 2750,
      "ues": 2751,
      "urricane": 2752,
      "League": 2753,
      "ey": 2754,
      "ising": 2755,
      "cult": 2756,
      "taken": 2757,
      "ense": 2758,
      "gether": 2759,
      "eight": 2760,
      "rap": 2761,
      "van": 2762,
      "ream": 2763,
      "compet": 2764,
      "felt": 2765,
      "ban": 2766,
      "cir": 2767,
      "tropical": 2768,
      "ability": 2769,
      "across": 2770,
      "signific": 2771,
      "writing": 2772,
      "seen": 2773,
      "project": 2774,
      "disc": 2775,
      "omb": 2776,
      "ering": 2777,
      "Su": 2778,
      "ots": 2779,
      "station": 2780,
      "bridge": 2781,
      "gest": 2782,
      "too": 2783,
      "Cap": 2784,
      "appeared": 2785,
      "announced": 2786,
      "America": 2787,
      "pra": 2788,
      "noted": 2789,
      "pec": 2790,
      "tar": 2791,
      "Division": 2792,
      "George": 2793,
      "alter": 2794,
      "reached": 2795,
      "Tw": 2796,
      "appoint": 2797,
      "experi": 2798,
      "cil": 2799,
      "created": 2800,
      "County": 2801,
      "activ": 2802,
      "areas": 2803,
      "Hen": 2804,
      "television": 2805,
      "works": 2806,
      "uses": 2807,
      "Japanese": 2808,
      "2005": 2809,
      "fight": 2810,
      "gin": 2811,
      "Road": 2812,
      "ille": 2813,
      "saw": 2814,
      "performed": 2815,
      "prim": 2816,
      "cost": 2817,
      "various": 2818,
      "political": 2819,
      "lect": 2820,
      "complete": 2821,
      "followed": 2822,
      "Street": 2823,
      "break": 2824,
      "full": 2825,
      "inv": 2826,
      "hor": 2827,
      "iting": 2828,
      "Per": 2829,
      "players": 2830,
      "race": 2831,
      "trave": 2832,
      "style": 2833,
      "ality": 2834,
      "2014": 2835,
      "covered": 2836,
      "arded": 2837,
      "ago": 2838,
      "Ma": 2839,
      "process": 2840,
      "black": 2841,
      "abor": 2842,
      "mph": 2843,
      "mix": 2844,
      "mot": 2845,
      "mb": 2846,
      "antic": 2847,
      "killed": 2848,
      "points": 2849,
      "help": 2850,
      "ief": 2851,
      "wall": 2852,
      "Mad": 2853,
      "ances": 2854,
      "ible": 2855,
      "lished": 2856,
      "throughout": 2857,
      "hit": 2858,
      "live": 2859,
      "sess": 2860,
      "lines": 2861,
      "together": 2862,
      "debut": 2863,
      "bet": 2864,
      "formation": 2865,
      "techn": 2866,
      "little": 2867,
      "sex": 2868,
      "har": 2869,
      "stat": 2870,
      "established": 2871,
      "significant": 2872,
      "fem": 2873,
      "non": 2874,
      "meet": 2875,
      "broad": 2876,
      "ization": 2877,
      "coast": 2878,
      "Thom": 2879,
      "thought": 2880,
      "construction": 2881,
      "icult": 2882,
      "bel": 2883,
      "oto": 2884,
      "miles": 2885,
      "pair": 2886,
      "earli": 2887,
      "does": 2888,
      "Reg": 2889,
      "impro": 2890,
      "enced": 2891,
      "David": 2892,
      "aval": 2893,
      "Michael": 2894,
      "tra": 2895,
      "entire": 2896,
      "Australian": 2897,
      "born": 2898,
      "rain": 2899,
      "stage": 2900,
      "pain": 2901,
      "acc": 2902,
      "far": 2903,
      "ission": 2904,
      "young": 2905,
      "voc": 2906,
      "got": 2907,
      "odes": 2908,
      "relation": 2909,
      "Part": 2910,
      "special": 2911,
      "Rich": 2912,
      "El": 2913,
      "route": 2914,
      "conom": 2915,
      "women": 2916,
      "decided": 2917,
      "ators": 2918,
      "conne": 2919,
      "Bill": 2920,
      "You": 2921,
      "caused": 2922,
      "started": 2923,
      "case": 2924,
      "ivil": 2925,
      "playing": 2926,
      "general": 2927,
      "features": 2928,
      "Med": 2929,
      "San": 2930,
      "grow": 2931,
      "white": 2932,
      "eventually": 2933,
      "scri": 2934,
      "sell": 2935,
      "ho": 2936,
      "once": 2937,
      "House": 2938,
      "ample": 2939,
      "manag": 2940,
      "aves": 2941,
      "tee": 2942,
      "isted": 2943,
      "crew": 2944,
      "ull": 2945,
      "sold": 2946,
      "host": 2947,
      "Fin": 2948,
      "feet": 2949,
      "Royal": 2950,
      "Qu": 2951,
      "opened": 2952,
      "added": 2953,
      "ald": 2954,
      "stant": 2955,
      "modern": 2956,
      "located": 2957,
      "termin": 2958,
      "idence": 2959,
      "188": 2960,
      "Hist": 2961,
      "pat": 2962,
      "quadron": 2963,
      "base": 2964,
      "ampionship": 2965,
      "ife": 2966,
      "reek": 2967,
      "Some": 2968,
      "instead": 2969,
      "ring": 2970,
      "Ital": 2971,
      "itar": 2972,
      "ensive": 2973,
      "vari": 2974,
      "inj": 2975,
      "important": 2976,
      "peak": 2977,
      "clos": 2978,
      "theast": 2979,
      "section": 2980,
      "Music": 2981,
      "cret": 2982,
      "utes": 2983,
      "Black": 2984,
      "word": 2985,
      "Don": 2986,
      "completed": 2987,
      "possible": 2988,
      "hon": 2989,
      "ocial": 2990,
      "Comp": 2991,
      "moun": 2992,
      "ends": 2993,
      "worked": 2994,
      "ov": 2995,
      "cross": 2996,
      "ination": 2997,
      "cause": 2998,
      "My": 2999,
      "current": 3000,
      "others": 3001,
      "population": 3002,
      "oney": 3003,
      "free": 3004,
      "2004": 3005,
      "mater": 3006,
      "audi": 3007,
      "ying": 3008,
      "pred": 3009,
      "Mal": 3010,
      "Bel": 3011,
      "fig": 3012,
      "lled": 3013,
      "leading": 3014,
      "uel": 3015,
      "Sch": 3016,
      "pie": 3017,
      "oted": 3018,
      "rather": 3019,
      "typ": 3020,
      "Po": 3021,
      "don": 3022,
      "quest": 3023,
      "Lu": 3024,
      "loss": 3025,
      "guns": 3026,
      "behind": 3027,
      "church": 3028,
      "tre": 3029,
      "Ber": 3030,
      "Robert": 3031,
      "upon": 3032,
      "ceed": 3033,
      "pract": 3034,
      "forced": 3035,
      "Hol": 3036,
      "31": 3037,
      "dle": 3038,
      "comment": 3039,
      "lack": 3040,
      "era": 3041,
      "mother": 3042,
      "invest": 3043,
      "France": 3044,
      "ask": 3045,
      "fif": 3046,
      "2015": 3047,
      "inch": 3048,
      "heavy": 3049,
      "Cent": 3050,
      "lie": 3051,
      "vill": 3052,
      "ecut": 3053,
      "party": 3054,
      "ays": 3055,
      "respect": 3056,
      "Act": 3057,
      "School": 3058,
      "subsequ": 3059,
      "novel": 3060,
      "ming": 3061,
      "proble": 3062,
      "know": 3063,
      "Russ": 3064,
      "difficult": 3065,
      "accept": 3066,
      "reve": 3067,
      "Wash": 3068,
      "Ab": 3069,
      "Angel": 3070,
      "working": 3071,
      "separ": 3072,
      "human": 3073,
      "Vi": 3074,
      "associ": 3075,
      "joined": 3076,
      "weeks": 3077,
      "term": 3078,
      "Henry": 3079,
      "yn": 3080,
      "scene": 3081,
      "70": 3082,
      "ata": 3083,
      "originally": 3084,
      "avail": 3085,
      "hard": 3086,
      "coll": 3087,
      "ogn": 3088,
      "scored": 3089,
      "almost": 3090,
      "ories": 3091,
      "pression": 3092,
      "asing": 3093,
      "NA": 3094,
      "damage": 3095,
      "allowed": 3096,
      "Ham": 3097,
      "ties": 3098,
      "Battle": 3099,
      "angu": 3100,
      "inst": 3101,
      "mass": 3102,
      "Ale": 3103,
      "fourth": 3104,
      "spir": 3105,
      "Em": 3106,
      "Best": 3107,
      "approach": 3108,
      "ready": 3109,
      "igned": 3110,
      "provided": 3111,
      "engine": 3112,
      "goal": 3113,
      "Cr": 3114,
      "ival": 3115,
      "ope": 3116,
      "ials": 3117,
      "35": 3118,
      "claimed": 3119,
      "ament": 3120,
      "80": 3121,
      "ino": 3122,
      "drop": 3123,
      "Fir": 3124,
      "wanted": 3125,
      "lower": 3126,
      "regular": 3127,
      "Vir": 3128,
      "employ": 3129,
      "Paul": 3130,
      "cup": 3131,
      "Port": 3132,
      "amb": 3133,
      "brought": 3134,
      "Red": 3135,
      "tradition": 3136,
      "nat": 3137,
      "individ": 3138,
      "Que": 3139,
      "featured": 3140,
      "500": 3141,
      "President": 3142,
      "Cour": 3143,
      "least": 3144,
      "cell": 3145,
      "wife": 3146,
      "laun": 3147,
      "gar": 3148,
      "econom": 3149,
      "hest": 3150,
      "average": 3151,
      "Mil": 3152,
      "passed": 3153,
      "soon": 3154,
      "aut": 3155,
      "business": 3156,
      "towards": 3157,
      "super": 3158,
      "TV": 3159,
      "region": 3160,
      "runs": 3161,
      "cred": 3162,
      "Washington": 3163,
      "recogn": 3164,
      "aps": 3165,
      "bal": 3166,
      "tempor": 3167,
      "critics": 3168,
      "western": 3169,
      "Play": 3170,
      "azine": 3171,
      "quick": 3172,
      "either": 3173,
      "office": 3174,
      "estim": 3175,
      "cts": 3176,
      "sour": 3177,
      "186": 3178,
      "contract": 3179,
      "profess": 3180,
      "redu": 3181,
      "leng": 3182,
      "plann": 3183,
      "Mor": 3184,
      "defe": 3185,
      "court": 3186,
      "forms": 3187,
      "example": 3188,
      "emy": 3189,
      "counter": 3190,
      "merc": 3191,
      "rail": 3192,
      "rid": 3193,
      "nomin": 3194,
      "Other": 3195,
      "Mac": 3196,
      "ula": 3197,
      "troops": 3198,
      "foc": 3199,
      "icated": 3200,
      "compan": 3201,
      "finished": 3202,
      "Res": 3203,
      "cing": 3204,
      "nia": 3205,
      "hom": 3206,
      "army": 3207,
      "dou": 3208,
      "ids": 3209,
      "Je": 3210,
      "Despite": 3211,
      "concl": 3212,
      "2003": 3213,
      "Follow": 3214,
      "rul": 3215,
      "feel": 3216,
      "ades": 3217,
      "generally": 3218,
      "shot": 3219,
      "mult": 3220,
      "asy": 3221,
      "Dan": 3222,
      "proper": 3223,
      "Game": 3224,
      "condu": 3225,
      "circ": 3226,
      "bill": 3227,
      "Gl": 3228,
      "ply": 3229,
      "whe": 3230,
      "det": 3231,
      "Colle": 3232,
      "aper": 3233,
      "events": 3234,
      "ico": 3235,
      "length": 3236,
      "believed": 3237,
      "compl": 3238,
      "fed": 3239,
      "mun": 3240,
      "Cup": 3241,
      "cert": 3242,
      "bes": 3243,
      "fre": 3244,
      "particip": 3245,
      "First": 3246,
      "Following": 3247,
      "osp": 3248,
      "keep": 3249,
      "ius": 3250,
      "parts": 3251,
      "sea": 3252,
      "aled": 3253,
      "mal": 3254,
      "Hill": 3255,
      "Mary": 3256,
      "fund": 3257,
      "anti": 3258,
      "Star": 3259,
      "scen": 3260,
      "nine": 3261,
      "victory": 3262,
      "replaced": 3263,
      "ention": 3264,
      "bound": 3265,
      "nel": 3266,
      "designed": 3267,
      "available": 3268,
      "island": 3269,
      "iction": 3270,
      "official": 3271,
      "Dep": 3272,
      "conc": 3273,
      "hours": 3274,
      "European": 3275,
      "involved": 3276,
      "sele": 3277,
      "ping": 3278,
      "president": 3279,
      "Two": 3280,
      "opening": 3281,
      "evol": 3282,
      "prison": 3283,
      "Lou": 3284,
      "itor": 3285,
      "ological": 3286,
      "stop": 3287,
      "asked": 3288,
      "ential": 3289,
      "certain": 3290,
      "turned": 3291,
      "tic": 3292,
      "comes": 3293,
      "execut": 3294,
      "exist": 3295,
      "tor": 3296,
      "director": 3297,
      "hous": 3298,
      "hab": 3299,
      "erous": 3300,
      "saying": 3301,
      "bri": 3302,
      "alk": 3303,
      "Sun": 3304,
      "threat": 3305,
      "ience": 3306,
      "ount": 3307,
      "appearance": 3308,
      "ports": 3309,
      "commit": 3310,
      "2000": 3311,
      "45": 3312,
      "75": 3313,
      "istic": 3314,
      "love": 3315,
      "ighest": 3316,
      "cycl": 3317,
      "stone": 3318,
      "park": 3319,
      "minutes": 3320,
      "largest": 3321,
      "writer": 3322,
      "Roman": 3323,
      "Mer": 3324,
      "watch": 3325,
      "highway": 3326,
      "southern": 3327,
      "Route": 3328,
      "tel": 3329,
      "Scott": 3330,
      "taking": 3331,
      "survi": 3332,
      "going": 3333,
      "ublic": 3334,
      "highest": 3335,
      "earlier": 3336,
      "From": 3337,
      "2001": 3338,
      "Mid": 3339,
      "initially": 3340,
      "ishing": 3341,
      "percent": 3342,
      "particularly": 3343,
      "training": 3344,
      "sil": 3345,
      "Atl": 3346,
      "vice": 3347,
      "mir": 3348,
      "lear": 3349,
      "cal": 3350,
      "nd": 3351,
      "ership": 3352,
      "Sing": 3353,
      "White": 3354,
      "lying": 3355,
      "educ": 3356,
      "must": 3357,
      "Church": 3358,
      "ordered": 3359,
      "assist": 3360,
      "issue": 3361,
      "Charles": 3362,
      "Kingdom": 3363,
      "Navy": 3364,
      "ize": 3365,
      "Mart": 3366,
      "Val": 3367,
      "ha": 3368,
      "graphy": 3369,
      "signed": 3370,
      "bit": 3371,
      "Do": 3372,
      "hib": 3373,
      "pot": 3374,
      "weak": 3375,
      "ateg": 3376,
      "box": 3377,
      "Thomas": 3378,
      "pond": 3379,
      "social": 3380,
      "tries": 3381,
      "central": 3382,
      "thus": 3383,
      "Off": 3384,
      "uture": 3385,
      "studio": 3386,
      "maintain": 3387,
      "praised": 3388,
      "pected": 3389,
      "Hall": 3390,
      "International": 3391,
      "speed": 3392,
      "alifor": 3393,
      "Mag": 3394,
      "ency": 3395,
      "Smith": 3396,
      "langu": 3397,
      "prec": 3398,
      "date": 3399,
      "ville": 3400,
      "reason": 3401,
      "Virgin": 3402,
      "ception": 3403,
      "pers": 3404,
      "increased": 3405,
      "gress": 3406,
      "hurricane": 3407,
      "bow": 3408,
      "northern": 3409,
      "deal": 3410,
      "Du": 3411,
      "ification": 3412,
      "units": 3413,
      "research": 3414,
      "But": 3415,
      "2002": 3416,
      "relig": 3417,
      "past": 3418,
      "90": 3419,
      "depart": 3420,
      "type": 3421,
      "stry": 3422,
      "meas": 3423,
      "Canada": 3424,
      "ape": 3425,
      "Bur": 3426,
      "Califor": 3427,
      "via": 3428,
      "commission": 3429,
      "Dis": 3430,
      "deli": 3431,
      "Bay": 3432,
      "ta": 3433,
      "pay": 3434,
      "Cam": 3435,
      "rac": 3436,
      "immedi": 3437,
      "mean": 3438,
      "daugh": 3439,
      "ayed": 3440,
      "AA": 3441,
      "Pri": 3442,
      "rian": 3443,
      "relationship": 3444,
      "agon": 3445,
      "fantry": 3446,
      "acqu": 3447,
      "ilities": 3448,
      "za": 3449,
      "Peter": 3450,
      "Richard": 3451,
      "pressed": 3452,
      "omer": 3453,
      "Pal": 3454,
      "independ": 3455,
      "usually": 3456,
      "imin": 3457,
      "bomb": 3458,
      "told": 3459,
      "better": 3460,
      "California": 3461,
      "Indian": 3462,
      "Alex": 3463,
      "Bro": 3464,
      "icket": 3465,
      "states": 3466,
      "enough": 3467,
      "winds": 3468,
      "Union": 3469,
      "Sen": 3470,
      "Mill": 3471,
      "hol": 3472,
      "Sam": 3473,
      "uk": 3474,
      "positive": 3475,
      "sal": 3476,
      "commerc": 3477,
      "ken": 3478,
      "Ho": 3479,
      "jour": 3480,
      "Court": 3481,
      "Island": 3482,
      "concern": 3483,
      "sed": 3484,
      "Brown": 3485,
      "sat": 3486,
      "spent": 3487,
      "aring": 3488,
      "according": 3489,
      "Mi": 3490,
      "ference": 3491,
      "Ben": 3492,
      "phys": 3493,
      "rup": 3494,
      "appointed": 3495,
      "above": 3496,
      "screen": 3497,
      "God": 3498,
      "films": 3499,
      "arily": 3500,
      "outside": 3501,
      "Great": 3502,
      "ume": 3503,
      "accoun": 3504,
      "football": 3505,
      "tion": 3506,
      "Award": 3507,
      "icle": 3508,
      "Cong": 3509,
      "previously": 3510,
      "ara": 3511,
      "recording": 3512,
      "script": 3513,
      "quare": 3514,
      "Sal": 3515,
      "ston": 3516,
      "responsi": 3517,
      "standing": 3518,
      "contribut": 3519,
      "Associ": 3520,
      "active": 3521,
      "Tom": 3522,
      "failed": 3523,
      "defin": 3524,
      "bird": 3525,
      "access": 3526,
      "usion": 3527,
      "Company": 3528,
      "required": 3529,
      "elements": 3530,
      "load": 3531,
      "Rock": 3532,
      "lay": 3533,
      "occup": 3534,
      "reng": 3535,
      "mur": 3536,
      "ener": 3537,
      "treat": 3538,
      "overnor": 3539,
      "ems": 3540,
      "vin": 3541,
      "187": 3542,
      "Germany": 3543,
      "reviews": 3544,
      "India": 3545,
      "directed": 3546,
      "Vict": 3547,
      "viol": 3548,
      "interview": 3549,
      "NY": 3550,
      "ometimes": 3551,
      "alion": 3552,
      "itself": 3553,
      "sey": 3554,
      "give": 3555,
      "groups": 3556,
      "Ap": 3557,
      "Christian": 3558,
      "reme": 3559,
      "Mark": 3560,
      "gir": 3561,
      "La": 3562,
      "despite": 3563,
      "score": 3564,
      "vert": 3565,
      "respond": 3566,
      "atin": 3567,
      "Sou": 3568,
      "inner": 3569,
      "aters": 3570,
      "Times": 3571,
      "cru": 3572,
      "III": 3573,
      "thod": 3574,
      "Str": 3575,
      "prob": 3576,
      "perform": 3577,
      "UK": 3578,
      "ique": 3579,
      "beginning": 3580,
      "introduced": 3581,
      "Ter": 3582,
      "Sk": 3583,
      "ministr": 3584,
      "bour": 3585,
      "soldi": 3586,
      "College": 3587,
      "space": 3588,
      "happ": 3589,
      "onto": 3590,
      "frequ": 3591,
      "ida": 3592,
      "streng": 3593,
      "whose": 3594,
      "flight": 3595,
      "oring": 3596,
      "priv": 3597,
      "tur": 3598,
      "transfer": 3599,
      "Cast": 3600,
      "league": 3601,
      "Western": 3602,
      "ication": 3603,
      "sus": 3604,
      "ept": 3605,
      "prevent": 3606,
      "idea": 3607,
      "Mex": 3608,
      "brother": 3609,
      "Sim": 3610,
      "changes": 3611,
      "edy": 3612,
      "Sovi": 3613,
      "Jer": 3614,
      "election": 3615,
      "additional": 3616,
      "defeated": 3617,
      "gold": 3618,
      "Gold": 3619,
      "future": 3620,
      "ga": 3621,
      "igan": 3622,
      "conf": 3623,
      "ault": 3624,
      "whom": 3625,
      "Ke": 3626,
      "appl": 3627,
      "pil": 3628,
      "poor": 3629,
      "international": 3630,
      "ases": 3631,
      "Grand": 3632,
      "jud": 3633,
      "Awards": 3634,
      "ns": 3635,
      "Span": 3636,
      "anal": 3637,
      "native": 3638,
      "exten": 3639,
      "evidence": 3640,
      "structure": 3641,
      "changed": 3642,
      "quickly": 3643,
      "argu": 3644,
      "tom": 3645,
      "Tri": 3646,
      "center": 3647,
      "already": 3648,
      "specific": 3649,
      "market": 3650,
      "That": 3651,
      "Force": 3652,
      "photo": 3653,
      "radio": 3654,
      "situ": 3655,
      "material": 3656,
      "doc": 3657,
      "Day": 3658,
      "aint": 3659,
      "sem": 3660,
      "river": 3661,
      "Most": 3662,
      "coach": 3663,
      "agreed": 3664,
      "arrived": 3665,
      "atory": 3666,
      "study": 3667,
      "civil": 3668,
      "Bu": 3669,
      "Britain": 3670,
      "Met": 3671,
      "likely": 3672,
      "ctive": 3673,
      "staff": 3674,
      "dies": 3675,
      "decision": 3676,
      "slow": 3677,
      "umb": 3678,
      "emp": 3679,
      "lyr": 3680,
      "useum": 3681,
      "subject": 3682,
      "female": 3683,
      "lies": 3684,
      "money": 3685,
      "sometimes": 3686,
      "might": 3687,
      "limited": 3688,
      "surface": 3689,
      "response": 3690,
      "anch": 3691,
      "fleet": 3692,
      "espec": 3693,
      "Film": 3694,
      "names": 3695,
      "hop": 3696,
      "icted": 3697,
      "spr": 3698,
      "course": 3699,
      "magazine": 3700,
      "especially": 3701,
      "food": 3702,
      "apt": 3703,
      "ben": 3704,
      "actions": 3705,
      "nation": 3706,
      "ded": 3707,
      "Later": 3708,
      "33": 3709,
      "pet": 3710,
      "estimated": 3711,
      "liament": 3712,
      "broadcast": 3713,
      "carried": 3714,
      "Victor": 3715,
      "Championship": 3716,
      "flow": 3717,
      "Chin": 3718,
      "flood": 3719,
      "consider": 3720,
      "Pac": 3721,
      "shows": 3722,
      "Frank": 3723,
      "community": 3724,
      "sch": 3725,
      "guitar": 3726,
      "paren": 3727,
      "listed": 3728,
      "ples": 3729,
      "uded": 3730,
      "prepar": 3731,
      "musical": 3732,
      "scenes": 3733,
      "size": 3734,
      "rate": 3735,
      "remaining": 3736,
      "related": 3737,
      "1999": 3738,
      "eastern": 3739,
      "arrison": 3740,
      "minor": 3741,
      "bi": 3742,
      "berg": 3743,
      "plant": 3744,
      "text": 3745,
      "venue": 3746,
      "personal": 3747,
      "Over": 3748,
      "becoming": 3749,
      "Virginia": 3750,
      "natural": 3751,
      "Early": 3752,
      "Los": 3753,
      "cul": 3754,
      "larger": 3755,
      "division": 3756,
      "isl": 3757,
      "latter": 3758,
      "entered": 3759,
      "bot": 3760,
      "bell": 3761,
      "media": 3762,
      "object": 3763,
      "emer": 3764,
      "rights": 3765,
      "police": 3766,
      "summer": 3767,
      "ises": 3768,
      "Pat": 3769,
      "married": 3770,
      "suggested": 3771,
      "suit": 3772,
      "pressure": 3773,
      "approxim": 3774,
      "yard": 3775,
      "teams": 3776,
      "brief": 3777,
      "arrang": 3778,
      "ror": 3779,
      "liter": 3780,
      "itz": 3781,
      "Year": 3782,
      "daughter": 3783,
      "investig": 3784,
      "Just": 3785,
      "establish": 3786,
      "36": 3787,
      "surround": 3788,
      "Jackson": 3789,
      "students": 3790,
      "exper": 3791,
      "Second": 3792,
      "tax": 3793,
      "Di": 3794,
      "ena": 3795,
      "temporary": 3796,
      "effects": 3797,
      "kil": 3798,
      "Tex": 3799,
      "Chic": 3800,
      "prior": 3801,
      "episodes": 3802,
      "37": 3803,
      "favor": 3804,
      "woman": 3805,
      "If": 3806,
      "tons": 3807,
      "els": 3808,
      "alled": 3809,
      "Flor": 3810,
      "Louis": 3811,
      "worth": 3812,
      "winning": 3813,
      "fit": 3814,
      "Oly": 3815,
      "Tour": 3816,
      "iter": 3817,
      "clim": 3818,
      "Fle": 3819,
      "leaving": 3820,
      "destroyed": 3821,
      "irth": 3822,
      "mor": 3823,
      "sett": 3824,
      "mode": 3825,
      "Olymp": 3826,
      "avo": 3827,
      "selves": 3828,
      "tracks": 3829,
      "Green": 3830,
      "viron": 3831,
      "Lord": 3832,
      "join": 3833,
      "bs": 3834,
      "equip": 3835,
      "fail": 3836,
      "Spanish": 3837,
      "Club": 3838,
      "Ty": 3839,
      "pan": 3840,
      "sons": 3841,
      "provide": 3842,
      "reli": 3843,
      "relative": 3844,
      "igade": 3845,
      "territ": 3846,
      "idents": 3847,
      "polic": 3848,
      "mocr": 3849,
      "burg": 3850,
      "Aust": 3851,
      "aj": 3852,
      "vie": 3853,
      "proposed": 3854,
      "Pre": 3855,
      "influence": 3856,
      "intended": 3857,
      "Party": 3858,
      "overall": 3859,
      "aries": 3860,
      "Soviet": 3861,
      "verse": 3862,
      "32": 3863,
      "spo": 3864,
      "qual": 3865,
      "moving": 3866,
      "ening": 3867,
      "big": 3868,
      "running": 3869,
      "occas": 3870,
      "38": 3871,
      "supported": 3872,
      "artment": 3873,
      "distr": 3874,
      "Association": 3875,
      "escap": 3876,
      "fully": 3877,
      "ander": 3878,
      "quarter": 3879,
      "ek": 3880,
      "thers": 3881,
      "purch": 3882,
      "expected": 3883,
      "burn": 3884,
      "Rob": 3885,
      "Chicago": 3886,
      "Cal": 3887,
      "fell": 3888,
      "lot": 3889,
      "nearly": 3890,
      "49": 3891,
      "Many": 3892,
      "abs": 3893,
      "forward": 3894,
      "helped": 3895,
      "Love": 3896,
      "mach": 3897,
      "movement": 3898,
      "Record": 3899,
      "awarded": 3900,
      "1998": 3901,
      "Chinese": 3902,
      "mixed": 3903,
      "commercial": 3904,
      "ires": 3905,
      "Council": 3906,
      "bring": 3907,
      "Che": 3908,
      "rey": 3909,
      "secut": 3910,
      "marked": 3911,
      "issued": 3912,
      "closed": 3913,
      "Song": 3914,
      "experience": 3915,
      "create": 3916,
      "Super": 3917,
      "consist": 3918,
      "nu": 3919,
      "Oper": 3920,
      "stars": 3921,
      "Edward": 3922,
      "185": 3923,
      "Im": 3924,
      "stra": 3925,
      "dark": 3926,
      "planned": 3927,
      "bey": 3928,
      "syn": 3929,
      "Enter": 3930,
      "breed": 3931,
      "done": 3932,
      "legal": 3933,
      "Del": 3934,
      "dead": 3935,
      "longer": 3936,
      "iple": 3937,
      "fans": 3938,
      "ny": 3939,
      "joy": 3940,
      "language": 3941,
      "pow": 3942,
      "operation": 3943,
      "higher": 3944,
      "possib": 3945,
      "hood": 3946,
      "attract": 3947,
      "captured": 3948,
      "compared": 3949,
      "increasing": 3950,
      "300": 3951,
      "phen": 3952,
      "leader": 3953,
      "wing": 3954,
      "fill": 3955,
      "ili": 3956,
      "ari": 3957,
      "Johnson": 3958,
      "deep": 3959,
      "cele": 3960,
      "Ze": 3961,
      "approximately": 3962,
      "Lo": 3963,
      "living": 3964,
      "fish": 3965,
      "feature": 3966,
      "fifth": 3967,
      "bon": 3968,
      "temper": 3969,
      "themselves": 3970,
      "ato": 3971,
      "touch": 3972,
      "producer": 3973,
      "History": 3974,
      "dy": 3975,
      "print": 3976,
      "Kore": 3977,
      "chall": 3978,
      "mostly": 3979,
      "ech": 3980,
      "bad": 3981,
      "dig": 3982,
      "Pacific": 3983,
      "1st": 3984,
      "intens": 3985,
      "Back": 3986,
      "icles": 3987,
      "Billboard": 3988,
      "lor": 3989,
      "anced": 3990,
      "rica": 3991,
      "Go": 3992,
      "operations": 3993,
      "remains": 3994,
      "olk": 3995,
      "rd": 3996,
      "defeat": 3997,
      "appears": 3998,
      "mitted": 3999,
      "weap": 4000,
      "buildings": 4001,
      "whether": 4002,
      "34": 4003,
      "orial": 4004,
      "Ir": 4005,
      "bury": 4006,
      "aught": 4007,
      "Art": 4008,
      "los": 4009,
      "extended": 4010,
      "probably": 4011,
      "soldiers": 4012,
      "copies": 4013,
      "spired": 4014,
      "lan": 4015,
      "Hu": 4016,
      "plot": 4017,
      "ba": 4018,
      "Under": 4019,
      "Cro": 4020,
      "Squadron": 4021,
      "weight": 4022,
      "Queen": 4023,
      "voice": 4024,
      "heav": 4025,
      "Since": 4026,
      "pose": 4027,
      "1997": 4028,
      "lyrics": 4029,
      "Atlantic": 4030,
      "portr": 4031,
      "complex": 4032,
      "stream": 4033,
      "shoot": 4034,
      "jected": 4035,
      "battles": 4036,
      "transport": 4037,
      "deb": 4038,
      "really": 4039,
      "countries": 4040,
      "mas": 4041,
      "ender": 4042,
      "affe": 4043,
      "suffered": 4044,
      "Bal": 4045,
      "Mur": 4046,
      "ospital": 4047,
      "cm": 4048,
      "Test": 4049,
      "roll": 4050,
      "goals": 4051,
      "Lake": 4052,
      "Arch": 4053,
      "includes": 4054,
      "demand": 4055,
      "Florida": 4056,
      "carri": 4057,
      "andon": 4058,
      "igr": 4059,
      "issues": 4060,
      "Sever": 4061,
      "immediately": 4062,
      "health": 4063,
      "Law": 4064,
      "cting": 4065,
      "MS": 4066,
      "Both": 4067,
      "Tur": 4068,
      "Leg": 4069,
      "capital": 4070,
      "manager": 4071,
      "private": 4072,
      "request": 4073,
      "visit": 4074,
      "boy": 4075,
      "officers": 4076,
      "Sea": 4077,
      "Big": 4078,
      "48": 4079,
      "Jim": 4080,
      "Jew": 4081,
      "leave": 4082,
      "target": 4083,
      "cis": 4084,
      "ores": 4085,
      "location": 4086,
      "aging": 4087,
      "ams": 4088,
      "removed": 4089,
      "expand": 4090,
      "Station": 4091,
      "ultim": 4092,
      "Texas": 4093,
      "flict": 4094,
      "flag": 4095,
      "increase": 4096,
      "Tor": 4097,
      "FA": 4098,
      "yards": 4099,
      "Fort": 4100,
      "rich": 4101,
      "birth": 4102,
      "subsequently": 4103,
      "cit": 4104,
      "Bet": 4105,
      "status": 4106,
      "plans": 4107,
      "wa": 4108,
      "colon": 4109,
      "always": 4110,
      "offered": 4111,
      "fast": 4112,
      "portion": 4113,
      "amed": 4114,
      "confir": 4115,
      "services": 4116,
      "Ot": 4117,
      "mel": 4118,
      "upper": 4119,
      "China": 4120,
      "Old": 4121,
      "Mr": 4122,
      "ert": 4123,
      "Town": 4124,
      "Studi": 4125,
      "Another": 4126,
      "nes": 4127,
      "problems": 4128,
      "evolution": 4129,
      "attacks": 4130,
      "ging": 4131,
      "block": 4132,
      "gas": 4133,
      "instr": 4134,
      "twent": 4135,
      "Rad": 4136,
      "tainment": 4137,
      "How": 4138,
      "vey": 4139,
      "phy": 4140,
      "reser": 4141,
      "terms": 4142,
      "shire": 4143,
      "Earth": 4144,
      "demon": 4145,
      "oud": 4146,
      "forts": 4147,
      "something": 4148,
      "professional": 4149,
      "habit": 4150,
      "39": 4151,
      "aily": 4152,
      "carry": 4153,
      "administr": 4154,
      "village": 4155,
      "takes": 4156,
      "castle": 4157,
      "stitut": 4158,
      "majority": 4159,
      "ously": 4160,
      "orning": 4161,
      "discover": 4162,
      "discovered": 4163,
      "rat": 4164,
      "Rail": 4165,
      "vironment": 4166,
      "makes": 4167,
      "contr": 4168,
      "Canadian": 4169,
      "Boy": 4170,
      "ranked": 4171,
      "iser": 4172,
      "Emp": 4173,
      "composed": 4174,
      "job": 4175,
      "minute": 4176,
      "assigned": 4177,
      "Mat": 4178,
      "neg": 4179,
      "Africa": 4180,
      "elected": 4181,
      "Center": 4182,
      "concept": 4183,
      "anks": 4184,
      "damaged": 4185,
      "47": 4186,
      "Bow": 4187,
      "uries": 4188,
      "adop": 4189,
      "beat": 4190,
      "meeting": 4191,
      "otion": 4192,
      "initial": 4193,
      "cean": 4194,
      "aker": 4195,
      "mouth": 4196,
      "Wood": 4197,
      "Its": 4198,
      "adium": 4199,
      "cu": 4200,
      "iles": 4201,
      "revealed": 4202,
      "chester": 4203,
      "incor": 4204,
      "individual": 4205,
      "Bra": 4206,
      "Highway": 4207,
      "mat": 4208,
      "inspired": 4209,
      "onna": 4210,
      "raised": 4211,
      "Russian": 4212,
      "giving": 4213,
      "ulated": 4214,
      "lived": 4215,
      "itect": 4216,
      "olic": 4217,
      "plays": 4218,
      "financ": 4219,
      "necess": 4220,
      "Carol": 4221,
      "atives": 4222,
      "DV": 4223,
      "Mel": 4224,
      "yet": 4225,
      "respectively": 4226,
      "associated": 4227,
      "mic": 4228,
      "inent": 4229,
      "attacked": 4230,
      "Sir": 4231,
      "bul": 4232,
      "ails": 4233,
      "Hot": 4234,
      "numerous": 4235,
      "Martin": 4236,
      "1995": 4237,
      "Kent": 4238,
      "Central": 4239,
      "needed": 4240,
      "Trans": 4241,
      "actor": 4242,
      "mist": 4243,
      "heart": 4244,
      "Angeles": 4245,
      "grand": 4246,
      "ider": 4247,
      "stitute": 4248,
      "rout": 4249,
      "nature": 4250,
      "veh": 4251,
      "ado": 4252,
      "Francis": 4253,
      "friends": 4254,
      "uter": 4255,
      "impact": 4256,
      "distribut": 4257,
      "scient": 4258,
      "launched": 4259,
      "constructed": 4260,
      "cand": 4261,
      "occurred": 4262,
      "conditions": 4263,
      "stitution": 4264,
      "contains": 4265,
      "information": 4266,
      "shown": 4267,
      "domin": 4268,
      "pool": 4269,
      "sales": 4270,
      "attempted": 4271,
      "Congress": 4272,
      "estival": 4273,
      "books": 4274,
      "uments": 4275,
      "uals": 4276,
      "kind": 4277,
      "exam": 4278,
      "step": 4279,
      "struction": 4280,
      "piece": 4281,
      "2nd": 4282,
      "ications": 4283,
      "singer": 4284,
      "critical": 4285,
      "Prince": 4286,
      "Cle": 4287,
      "Bob": 4288,
      "Hal": 4289,
      "2016": 4290,
      "secur": 4291,
      "whole": 4292,
      "premi": 4293,
      "Mont": 4294,
      "1996": 4295,
      "19th": 4296,
      "ulf": 4297,
      "1950": 4298,
      "marri": 4299,
      "zz": 4300,
      "depression": 4301,
      "think": 4302,
      "Group": 4303,
      "ills": 4304,
      "earned": 4305,
      "ioned": 4306,
      "referred": 4307,
      "produce": 4308,
      "Empire": 4309,
      "cere": 4310,
      "mom": 4311,
      "letter": 4312,
      "Produ": 4313,
      "amount": 4314,
      "vention": 4315,
      "Not": 4316,
      "selected": 4317,
      "render": 4318,
      "46": 4319,
      "dev": 4320,
      "numbers": 4321,
      "distin": 4322,
      "finally": 4323,
      "smaller": 4324,
      "umed": 4325,
      "Pan": 4326,
      "resulted": 4327,
      "Penn": 4328,
      "Jose": 4329,
      "chief": 4330,
      "revol": 4331,
      "Cy": 4332,
      "fighting": 4333,
      "oph": 4334,
      "Out": 4335,
      "bio": 4336,
      "oil": 4337,
      "princ": 4338,
      "gain": 4339,
      "grant": 4340,
      "houses": 4341,
      "vic": 4342,
      "captain": 4343,
      "Camp": 4344,
      "slight": 4345,
      "celebr": 4346,
      "industry": 4347,
      "1994": 4348,
      "Italian": 4349,
      "largely": 4350,
      "wound": 4351,
      "ellow": 4352,
      "RA": 4353,
      "utch": 4354,
      "unit": 4355,
      "bing": 4356,
      "Ver": 4357,
      "commented": 4358,
      "DVD": 4359,
      "Corps": 4360,
      "Fer": 4361,
      "sched": 4362,
      "Ru": 4363,
      "ordin": 4364,
      "audience": 4365,
      "unable": 4366,
      "notes": 4367,
      "education": 4368,
      "acting": 4369,
      "traditional": 4370,
      "Crit": 4371,
      "trade": 4372,
      "artist": 4373,
      "atest": 4374,
      "gent": 4375,
      "legisl": 4376,
      "directly": 4377,
      "Eli": 4378,
      "ift": 4379,
      "improve": 4380,
      "ify": 4381,
      "recover": 4382,
      "Final": 4383,
      "Sto": 4384,
      "attention": 4385,
      "double": 4386,
      "sister": 4387,
      "dol": 4388,
      "refused": 4389,
      "spl": 4390,
      "Viet": 4391,
      "positions": 4392,
      "jun": 4393,
      "royal": 4394,
      "primary": 4395,
      "newsp": 4396,
      "method": 4397,
      "Philip": 4398,
      "coup": 4399,
      "Command": 4400,
      "secret": 4401,
      "Michigan": 4402,
      "imm": 4403,
      "ows": 4404,
      "blood": 4405,
      "lif": 4406,
      "horse": 4407,
      "quarters": 4408,
      "ighter": 4409,
      "180": 4410,
      "male": 4411,
      "below": 4412,
      "gradu": 4413,
      "web": 4414,
      "officer": 4415,
      "aland": 4416,
      "declared": 4417,
      "hero": 4418,
      "kin": 4419,
      "spect": 4420,
      "enjoy": 4421,
      "Long": 4422,
      "science": 4423,
      "Gar": 4424,
      "Wales": 4425,
      "Sol": 4426,
      "meant": 4427,
      "performances": 4428,
      "religious": 4429,
      "iff": 4430,
      "Spe": 4431,
      "standard": 4432,
      "Mass": 4433,
      "alle": 4434,
      "train": 4435,
      "Republic": 4436,
      "undred": 4437,
      "indic": 4438,
      "ray": 4439,
      "Rh": 4440,
      "owned": 4441,
      "mos": 4442,
      "commander": 4443,
      "lav": 4444,
      "middle": 4445,
      "conflict": 4446,
      "More": 4447,
      "izing": 4448,
      "ranch": 4449,
      "regard": 4450,
      "matches": 4451,
      "Cath": 4452,
      "repe": 4453,
      "orders": 4454,
      "ump": 4455,
      "kes": 4456,
      "achi": 4457,
      "model": 4458,
      "records": 4459,
      "Lin": 4460,
      "Democr": 4461,
      "rated": 4462,
      "Acad": 4463,
      "ett": 4464,
      "55": 4465,
      "wear": 4466,
      "Care": 4467,
      "Team": 4468,
      "pul": 4469,
      "competition": 4470,
      "progress": 4471,
      "ipal": 4472,
      "serious": 4473,
      "Ox": 4474,
      "district": 4475,
      "antasy": 4476,
      "Hel": 4477,
      "ka": 4478,
      "Sup": 4479,
      "severe": 4480,
      "vocals": 4481,
      "session": 4482,
      "viewers": 4483,
      "northeast": 4484,
      "Minister": 4485,
      "Several": 4486,
      "icient": 4487,
      "uten": 4488,
      "ady": 4489,
      "thr": 4490,
      "1992": 4491,
      "Major": 4492,
      "abandon": 4493,
      "energy": 4494,
      "document": 4495,
      "Gi": 4496,
      "rapid": 4497,
      "miral": 4498,
      "drum": 4499,
      "Chris": 4500,
      "dro": 4501,
      "centre": 4502,
      "cases": 4503,
      "Mem": 4504,
      "arrow": 4505,
      "forest": 4506,
      "die": 4507,
      "Lit": 4508,
      "continue": 4509,
      "itation": 4510,
      "dut": 4511,
      "orm": 4512,
      "iation": 4513,
      "atre": 4514,
      "traff": 4515,
      "Fore": 4516,
      "44": 4517,
      "theme": 4518,
      "oft": 4519,
      "wick": 4520,
      "Er": 4521,
      "mes": 4522,
      "determin": 4523,
      "writers": 4524,
      "Time": 4525,
      "favour": 4526,
      "nearby": 4527,
      "iled": 4528,
      "highly": 4529,
      "aware": 4530,
      "adult": 4531,
      "ishop": 4532,
      "Zealand": 4533,
      "separate": 4534,
      "combat": 4535,
      "Four": 4536,
      "atal": 4537,
      "Fox": 4538,
      "Soci": 4539,
      "cam": 4540,
      "thes": 4541,
      "Mexico": 4542,
      "effort": 4543,
      "presented": 4544,
      "attended": 4545,
      "culture": 4546,
      "bank": 4547,
      "incorpor": 4548,
      "reduced": 4549,
      "African": 4550,
      "annual": 4551,
      "urt": 4552,
      "edition": 4553,
      "metal": 4554,
      "practice": 4555,
      "20th": 4556,
      "arts": 4557,
      "umn": 4558,
      "except": 4559,
      "ogue": 4560,
      "rossing": 4561,
      "oo": 4562,
      "1930": 4563,
      "means": 4564,
      "sec": 4565,
      "levels": 4566,
      "divided": 4567,
      "Haw": 4568,
      "neigh": 4569,
      "osen": 4570,
      "tried": 4571,
      "ski": 4572,
      "Sum": 4573,
      "contact": 4574,
      "girl": 4575,
      "movie": 4576,
      "rang": 4577,
      "marriage": 4578,
      "omen": 4579,
      "thick": 4580,
      "twenty": 4581,
      "Ev": 4582,
      "accepted": 4583,
      "stating": 4584,
      "1993": 4585,
      "Madonna": 4586,
      "architect": 4587,
      "1991": 4588,
      "McC": 4589,
      "maxim": 4590,
      "aired": 4591,
      "responsible": 4592,
      "serve": 4593,
      "rein": 4594,
      "quality": 4595,
      "hi": 4596,
      "Wall": 4597,
      "mind": 4598,
      "Stone": 4599,
      "candid": 4600,
      "direction": 4601,
      "65": 4602,
      "Dou": 4603,
      "pick": 4604,
      "Scotland": 4605,
      "ona": 4606,
      "charge": 4607,
      "advance": 4608,
      "seem": 4609,
      "bled": 4610,
      "innings": 4611,
      "fru": 4612,
      "rating": 4613,
      "Jones": 4614,
      "words": 4615,
      "ands": 4616,
      "han": 4617,
      "iding": 4618,
      "Fed": 4619,
      "eve": 4620,
      "schools": 4621,
      "Their": 4622,
      "400": 4623,
      "pi": 4624,
      "wealth": 4625,
      "network": 4626,
      "ieve": 4627,
      "Dar": 4628,
      "rare": 4629,
      "managed": 4630,
      "Moun": 4631,
      "mob": 4632,
      "passing": 4633,
      "pret": 4634,
      "Simp": 4635,
      "function": 4636,
      "ria": 4637,
      "award": 4638,
      "ression": 4639,
      "Department": 4640,
      "Greek": 4641,
      "log": 4642,
      "illery": 4643,
      "efforts": 4644,
      "sides": 4645,
      "college": 4646,
      "economic": 4647,
      "pit": 4648,
      "resulting": 4649,
      "meaning": 4650,
      "paid": 4651,
      "ti": 4652,
      "Book": 4653,
      "psy": 4654,
      "dropped": 4655,
      "utenant": 4656,
      "showed": 4657,
      "asion": 4658,
      "guest": 4659,
      "rif": 4660,
      "iving": 4661,
      "Infantry": 4662,
      "inside": 4663,
      "environment": 4664,
      "Three": 4665,
      "mountain": 4666,
      "Rol": 4667,
      "murder": 4668,
      "kept": 4669,
      "hus": 4670,
      "dem": 4671,
      "cust": 4672,
      "allowing": 4673,
      "Americ": 4674,
      "cyclone": 4675,
      "ceremon": 4676,
      "Tim": 4677,
      "winter": 4678,
      "begins": 4679,
      "Bost": 4680,
      "controver": 4681,
      "variety": 4682,
      "morning": 4683,
      "chap": 4684,
      "nest": 4685,
      "Commit": 4686,
      "Games": 4687,
      "voy": 4688,
      "settle": 4689,
      "Williams": 4690,
      "ceeded": 4691,
      "arrest": 4692,
      "waters": 4693,
      "electric": 4694,
      "Service": 4695,
      "ole": 4696,
      "peror": 4697,
      "Sar": 4698,
      "inches": 4699,
      "schol": 4700,
      "farm": 4701,
      "Creek": 4702,
      "titled": 4703,
      "Tre": 4704,
      "Alli": 4705,
      "Records": 4706,
      "activity": 4707,
      "thur": 4708,
      "write": 4709,
      "lam": 4710,
      "airs": 4711,
      "continues": 4712,
      "ding": 4713,
      "rule": 4714,
      "hall": 4715,
      "drew": 4716,
      "Sur": 4717,
      "95": 4718,
      "dance": 4719,
      "symb": 4720,
      "squadron": 4721,
      "path": 4722,
      "oon": 4723,
      "source": 4724,
      "Parliament": 4725,
      "founded": 4726,
      "broke": 4727,
      "Up": 4728,
      "Stan": 4729,
      "SA": 4730,
      "restr": 4731,
      "Men": 4732,
      "pitch": 4733,
      "parents": 4734,
      "Post": 4735,
      "Foot": 4736,
      "News": 4737,
      "Will": 4738,
      "Hor": 4739,
      "hundred": 4740,
      "iced": 4741,
      "conducted": 4742,
      "starting": 4743,
      "phere": 4744,
      "sole": 4745,
      "your": 4746,
      "ites": 4747,
      "strugg": 4748,
      "vised": 4749,
      "Egy": 4750,
      "Ire": 4751,
      "excl": 4752,
      "Society": 4753,
      "Oh": 4754,
      "concert": 4755,
      "ounds": 4756,
      "presence": 4757,
      "1942": 4758,
      "aven": 4759,
      "ram": 4760,
      "Mic": 4761,
      "metres": 4762,
      "Southern": 4763,
      "zer": 4764,
      "spot": 4765,
      "Bridge": 4766,
      "SR": 4767,
      "speech": 4768,
      "BA": 4769,
      "sequence": 4770,
      "exhib": 4771,
      "crow": 4772,
      "selling": 4773,
      "cus": 4774,
      "rot": 4775,
      "multiple": 4776,
      "things": 4777,
      "transferred": 4778,
      "da": 4779,
      "companies": 4780,
      "contrast": 4781,
      "Committee": 4782,
      "portun": 4783,
      "foreign": 4784,
      "deliver": 4785,
      "Arthur": 4786,
      "enemy": 4787,
      "Ba": 4788,
      "pal": 4789,
      "oration": 4790,
      "peaked": 4791,
      "Latin": 4792,
      "pedo": 4793,
      "Captain": 4794,
      "Georg": 4795,
      "obtain": 4796,
      "Govern": 4797,
      "Hung": 4798,
      "isation": 4799,
      "plat": 4800,
      "stories": 4801,
      "recomm": 4802,
      "content": 4803,
      "Like": 4804,
      "Oxford": 4805,
      "becomes": 4806,
      "traffic": 4807,
      "account": 4808,
      "Far": 4809,
      "Admiral": 4810,
      "Spec": 4811,
      "mess": 4812,
      "greater": 4813,
      "Cross": 4814,
      "ami": 4815,
      "scoring": 4816,
      "Chief": 4817,
      "Joseph": 4818,
      "vocal": 4819,
      "concluded": 4820,
      "Secret": 4821,
      "potential": 4822,
      "Harrison": 4823,
      "property": 4824,
      "attempts": 4825,
      "loy": 4826,
      "Boston": 4827,
      "relatively": 4828,
      "Sat": 4829,
      "strength": 4830,
      "Manchester": 4831,
      "extens": 4832,
      "demonstr": 4833,
      "thir": 4834,
      "observed": 4835,
      "primarily": 4836,
      "birds": 4837,
      "federal": 4838,
      "lock": 4839,
      "va": 4840,
      "actually": 4841,
      "Because": 4842,
      "Before": 4843,
      "Egypt": 4844,
      "Kar": 4845,
      "sets": 4846,
      "prise": 4847,
      "financial": 4848,
      "odd": 4849,
      "animals": 4850,
      "64": 4851,
      "osaur": 4852,
      "Class": 4853,
      "collection": 4854,
      "propos": 4855,
      "Jeff": 4856,
      "Hurricane": 4857,
      "journal": 4858,
      "figure": 4859,
      "Sil": 4860,
      "Swed": 4861,
      "prov": 4862,
      "opportun": 4863,
      "onic": 4864,
      "eth": 4865,
      "identified": 4866,
      "featuring": 4867,
      "Commission": 4868,
      "ott": 4869,
      "repair": 4870,
      "tourn": 4871,
      "Life": 4872,
      "ky": 4873,
      "Den": 4874,
      "1944": 4875,
      "istics": 4876,
      "bles": 4877,
      "missed": 4878,
      "scale": 4879,
      "withdraw": 4880,
      "78": 4881,
      "distance": 4882,
      "situation": 4883,
      "Little": 4884,
      "mechan": 4885,
      "share": 4886,
      "Battalion": 4887,
      "versions": 4888,
      "independent": 4889,
      "passeng": 4890,
      "mond": 4891,
      "extreme": 4892,
      "corn": 4893,
      "ange": 4894,
      "Ram": 4895,
      "poet": 4896,
      "41": 4897,
      "uge": 4898,
      "thous": 4899,
      "anger": 4900,
      "Fred": 4901,
      "Dire": 4902,
      "resist": 4903,
      "Ken": 4904,
      "annel": 4905,
      "BBC": 4906,
      "fa": 4907,
      "collabor": 4908,
      "Paris": 4909,
      "Brad": 4910,
      "anna": 4911,
      "inking": 4912,
      "slightly": 4913,
      "image": 4914,
      "Series": 4915,
      "faced": 4916,
      "resh": 4917,
      "replac": 4918,
      "Fre": 4919,
      "olf": 4920,
      "suppl": 4921,
      "IS": 4922,
      "concent": 4923,
      "perial": 4924,
      "Gil": 4925,
      "sa": 4926,
      "here": 4927,
      "torpedo": 4928,
      "lap": 4929,
      "seconds": 4930,
      "Line": 4931,
      "150": 4932,
      "today": 4933,
      "colour": 4934,
      "Dun": 4935,
      "42": 4936,
      "ada": 4937,
      "Ann": 4938,
      "alleg": 4939,
      "1990": 4940,
      "trial": 4941,
      "completely": 4942,
      "ultimately": 4943,
      "proved": 4944,
      "square": 4945,
      "inte": 4946,
      "confirmed": 4947,
      "Croat": 4948,
      "76": 4949,
      "maximum": 4950,
      "vation": 4951,
      "behav": 4952,
      "pack": 4953,
      "struck": 4954,
      "prop": 4955,
      "Histor": 4956,
      "Light": 4957,
      "Max": 4958,
      "Academy": 4959,
      "sought": 4960,
      "cities": 4961,
      "Stephen": 4962,
      "branch": 4963,
      "1920": 4964,
      "tellig": 4965,
      "1945": 4966,
      "green": 4967,
      "policy": 4968,
      "dise": 4969,
      "calling": 4970,
      "blue": 4971,
      "serving": 4972,
      "stein": 4973,
      "society": 4974,
      "beth": 4975,
      "ita": 4976,
      "combined": 4977,
      "mainly": 4978,
      "weather": 4979,
      "cers": 4980,
      "Museum": 4981,
      "Van": 4982,
      "Saint": 4983,
      "ya": 4984,
      "commissioned": 4985,
      "designated": 4986,
      "Wal": 4987,
      "minim": 4988,
      "1941": 4989,
      "explained": 4990,
      "43": 4991,
      "cin": 4992,
      "naval": 4993,
      "officials": 4994,
      "northwest": 4995,
      "lvan": 4996,
      "influenced": 4997,
      "boat": 4998,
      "Bat": 4999,
      "border": 5000,
      "master": 5001,
      "benef": 5002,
      "conver": 5003,
      "vessel": 5004,
      "powerful": 5005,
      "Entertainment": 5006,
      "AC": 5007,
      "Italy": 5008,
      "Pop": 5009,
      "Gir": 5010,
      "Way": 5011,
      "alongside": 5012,
      "batter": 5013,
      "gn": 5014,
      "eval": 5015,
      "HL": 5016,
      "85": 5017,
      "gained": 5018,
      "visions": 5019,
      "Lee": 5020,
      "Brigade": 5021,
      "resol": 5022,
      "Americans": 5023,
      "ulations": 5024,
      "sources": 5025,
      "battleship": 5026,
      "orses": 5027,
      "older": 5028,
      "attend": 5029,
      "Vol": 5030,
      "successfully": 5031,
      "background": 5032,
      "systems": 5033,
      "organization": 5034,
      "says": 5035,
      "ito": 5036,
      "gency": 5037,
      "Ca": 5038,
      "astic": 5039,
      "theory": 5040,
      "peace": 5041,
      "industri": 5042,
      "recent": 5043,
      "feed": 5044,
      "Arab": 5045,
      "nominated": 5046,
      "sky": 5047,
      "alone": 5048,
      "artists": 5049,
      "reaching": 5050,
      "ils": 5051,
      "encour": 5052,
      "Regiment": 5053,
      "widely": 5054,
      "promoted": 5055,
      "problem": 5056,
      "stay": 5057,
      "yer": 5058,
      "sust": 5059,
      "seg": 5060,
      "ements": 5061,
      "ses": 5062,
      "elve": 5063,
      "edge": 5064,
      "husband": 5065,
      "results": 5066,
      "Ireland": 5067,
      "Ob": 5068,
      "bud": 5069,
      "Avenue": 5070,
      "news": 5071,
      "bass": 5072,
      "Gre": 5073,
      "bat": 5074,
      "dif": 5075,
      "sexual": 5076,
      "adel": 5077,
      "travel": 5078,
      "Middle": 5079,
      "brary": 5080,
      "Spr": 5081,
      "albums": 5082,
      "subsequent": 5083,
      "aling": 5084,
      "Fleet": 5085,
      "greatest": 5086,
      "cher": 5087,
      "roads": 5088,
      "invasion": 5089,
      "offer": 5090,
      "smo": 5091,
      "Live": 5092,
      "officially": 5093,
      "arms": 5094,
      "1989": 5095,
      "sixth": 5096,
      "Otto": 5097,
      "county": 5098,
      "affected": 5099,
      "fair": 5100,
      "lip": 5101,
      "southeast": 5102,
      "iano": 5103,
      "pilot": 5104,
      "opin": 5105,
      "acu": 5106,
      "illa": 5107,
      "shortly": 5108,
      "1943": 5109,
      "push": 5110,
      "din": 5111,
      "theless": 5112,
      "expressed": 5113,
      "contest": 5114,
      "spring": 5115,
      "appearances": 5116,
      "causing": 5117,
      "reception": 5118,
      "true": 5119,
      "doing": 5120,
      "Common": 5121,
      "represented": 5122,
      "armed": 5123,
      "Victoria": 5124,
      "Lie": 5125,
      "Ray": 5126,
      "shell": 5127,
      "organized": 5128,
      "Wind": 5129,
      "nown": 5130,
      "sense": 5131,
      "arent": 5132,
      "ols": 5133,
      "physical": 5134,
      "ota": 5135,
      "residents": 5136,
      "urban": 5137,
      "capac": 5138,
      "defense": 5139,
      "Catholic": 5140,
      "tun": 5141,
      "tells": 5142,
      "pieces": 5143,
      "aded": 5144,
      "Tropical": 5145,
      "seasons": 5146,
      "aga": 5147,
      "teach": 5148,
      "ansion": 5149,
      "Valley": 5150,
      "laid": 5151,
      "Land": 5152,
      "negot": 5153,
      "intend": 5154,
      "ategory": 5155,
      "CD": 5156,
      "itude": 5157,
      "179": 5158,
      "growth": 5159,
      "semb": 5160,
      "avoid": 5161,
      "require": 5162,
      "hospital": 5163,
      "ufact": 5164,
      "bodies": 5165,
      "MD": 5166,
      "IV": 5167,
      "actors": 5168,
      "Bul": 5169,
      "Dutch": 5170,
      "Though": 5171,
      "kg": 5172,
      "wal": 5173,
      "visited": 5174,
      "focus": 5175,
      "600": 5176,
      "dog": 5177,
      "ached": 5178,
      "chair": 5179,
      "fired": 5180,
      "Week": 5181,
      "artillery": 5182,
      "Bre": 5183,
      "3rd": 5184,
      "SS": 5185,
      "advant": 5186,
      "Commun": 5187,
      "plement": 5188,
      "Bus": 5189,
      "weapons": 5190,
      "atures": 5191,
      "fellow": 5192,
      "Show": 5193,
      "ahead": 5194,
      "vote": 5195,
      "Football": 5196,
      "arian": 5197,
      "dition": 5198,
      "Through": 5199,
      "eas": 5200,
      "usual": 5201,
      "question": 5202,
      "inson": 5203,
      "iron": 5204,
      "lvania": 5205,
      "heavily": 5206,
      "eigh": 5207,
      "Upon": 5208,
      "core": 5209,
      "leaders": 5210,
      "Kenn": 5211,
      "ysis": 5212,
      "Mountain": 5213,
      "1980s": 5214,
      "1940": 5215,
      "pedition": 5216,
      "PA": 5217,
      "Young": 5218,
      "spread": 5219,
      "student": 5220,
      "creation": 5221,
      "Ry": 5222,
      "Jul": 5223,
      "governor": 5224,
      "apparent": 5225,
      "Hy": 5226,
      "studies": 5227,
      "pun": 5228,
      "Good": 5229,
      "Well": 5230,
      "patter": 5231,
      "executive": 5232,
      "passes": 5233,
      "Tay": 5234,
      "floor": 5235,
      "ronic": 5236,
      "protest": 5237,
      "Ash": 5238,
      "ustr": 5239,
      "agreement": 5240,
      "arg": 5241,
      "wave": 5242,
      "capture": 5243,
      "debuted": 5244,
      "kilomet": 5245,
      "prominent": 5246,
      "ares": 5247,
      "Daniel": 5248,
      "ingu": 5249,
      "sions": 5250,
      "mile": 5251,
      "consisted": 5252,
      "setting": 5253,
      "Hum": 5254,
      "Def": 5255,
      "condition": 5256,
      "injury": 5257,
      "figures": 5258,
      "begin": 5259,
      "rical": 5260,
      "equipment": 5261,
      "amber": 5262,
      "instrument": 5263,
      "Bor": 5264,
      "lic": 5265,
      "Rog": 5266,
      "catch": 5267,
      "claims": 5268,
      "launch": 5269,
      "necessary": 5270,
      "negative": 5271,
      "matter": 5272,
      "defend": 5273,
      "Bey": 5274,
      "phil": 5275,
      "argued": 5276,
      "believ": 5277,
      "transl": 5278,
      "ki": 5279,
      "ights": 5280,
      "preser": 5281,
      "Eliza": 5282,
      "opposed": 5283,
      "earth": 5284,
      "dated": 5285,
      "anta": 5286,
      "Of": 5287,
      "normal": 5288,
      "returning": 5289,
      "Civil": 5290,
      "Homer": 5291,
      "Mah": 5292,
      "Ill": 5293,
      "contemporary": 5294,
      "fuel": 5295,
      "istrict": 5296,
      "wit": 5297,
      "Ele": 5298,
      "iated": 5299,
      "Top": 5300,
      "Mu": 5301,
      "arden": 5302,
      "1970s": 5303,
      "Os": 5304,
      "otes": 5305,
      "Northern": 5306,
      "famous": 5307,
      "pict": 5308,
      "Home": 5309,
      "ote": 5310,
      "graphic": 5311,
      "Jon": 5312,
      "77": 5313,
      "ube": 5314,
      "maintained": 5315,
      "rick": 5316,
      "glo": 5317,
      "frequently": 5318,
      "1960s": 5319,
      "couple": 5320,
      "table": 5321,
      "deg": 5322,
      "stations": 5323,
      "Main": 5324,
      "types": 5325,
      "finish": 5326,
      "District": 5327,
      "oul": 5328,
      "criticized": 5329,
      "activities": 5330,
      "kick": 5331,
      "ockey": 5332,
      "paper": 5333,
      "Sub": 5334,
      "sn": 5335,
      "Tele": 5336,
      "ien": 5337,
      "Fri": 5338,
      "Carolina": 5339,
      "deck": 5340,
      "Gal": 5341,
      "toward": 5342,
      "von": 5343,
      "rect": 5344,
      "Marsh": 5345,
      "heard": 5346,
      "machine": 5347,
      "mut": 5348,
      "drug": 5349,
      "citiz": 5350,
      "discuss": 5351,
      "occasion": 5352,
      "aces": 5353,
      "tournament": 5354,
      "reference": 5355,
      "Ocean": 5356,
      "reign": 5357,
      "Bond": 5358,
      "singles": 5359,
      "trees": 5360,
      "acts": 5361,
      "operated": 5362,
      "else": 5363,
      "folk": 5364,
      "1987": 5365,
      "Scottish": 5366,
      "senior": 5367,
      "planet": 5368,
      "acher": 5369,
      "rig": 5370,
      "ledge": 5371,
      "aspect": 5372,
      "medical": 5373,
      "territory": 5374,
      "trying": 5375,
      "worldwide": 5376,
      "vor": 5377,
      "achieve": 5378,
      "value": 5379,
      "eway": 5380,
      "Government": 5381,
      "1988": 5382,
      "atom": 5383,
      "Writ": 5384,
      "coal": 5385,
      "Fantasy": 5386,
      "System": 5387,
      "Governor": 5388,
      "TC": 5389,
      "eye": 5390,
      "Tem": 5391,
      "modif": 5392,
      "Operation": 5393,
      "66": 5394,
      "narr": 5395,
      "Background": 5396,
      "Ly": 5397,
      "horses": 5398,
      "holds": 5399,
      "Holly": 5400,
      "treatment": 5401,
      "historian": 5402,
      "color": 5403,
      "Colon": 5404,
      "hands": 5405,
      "sembly": 5406,
      "ocks": 5407,
      "Field": 5408,
      "Castle": 5409,
      "rainfall": 5410,
      "accident": 5411,
      "looking": 5412,
      "university": 5413,
      "Dev": 5414,
      "views": 5415,
      "therefore": 5416,
      "rum": 5417,
      "supply": 5418,
      "challeng": 5419,
      "Duke": 5420,
      "lers": 5421,
      "ini": 5422,
      "championship": 5423,
      "grew": 5424,
      "split": 5425,
      "chosen": 5426,
      "leaves": 5427,
      "assault": 5428,
      "shap": 5429,
      "crash": 5430,
      "Jud": 5431,
      "twice": 5432,
      "gam": 5433,
      "Studios": 5434,
      "gian": 5435,
      "ressed": 5436,
      "Short": 5437,
      "incident": 5438,
      "Polish": 5439,
      "shore": 5440,
      "reports": 5441,
      "cance": 5442,
      "walls": 5443,
      "stood": 5444,
      "rael": 5445,
      "Pen": 5446,
      "zed": 5447,
      "imen": 5448,
      "consecut": 5449,
      "ker": 5450,
      "escape": 5451,
      "Senate": 5452,
      "offensive": 5453,
      "velopment": 5454,
      "teenth": 5455,
      "stre": 5456,
      "Eastern": 5457,
      "follows": 5458,
      "Lew": 5459,
      "billion": 5460,
      "soundtrack": 5461,
      "acted": 5462,
      "Andrew": 5463,
      "wounded": 5464,
      "schedul": 5465,
      "manufact": 5466,
      "prompt": 5467,
      "editor": 5468,
      "pursu": 5469,
      "surrounding": 5470,
      "adapt": 5471,
      "Hard": 5472,
      "gate": 5473,
      "contained": 5474,
      "esc": 5475,
      "steam": 5476,
      "degree": 5477,
      "Pennsy": 5478,
      "ucky": 5479,
      "herself": 5480,
      "heads": 5481,
      "workers": 5482,
      "Christmas": 5483,
      "typically": 5484,
      "oting": 5485,
      "street": 5486,
      "rane": 5487,
      "pton": 5488,
      "servation": 5489,
      "Allied": 5490,
      "fiction": 5491,
      "simply": 5492,
      "lives": 5493,
      "symp": 5494,
      "Mean": 5495,
      "ette": 5496,
      "Wilson": 5497,
      "unknown": 5498,
      "Beat": 5499,
      "railway": 5500,
      "Mul": 5501,
      "wart": 5502,
      "rival": 5503,
      "regarded": 5504,
      "element": 5505,
      "Columb": 5506,
      "Dam": 5507,
      "mn": 5508,
      "Bell": 5509,
      "Taylor": 5510,
      "WW": 5511,
      "emphas": 5512,
      "dete": 5513,
      "Joe": 5514,
      "chose": 5515,
      "1986": 5516,
      "consecutive": 5517,
      "drive": 5518,
      "chance": 5519,
      "nothing": 5520,
      "Alexander": 5521,
      "authority": 5522,
      "cannot": 5523,
      "currently": 5524,
      "Each": 5525,
      "tail": 5526,
      "growing": 5527,
      "marine": 5528,
      "ifying": 5529,
      "newly": 5530,
      "ano": 5531,
      "awa": 5532,
      "Corn": 5533,
      "brown": 5534,
      "participated": 5535,
      "Rod": 5536,
      "website": 5537,
      "throw": 5538,
      "Wel": 5539,
      "casual": 5540,
      "Ha": 5541,
      "spirit": 5542,
      "err": 5543,
      "mentioned": 5544,
      "broken": 5545,
      "producers": 5546,
      "newspaper": 5547,
      "Tech": 5548,
      "Down": 5549,
      "Blue": 5550,
      "grade": 5551,
      "tree": 5552,
      "losing": 5553,
      "capacity": 5554,
      "isters": 5555,
      "ancing": 5556,
      "experiment": 5557,
      "exc": 5558,
      "Fam": 5559,
      "roof": 5560,
      "compar": 5561,
      "risk": 5562,
      "filming": 5563,
      "advanced": 5564,
      "adopted": 5565,
      "extra": 5566,
      "Festival": 5567,
      "advert": 5568,
      "firm": 5569,
      "moment": 5570,
      "boats": 5571,
      "Pennsylvania": 5572,
      "oppon": 5573,
      "disp": 5574,
      "What": 5575,
      "ilies": 5576,
      "opposition": 5577,
      "edom": 5578,
      "mann": 5579,
      "strike": 5580,
      "Storm": 5581,
      "Chart": 5582,
      "aud": 5583,
      "zy": 5584,
      "Islands": 5585,
      "basis": 5586,
      "uth": 5587,
      "door": 5588,
      "council": 5589,
      "oppos": 5590,
      "sites": 5591,
      "Sound": 5592,
      "budget": 5593,
      "imag": 5594,
      "plants": 5595,
      "Reception": 5596,
      "Night": 5597,
      "clo": 5598,
      "Liber": 5599,
      "Mike": 5600,
      "Kr": 5601,
      "fare": 5602,
      "abandoned": 5603,
      "yle": 5604,
      "committee": 5605,
      "Irish": 5606,
      "Further": 5607,
      "aved": 5608,
      "uce": 5609,
      "Head": 5610,
      "56": 5611,
      "Ret": 5612,
      "silver": 5613,
      "flying": 5614,
      "franch": 5615,
      "gal": 5616,
      "filmed": 5617,
      "bute": 5618,
      "otional": 5619,
      "ables": 5620,
      "creating": 5621,
      "purpose": 5622,
      "sections": 5623,
      "phas": 5624,
      "tower": 5625,
      "honor": 5626,
      "Albert": 5627,
      "Harry": 5628,
      "99": 5629,
      "homes": 5630,
      "Coast": 5631,
      "Spain": 5632,
      "inth": 5633,
      "chor": 5634,
      "Person": 5635,
      "wild": 5636,
      "expansion": 5637,
      "umber": 5638,
      "encounter": 5639,
      "ounger": 5640,
      "Jersey": 5641,
      "individuals": 5642,
      "possibly": 5643,
      "ju": 5644,
      "wel": 5645,
      "illy": 5646,
      "rush": 5647,
      "landing": 5648,
      "ager": 5649,
      "1990s": 5650,
      "beyond": 5651,
      "apers": 5652,
      "sail": 5653,
      "rank": 5654,
      "measure": 5655,
      "eration": 5656,
      "Bon": 5657,
      "failure": 5658,
      "fly": 5659,
      "Square": 5660,
      "deploy": 5661,
      "tery": 5662,
      "historical": 5663,
      "killing": 5664,
      "draft": 5665,
      "places": 5666,
      "Ron": 5667,
      "1939": 5668,
      "multi": 5669,
      "lane": 5670,
      "CA": 5671,
      "uff": 5672,
      "Origin": 5673,
      "achieved": 5674,
      "occupied": 5675,
      "believe": 5676,
      "genus": 5677,
      "paralle": 5678,
      "management": 5679,
      "Elizabeth": 5680,
      "ctic": 5681,
      "Bol": 5682,
      "roles": 5683,
      "intellig": 5684,
      "igg": 5685,
      "Production": 5686,
      "Ros": 5687,
      "sche": 5688,
      "Republ": 5689,
      "Public": 5690,
      "brid": 5691,
      "narrow": 5692,
      "retired": 5693,
      "ideas": 5694,
      "Institute": 5695,
      "azz": 5696,
      "58": 5697,
      "integr": 5698,
      "eu": 5699,
      "wid": 5700,
      "Israel": 5701,
      "rooms": 5702,
      "Kel": 5703,
      "improved": 5704,
      "disease": 5705,
      "bility": 5706,
      "crowd": 5707,
      "perman": 5708,
      "Broad": 5709,
      "eds": 5710,
      "briefly": 5711,
      "yl": 5712,
      "Due": 5713,
      "auto": 5714,
      "1985": 5715,
      "Revolution": 5716,
      "nick": 5717,
      "seat": 5718,
      "Bart": 5719,
      "effective": 5720,
      "porters": 5721,
      "1968": 5722,
      "granted": 5723,
      "administration": 5724,
      "Liver": 5725,
      "ocated": 5726,
      "mounted": 5727,
      "repeated": 5728,
      "receive": 5729,
      "sports": 5730,
      "personnel": 5731,
      "perfect": 5732,
      "advantage": 5733,
      "rejected": 5734,
      "ancy": 5735,
      "Meanwhile": 5736,
      "Republican": 5737,
      "unique": 5738,
      "twelve": 5739,
      "gives": 5740,
      "custom": 5741,
      "kilometres": 5742,
      "bom": 5743,
      "extensive": 5744,
      "rise": 5745,
      "leadership": 5746,
      "turns": 5747,
      "ques": 5748,
      "Doctor": 5749,
      "Album": 5750,
      "agg": 5751,
      "hair": 5752,
      "interchange": 5753,
      "avalry": 5754,
      "Clark": 5755,
      "Ven": 5756,
      "Greg": 5757,
      "Jes": 5758,
      "1970": 5759,
      "Ohio": 5760,
      "data": 5761,
      "sufficient": 5762,
      "experienced": 5763,
      "iring": 5764,
      "infantry": 5765,
      "crossing": 5766,
      "Sand": 5767,
      "evacu": 5768,
      "expanded": 5769,
      "controlled": 5770,
      "straight": 5771,
      "describes": 5772,
      "ani": 5773,
      "forming": 5774,
      "solo": 5775,
      "Secretary": 5776,
      "afety": 5777,
      "Board": 5778,
      "champion": 5779,
      "yellow": 5780,
      "choice": 5781,
      "Cub": 5782,
      "zil": 5783,
      "alty": 5784,
      "acquired": 5785,
      "attribut": 5786,
      "adelph": 5787,
      "didn": 5788,
      "credited": 5789,
      "1984": 5790,
      "Sel": 5791,
      "cé": 5792,
      "allows": 5793,
      "tend": 5794,
      "fought": 5795,
      "entr": 5796,
      "Pu": 5797,
      "note": 5798,
      "surrender": 5799,
      "sort": 5800,
      "Philadelph": 5801,
      "ero": 5802,
      "iments": 5803,
      "explos": 5804,
      "security": 5805,
      "determined": 5806,
      "caught": 5807,
      "abin": 5808,
      "animal": 5809,
      "hill": 5810,
      "inf": 5811,
      "vehicles": 5812,
      "suggests": 5813,
      "Are": 5814,
      "families": 5815,
      "venture": 5816,
      "psych": 5817,
      "amin": 5818,
      "titles": 5819,
      "Mir": 5820,
      "Even": 5821,
      "iday": 5822,
      "Arm": 5823,
      "stock": 5824,
      "52": 5825,
      "ancient": 5826,
      "drama": 5827,
      "Cambridge": 5828,
      "Georgia": 5829,
      "Bud": 5830,
      "haps": 5831,
      "article": 5832,
      "Never": 5833,
      "commonly": 5834,
      "guard": 5835,
      "DS": 5836,
      "kins": 5837,
      "Philadelphia": 5838,
      "Hon": 5839,
      "nuclear": 5840,
      "NC": 5841,
      "shark": 5842,
      "comedy": 5843,
      "mod": 5844,
      "seventh": 5845,
      "ivity": 5846,
      "800": 5847,
      "prefer": 5848,
      "eyes": 5849,
      "companied": 5850,
      "Rel": 5851,
      "enc": 5852,
      "Ul": 5853,
      "powers": 5854,
      "Sher": 5855,
      "iful": 5856,
      "sle": 5857,
      "acad": 5858,
      "authorities": 5859,
      "gi": 5860,
      "ardi": 5861,
      "headquarters": 5862,
      "connected": 5863,
      "holding": 5864,
      "anning": 5865,
      "yst": 5866,
      "sand": 5867,
      "sac": 5868,
      "contain": 5869,
      "burgh": 5870,
      "Ten": 5871,
      "Also": 5872,
      "labor": 5873,
      "centuries": 5874,
      "ridge": 5875,
      "islands": 5876,
      "1967": 5877,
      "store": 5878,
      "Addition": 5879,
      "attle": 5880,
      "Russia": 5881,
      "recently": 5882,
      "cultural": 5883,
      "End": 5884,
      "Hit": 5885,
      "ola": 5886,
      "beaut": 5887,
      "protected": 5888,
      "restling": 5889,
      "Point": 5890,
      "simple": 5891,
      "asc": 5892,
      "1980": 5893,
      "Gall": 5894,
      "wise": 5895,
      "estic": 5896,
      "Among": 5897,
      "Ottoman": 5898,
      "umes": 5899,
      "Liverpool": 5900,
      "depict": 5901,
      "finds": 5902,
      "decre": 5903,
      "Nintend": 5904,
      "reput": 5905,
      "singing": 5906,
      "Nintendo": 5907,
      "phone": 5908,
      "lyn": 5909,
      "turret": 5910,
      "battalion": 5911,
      "120": 5912,
      "Rose": 5913,
      "iana": 5914,
      "Chap": 5915,
      "etball": 5916,
      "Ve": 5917,
      "approved": 5918,
      "Columbia": 5919,
      "ont": 5920,
      "speak": 5921,
      "existing": 5922,
      "Asia": 5923,
      "accompanied": 5924,
      "dollar": 5925,
      "Tro": 5926,
      "defence": 5927,
      "goes": 5928,
      "containing": 5929,
      "orche": 5930,
      "entirely": 5931,
      "Pers": 5932,
      "erc": 5933,
      "height": 5934,
      "shop": 5935,
      "96": 5936,
      "fields": 5937,
      "agan": 5938,
      "bands": 5939,
      "Jean": 5940,
      "scheduled": 5941,
      "Prime": 5942,
      "sport": 5943,
      "analysis": 5944,
      "touchdown": 5945,
      "88": 5946,
      "Miss": 5947,
      "contributed": 5948,
      "Lincol": 5949,
      "extr": 5950,
      "themes": 5951,
      "Jenn": 5952,
      "Singap": 5953,
      "protect": 5954,
      "flooding": 5955,
      "Champion": 5956,
      "oll": 5957,
      "aste": 5958,
      "younger": 5959,
      "Development": 5960,
      "provides": 5961,
      "Korean": 5962,
      "computer": 5963,
      "purchased": 5964,
      "adap": 5965,
      "prising": 5966,
      "Lieutenant": 5967,
      "performing": 5968,
      "iny": 5969,
      "awards": 5970,
      "Jun": 5971,
      "1983": 5972,
      "quite": 5973,
      "Brazil": 5974,
      "FL": 5975,
      "locations": 5976,
      "Gulf": 5977,
      "Rus": 5978,
      "oma": 5979,
      "Mos": 5980,
      "isers": 5981,
      "Jewish": 5982,
      "Burn": 5983,
      "51": 5984,
      "Anderson": 5985,
      "arrival": 5986,
      "Hay": 5987,
      "conve": 5988,
      "Lis": 5989,
      "defensive": 5990,
      "Francisco": 5991,
      "viewed": 5992,
      "resem": 5993,
      "Ind": 5994,
      "engaged": 5995,
      "motion": 5996,
      "gather": 5997,
      "Singapore": 5998,
      "ceremony": 5999,
      "headed": 6000,
      "1964": 6001,
      "Order": 6002,
      "Lincoln": 6003,
      "expedition": 6004,
      "illustr": 6005,
      "filled": 6006,
      "Lar": 6007,
      "hang": 6008,
      "formula": 6009,
      "People": 6010,
      "1969": 6011,
      "victim": 6012,
      "mate": 6013,
      "Carey": 6014,
      "Sa": 6015,
      "Radio": 6016,
      "Office": 6017,
      "arc": 6018,
      "Die": 6019,
      "myth": 6020,
      "dedicated": 6021,
      "employed": 6022,
      "ko": 6023,
      "philos": 6024,
      "Han": 6025,
      "fresh": 6026,
      "Bas": 6027,
      "sun": 6028,
      "why": 6029,
      "intensity": 6030,
      "joint": 6031,
      "Disney": 6032,
      "prepared": 6033,
      "ees": 6034,
      "repl": 6035,
      "1914": 6036,
      "79": 6037,
      "1918": 6038,
      "HMS": 6039,
      "structures": 6040,
      "Kir": 6041,
      "PlayStation": 6042,
      "Dark": 6043,
      "cles": 6044,
      "ule": 6045,
      "agement": 6046,
      "industrial": 6047,
      "dry": 6048,
      "outs": 6049,
      "Oli": 6050,
      "1982": 6051,
      "defined": 6052,
      "PC": 6053,
      "charged": 6054,
      "cat": 6055,
      "sens": 6056,
      "1971": 6057,
      "Walter": 6058,
      "4th": 6059,
      "recru": 6060,
      "closely": 6061,
      "escort": 6062,
      "Steve": 6063,
      "consists": 6064,
      "Brian": 6065,
      "negoti": 6066,
      "Miller": 6067,
      "Lewis": 6068,
      "comic": 6069,
      "1966": 6070,
      "Si": 6071,
      "Metro": 6072,
      "drawn": 6073,
      "Ko": 6074,
      "technology": 6075,
      "1972": 6076,
      "Six": 6077,
      "Conference": 6078,
      "piano": 6079,
      "product": 6080,
      "1979": 6081,
      "focused": 6082,
      "Turn": 6083,
      "egg": 6084,
      "enge": 6085,
      "Byz": 6086,
      "Mis": 6087,
      "Once": 6088,
      "facilities": 6089,
      "elimin": 6090,
      "Brook": 6091,
      "18th": 6092,
      "supporting": 6093,
      "criticism": 6094,
      "protection": 6095,
      "union": 6096,
      "Olympic": 6097,
      "ji": 6098,
      "preced": 6099,
      "belong": 6100,
      "earch": 6101,
      "discus": 6102,
      "selection": 6103,
      "etic": 6104,
      "cars": 6105,
      "ilton": 6106,
      "susp": 6107,
      "Byzant": 6108,
      "ec": 6109,
      "tact": 6110,
      "visual": 6111,
      "shooting": 6112,
      "rence": 6113,
      "Grant": 6114,
      "Sus": 6115,
      "regions": 6116,
      "1965": 6117,
      "strip": 6118,
      "motor": 6119,
      "Railway": 6120,
      "trail": 6121,
      "NHL": 6122,
      "Emperor": 6123,
      "Child": 6124,
      "belief": 6125,
      "hired": 6126,
      "anda": 6127,
      "advis": 6128,
      "opportunity": 6129,
      "satis": 6130,
      "receiving": 6131,
      "onom": 6132,
      "rear": 6133,
      "substant": 6134,
      "1975": 6135,
      "recognized": 6136,
      "display": 6137,
      "correspond": 6138,
      "emb": 6139,
      "conference": 6140,
      "Es": 6141,
      "uct": 6142,
      "rupt": 6143,
      "kee": 6144,
      "Blo": 6145,
      "knot": 6146,
      "notable": 6147,
      "calls": 6148,
      "strengthen": 6149,
      "trains": 6150,
      "Jr": 6151,
      "Ep": 6152,
      "possess": 6153,
      "Ka": 6154,
      "Germans": 6155,
      "composition": 6156,
      "Gro": 6157,
      "providing": 6158,
      "alternative": 6159,
      "ours": 6160,
      "iance": 6161,
      "Hollywood": 6162,
      "Mod": 6163,
      "lb": 6164,
      "resident": 6165,
      "Davis": 6166,
      "Only": 6167,
      "1974": 6168,
      "liber": 6169,
      "charts": 6170,
      "ween": 6171,
      "merch": 6172,
      "Summer": 6173,
      "Cur": 6174,
      "59": 6175,
      "57": 6176,
      "agent": 6177,
      "rapidly": 6178,
      "exter": 6179,
      "izes": 6180,
      "southwest": 6181,
      "Water": 6182,
      "achu": 6183,
      "volume": 6184,
      "Serb": 6185,
      "tank": 6186,
      "1973": 6187,
      "Bank": 6188,
      "bac": 6189,
      "Indu": 6190,
      "publication": 6191,
      "Democratic": 6192,
      "aly": 6193,
      "resc": 6194,
      "desc": 6195,
      "digital": 6196,
      "shared": 6197,
      "Ri": 6198,
      "casualties": 6199,
      "Daily": 6200,
      "highlight": 6201,
      "Between": 6202,
      "Fall": 6203,
      "constant": 6204,
      "reaction": 6205,
      "hydro": 6206,
      "label": 6207,
      "Op": 6208,
      "temperature": 6209,
      "card": 6210,
      "lake": 6211,
      "unting": 6212,
      "missing": 6213,
      "economy": 6214,
      "1976": 6215,
      "Les": 6216,
      "adding": 6217,
      "involve": 6218,
      "ogy": 6219,
      "developing": 6220,
      "Knight": 6221,
      "Rome": 6222,
      "Lady": 6223,
      "68": 6224,
      "glass": 6225,
      "Jour": 6226,
      "letters": 6227,
      "uan": 6228,
      "steel": 6229,
      "iet": 6230,
      "intersection": 6231,
      "reflect": 6232,
      "Pet": 6233,
      "secondary": 6234,
      "icial": 6235,
      "popularity": 6236,
      "oncé": 6237,
      "eleven": 6238,
      "symbol": 6239,
      "inspir": 6240,
      "ods": 6241,
      "Mount": 6242,
      "formal": 6243,
      "getting": 6244,
      "Lind": 6245,
      "Special": 6246,
      "raid": 6247,
      "injured": 6248,
      "urb": 6249,
      "ceived": 6250,
      "isol": 6251,
      "losses": 6252,
      "itled": 6253,
      "Pit": 6254,
      "partn": 6255,
      "acks": 6256,
      "march": 6257,
      "painting": 6258,
      "brand": 6259,
      "franchise": 6260,
      "trip": 6261,
      "hed": 6262,
      "witness": 6263,
      "ads": 6264,
      "portray": 6265,
      "significantly": 6266,
      "Bad": 6267,
      "Women": 6268,
      "crimin": 6269,
      "save": 6270,
      "250": 6271,
      "knew": 6272,
      "semi": 6273,
      "Muslim": 6274,
      "poll": 6275,
      "abo": 6276,
      "hot": 6277,
      "emic": 6278,
      "Arts": 6279,
      "literature": 6280,
      "Beyoncé": 6281,
      "unte": 6282,
      "actress": 6283,
      "cricket": 6284,
      "abour": 6285,
      "54": 6286,
      "Nap": 6287,
      "mast": 6288,
      "math": 6289,
      "inal": 6290,
      "UN": 6291,
      "roughly": 6292,
      "Syd": 6293,
      "fash": 6294,
      "Dor": 6295,
      "remo": 6296,
      "dram": 6297,
      "Tam": 6298,
      "shape": 6299,
      "evin": 6300,
      "distinct": 6301,
      "inger": 6302,
      "regarding": 6303,
      "53": 6304,
      "brothers": 6305,
      "scientific": 6306,
      "anything": 6307,
      "ully": 6308,
      "ux": 6309,
      "museum": 6310,
      "grapher": 6311,
      "projects": 6312,
      "Colonel": 6313,
      "arranged": 6314,
      "introduction": 6315,
      "avig": 6316,
      "gameplay": 6317,
      "resistance": 6318,
      "bishop": 6319,
      "Naz": 6320,
      "nic": 6321,
      "89": 6322,
      "án": 6323,
      "Supreme": 6324,
      "neighbor": 6325,
      "IG": 6326,
      "ulate": 6327,
      "storyline": 6328,
      "reasons": 6329,
      "rules": 6330,
      "gro": 6331,
      "MA": 6332,
      "Nick": 6333,
      "zen": 6334,
      "distingu": 6335,
      "Press": 6336,
      "cells": 6337,
      "bid": 6338,
      "Kentucky": 6339,
      "daily": 6340,
      "Dy": 6341,
      "cool": 6342,
      "1946": 6343,
      "watched": 6344,
      "cruiser": 6345,
      "1981": 6346,
      "shaped": 6347,
      "missions": 6348,
      "accur": 6349,
      "stages": 6350,
      "itors": 6351,
      "plane": 6352,
      "ients": 6353,
      "aka": 6354,
      "istry": 6355,
      "perhaps": 6356,
      "enjoyed": 6357,
      "Gord": 6358,
      "annon": 6359,
      "turning": 6360,
      "renamed": 6361,
      "capable": 6362,
      "160": 6363,
      "laws": 6364,
      "1950s": 6365,
      "Bern": 6366,
      "opinion": 6367,
      "acres": 6368,
      "declined": 6369,
      "rhy": 6370,
      "Mun": 6371,
      "Norway": 6372,
      "trou": 6373,
      "estate": 6374,
      "setts": 6375,
      "converted": 6376,
      "Prote": 6377,
      "reputation": 6378,
      "ultural": 6379,
      "1917": 6380,
      "asser": 6381,
      "publish": 6382,
      "Fair": 6383,
      "cited": 6384,
      "abilities": 6385,
      "Massachu": 6386,
      "awn": 6387,
      "Olympics": 6388,
      "poem": 6389,
      "retire": 6390,
      "stable": 6391,
      "genre": 6392,
      "BN": 6393,
      "udes": 6394,
      "87": 6395,
      "Dream": 6396,
      "Ell": 6397,
      "dates": 6398,
      "Nel": 6399,
      "agric": 6400,
      "statement": 6401,
      "ading": 6402,
      "recon": 6403,
      "replace": 6404,
      "operating": 6405,
      "existence": 6406,
      "Det": 6407,
      "Base": 6408,
      "asty": 6409,
      "Massachusetts": 6410,
      "enh": 6411,
      "producing": 6412,
      "tos": 6413,
      "buried": 6414,
      "ulpt": 6415,
      "mad": 6416,
      "exact": 6417,
      "marks": 6418,
      "combination": 6419,
      "rog": 6420,
      "depth": 6421,
      "aug": 6422,
      "knowledge": 6423,
      "increasingly": 6424,
      "scholar": 6425,
      "heim": 6426,
      "limit": 6427,
      "BS": 6428,
      "ura": 6429,
      "graded": 6430,
      "IA": 6431,
      "stadium": 6432,
      "approached": 6433,
      "zone": 6434,
      "ride": 6435,
      "Pict": 6436,
      "lease": 6437,
      "Airport": 6438,
      "Gree": 6439,
      "aer": 6440,
      "flat": 6441,
      "Tod": 6442,
      "planning": 6443,
      "responded": 6444,
      "Vide": 6445,
      "Whit": 6446,
      "Independ": 6447,
      "Run": 6448,
      "easily": 6449,
      "Ari": 6450,
      "Golden": 6451,
      "collected": 6452,
      "1948": 6453,
      "amond": 6454,
      "bling": 6455,
      "anth": 6456,
      "Elect": 6457,
      "settlement": 6458,
      "sects": 6459,
      "expect": 6460,
      "Cir": 6461,
      "equal": 6462,
      "py": 6463,
      "succeeded": 6464,
      "exerc": 6465,
      "1960": 6466,
      "About": 6467,
      "photograph": 6468,
      "models": 6469,
      "Mit": 6470,
      "safety": 6471,
      "ctors": 6472,
      "Earl": 6473,
      "humans": 6474,
      "AD": 6475,
      "Simpsons": 6476,
      "learned": 6477,
      "sustained": 6478,
      "Pass": 6479,
      "platform": 6480,
      "86": 6481,
      "promotion": 6482,
      "Der": 6483,
      "Init": 6484,
      "secure": 6485,
      "ES": 6486,
      "1978": 6487,
      "owner": 6488,
      "sie": 6489,
      "Ice": 6490,
      "Kh": 6491,
      "FC": 6492,
      "carrying": 6493,
      "indicated": 6494,
      "baseball": 6495,
      "ias": 6496,
      "breeding": 6497,
      "exchange": 6498,
      "Rac": 6499,
      "Songs": 6500,
      "showing": 6501,
      "rol": 6502,
      "Vietnam": 6503,
      "youth": 6504,
      "athan": 6505,
      "Ball": 6506,
      "iger": 6507,
      "lasted": 6508,
      "aust": 6509,
      "ignment": 6510,
      "rob": 6511,
      "Stand": 6512,
      "Hugh": 6513,
      "icks": 6514,
      "violence": 6515,
      "MTV": 6516,
      "Imperial": 6517,
      "uration": 6518,
      "72": 6519,
      "seems": 6520,
      "paint": 6521,
      "weakened": 6522,
      "700": 6523,
      "Cape": 6524,
      "cruisers": 6525,
      "entry": 6526,
      "borough": 6527,
      "agu": 6528,
      "1915": 6529,
      "designs": 6530,
      "athlet": 6531,
      "Shortly": 6532,
      "univers": 6533,
      "cold": 6534,
      "auth": 6535,
      "proceed": 6536,
      "trust": 6537,
      "Poland": 6538,
      "freeway": 6539,
      "Hart": 6540,
      "1977": 6541,
      "earliest": 6542,
      "ruled": 6543,
      "Sydney": 6544,
      "landfall": 6545,
      "Maryland": 6546,
      "Moore": 6547,
      "safe": 6548,
      "description": 6549,
      "icate": 6550,
      "retained": 6551,
      "Who": 6552,
      "applied": 6553,
      "install": 6554,
      "Form": 6555,
      "programs": 6556,
      "assistant": 6557,
      "Naval": 6558,
      "urs": 6559,
      "69": 6560,
      "Found": 6561,
      "grounds": 6562,
      "none": 6563,
      "ampions": 6564,
      "reserve": 6565,
      "inton": 6566,
      "wich": 6567,
      "playoff": 6568,
      "serves": 6569,
      "page": 6570,
      "seas": 6571,
      "resour": 6572,
      "writes": 6573,
      "coastal": 6574,
      "hits": 6575,
      "issance": 6576,
      "insula": 6577,
      "Ra": 6578,
      "1963": 6579,
      "dial": 6580,
      "domestic": 6581,
      "fix": 6582,
      "entrance": 6583,
      "CE": 6584,
      "Band": 6585,
      "ental": 6586,
      "virt": 6587,
      "neut": 6588,
      "borne": 6589,
      "battery": 6590,
      "sculpt": 6591,
      "istan": 6592,
      "exclus": 6593,
      "ii": 6594,
      "Jay": 6595,
      "iverse": 6596,
      "items": 6597,
      "stret": 6598,
      "strate": 6599,
      "candidate": 6600,
      "Hun": 6601,
      "1916": 6602,
      "delivered": 6603,
      "Spring": 6604,
      "gradually": 6605,
      "stopped": 6606,
      "politics": 6607,
      "ining": 6608,
      "onym": 6609,
      "breaking": 6610,
      "heat": 6611,
      "Prin": 6612,
      "settled": 6613,
      "distribution": 6614,
      "Edu": 6615,
      "independence": 6616,
      "elled": 6617,
      "solid": 6618,
      "details": 6619,
      "eff": 6620,
      "interested": 6621,
      "warm": 6622,
      "apped": 6623,
      "Mulder": 6624,
      "towns": 6625,
      "Confed": 6626,
      "ears": 6627,
      "asks": 6628,
      "ries": 6629,
      "affect": 6630,
      "minister": 6631,
      "cinem": 6632,
      "Matt": 6633,
      "fine": 6634,
      "supplies": 6635,
      "Vo": 6636,
      "equival": 6637,
      "parties": 6638,
      "finding": 6639,
      "Gordon": 6640,
      "engines": 6641,
      "wr": 6642,
      "Tun": 6643,
      "prisoners": 6644,
      "camera": 6645,
      "1919": 6646,
      "ifications": 6647,
      "Bir": 6648,
      "decis": 6649,
      "appeal": 6650,
      "Stadium": 6651,
      "refle": 6652,
      "aret": 6653,
      "Rhodes": 6654,
      "gall": 6655,
      "Cont": 6656,
      "campus": 6657,
      "ador": 6658,
      "1962": 6659,
      "illi": 6660,
      "Carl": 6661,
      "online": 6662,
      "extremely": 6663,
      "Fire": 6664,
      "foss": 6665,
      "Adams": 6666,
      "entitled": 6667,
      "Here": 6668,
      "Net": 6669,
      "winner": 6670,
      "zo": 6671,
      "osis": 6672,
      "lee": 6673,
      "mical": 6674,
      "copy": 6675,
      "Premi": 6676,
      "decade": 6677,
      "convin": 6678,
      "bask": 6679,
      "67": 6680,
      "lets": 6681,
      "Kim": 6682,
      "rose": 6683,
      "studied": 6684,
      "iversary": 6685,
      "Theatre": 6686,
      "investigation": 6687,
      "1938": 6688,
      "offers": 6689,
      "evening": 6690,
      "regiment": 6691,
      "poration": 6692,
      "inois": 6693,
      "inary": 6694,
      "isms": 6695,
      "cler": 6696,
      "threatened": 6697,
      "pel": 6698,
      "Space": 6699,
      "consum": 6700,
      "bought": 6701,
      "Bowl": 6702,
      "hear": 6703,
      "message": 6704,
      "adapted": 6705,
      "survived": 6706,
      "voted": 6707,
      "knots": 6708,
      "stic": 6709,
      "aine": 6710,
      "Research": 6711,
      "Prof": 6712,
      "Sul": 6713,
      "rie": 6714,
      "proposal": 6715,
      "religion": 6716,
      "Justice": 6717,
      "relations": 6718,
      "61": 6719,
      "deaths": 6720,
      "classified": 6721,
      "routes": 6722,
      "Moon": 6723,
      "revolution": 6724,
      "download": 6725,
      "Instead": 6726,
      "crown": 6727,
      "swe": 6728,
      "Constant": 6729,
      "relief": 6730,
      "males": 6731,
      "izations": 6732,
      "kingdom": 6733,
      "installed": 6734,
      "reduce": 6735,
      "iers": 6736,
      "acid": 6737,
      "Age": 6738,
      "classic": 6739,
      "bottom": 6740,
      "mine": 6741,
      "phase": 6742,
      "ophy": 6743,
      "bourne": 6744,
      "specifically": 6745,
      "yo": 6746,
      "duty": 6747,
      "cation": 6748,
      "happy": 6749,
      "fi": 6750,
      "phoon": 6751,
      "recalled": 6752,
      "orter": 6753,
      "fict": 6754,
      "portrayed": 6755,
      "implement": 6756,
      "aked": 6757,
      "ansas": 6758,
      "ishes": 6759,
      "compon": 6760,
      "USA": 6761,
      "servative": 6762,
      "controversy": 6763,
      "ighters": 6764,
      "Tony": 6765,
      "causes": 6766,
      "uzz": 6767,
      "ira": 6768,
      "meters": 6769,
      "products": 6770,
      "Sav": 6771,
      "fal": 6772,
      "references": 6773,
      "imet": 6774,
      "everything": 6775,
      "Let": 6776,
      "Beach": 6777,
      "appropri": 6778,
      "typical": 6779,
      "62": 6780,
      "1956": 6781,
      "importance": 6782,
      "faith": 6783,
      "walk": 6784,
      "shel": 6785,
      "arrested": 6786,
      "send": 6787,
      "wides": 6788,
      "thin": 6789,
      "pread": 6790,
      "Alan": 6791,
      "bringing": 6792,
      "ati": 6793,
      "overs": 6794,
      "diss": 6795,
      "Anth": 6796,
      "Singles": 6797,
      "130": 6798,
      "visible": 6799,
      "pine": 6800,
      "express": 6801,
      "NBA": 6802,
      "invited": 6803,
      "tanks": 6804,
      "wan": 6805,
      "reading": 6806,
      "1930s": 6807,
      "AR": 6808,
      "entially": 6809,
      "presents": 6810,
      "opera": 6811,
      "Loc": 6812,
      "81": 6813,
      "Director": 6814,
      "admitted": 6815,
      "corner": 6816,
      "internal": 6817,
      "nomination": 6818,
      "crossed": 6819,
      "Video": 6820,
      "ja": 6821,
      "angle": 6822,
      "aints": 6823,
      "Bos": 6824,
      "lad": 6825,
      "Pur": 6826,
      "opher": 6827,
      "tall": 6828,
      "Simon": 6829,
      "istered": 6830,
      "starts": 6831,
      "sequences": 6832,
      "Power": 6833,
      "1936": 6834,
      "Critical": 6835,
      "crop": 6836,
      "equipped": 6837,
      "fil": 6838,
      "ipated": 6839,
      "Kong": 6840,
      "Iron": 6841,
      "IGN": 6842,
      "Engine": 6843,
      "concerns": 6844,
      "Hamilton": 6845,
      "emies": 6846,
      "volcan": 6847,
      "amoun": 6848,
      "actual": 6849,
      "principal": 6850,
      "incorporated": 6851,
      "convoy": 6852,
      "Nat": 6853,
      "Maria": 6854,
      "hun": 6855,
      "recommended": 6856,
      "crime": 6857,
      "ibility": 6858,
      "ranean": 6859,
      "remainder": 6860,
      "images": 6861,
      "Ow": 6862,
      "medal": 6863,
      "Adam": 6864,
      "ordan": 6865,
      "Jane": 6866,
      "dream": 6867,
      "Your": 6868,
      "UTC": 6869,
      "journey": 6870,
      "vard": 6871,
      "Donald": 6872,
      "prot": 6873,
      "shots": 6874,
      "price": 6875,
      "17th": 6876,
      "Wild": 6877,
      "Plot": 6878,
      "assess": 6879,
      "composer": 6880,
      "Kat": 6881,
      "ration": 6882,
      "objects": 6883,
      "ester": 6884,
      "funds": 6885,
      "una": 6886,
      "1961": 6887,
      "appointment": 6888,
      "Ur": 6889,
      "consisting": 6890,
      "ni": 6891,
      "females": 6892,
      "promote": 6893,
      "hr": 6894,
      "thew": 6895,
      "considerable": 6896,
      "ches": 6897,
      "leton": 6898,
      "ilation": 6899,
      "storms": 6900,
      "milit": 6901,
      "extension": 6902,
      "looked": 6903,
      "Indones": 6904,
      "spons": 6905,
      "snow": 6906,
      "otic": 6907,
      "ima": 6908,
      "charges": 6909,
      "frag": 6910,
      "claiming": 6911,
      "posted": 6912,
      "1953": 6913,
      "rett": 6914,
      "Today": 6915,
      "oured": 6916,
      "sters": 6917,
      "Death": 6918,
      "Kennedy": 6919,
      "Gram": 6920,
      "clean": 6921,
      "generation": 6922,
      "Memorial": 6923,
      "Rand": 6924,
      "duties": 6925,
      "Rem": 6926,
      "Nether": 6927,
      "7th": 6928,
      "mort": 6929,
      "Cleve": 6930,
      "hope": 6931,
      "bra": 6932,
      "someone": 6933,
      "wed": 6934,
      "Military": 6935,
      "rural": 6936,
      "beach": 6937,
      "Indiana": 6938,
      "Sunday": 6939,
      "Norman": 6940,
      "eighth": 6941,
      "mere": 6942,
      "cycle": 6943,
      "Howard": 6944,
      "gone": 6945,
      "decades": 6946,
      "driving": 6947,
      "5th": 6948,
      "Ant": 6949,
      "Sky": 6950,
      "Transport": 6951,
      "identity": 6952,
      "Scully": 6953,
      "Norwe": 6954,
      "acre": 6955,
      "connection": 6956,
      "oe": 6957,
      "Tit": 6958,
      "Walk": 6959,
      "outer": 6960,
      "canal": 6961,
      "occurs": 6962,
      "aki": 6963,
      "challenge": 6964,
      "manner": 6965,
      "afford": 6966,
      "Leon": 6967,
      "apping": 6968,
      "Harr": 6969,
      "ulture": 6970,
      "casting": 6971,
      "permanent": 6972,
      "answ": 6973,
      "Arsen": 6974,
      "perior": 6975,
      "brigade": 6976,
      "AAF": 6977,
      "aspects": 6978,
      "inher": 6979,
      "freedom": 6980,
      "ader": 6981,
      "Plan": 6982,
      "Hitler": 6983,
      "onia": 6984,
      "mole": 6985,
      "fashion": 6986,
      "1947": 6987,
      "entering": 6988,
      "thesis": 6989,
      "liked": 6990,
      "1958": 6991,
      "concerned": 6992,
      "classes": 6993,
      "willing": 6994,
      "tunnel": 6995,
      "Five": 6996,
      "1937": 6997,
      "ician": 6998,
      "noting": 6999,
      "attached": 7000,
      "rend": 7001,
      "110": 7002,
      "glas": 7003,
      "divisions": 7004,
      "Sl": 7005,
      "restaur": 7006,
      "hotel": 7007,
      "Brist": 7008,
      "Ross": 7009,
      "supporters": 7010,
      "Ryan": 7011,
      "ora": 7012,
      "slowly": 7013,
      "scar": 7014,
      "74": 7015,
      "dub": 7016,
      "cens": 7017,
      "lling": 7018,
      "san": 7019,
      "1910": 7020,
      "prised": 7021,
      "WWE": 7022,
      "itage": 7023,
      "Vill": 7024,
      "seeing": 7025,
      "involving": 7026,
      "nie": 7027,
      "describing": 7028,
      "enemies": 7029,
      "1957": 7030,
      "Bry": 7031,
      "Wars": 7032,
      "owners": 7033,
      "valu": 7034,
      "Project": 7035,
      "department": 7036,
      "oldest": 7037,
      "Science": 7038,
      "vessels": 7039,
      "Gun": 7040,
      "intention": 7041,
      "purchase": 7042,
      "equivalent": 7043,
      "resent": 7044,
      "til": 7045,
      "Assembly": 7046,
      "antly": 7047,
      "parliament": 7048,
      "debate": 7049,
      "junction": 7050,
      "obtained": 7051,
      "Jac": 7052,
      "iques": 7053,
      "agonist": 7054,
      "Pear": 7055,
      "theatre": 7056,
      "possibility": 7057,
      "regularly": 7058,
      "Magazine": 7059,
      "sessions": 7060,
      "mud": 7061,
      "basic": 7062,
      "63": 7063,
      "Rolling": 7064,
      "grave": 7065,
      "Cleveland": 7066,
      "iley": 7067,
      "convent": 7068,
      "agues": 7069,
      "brain": 7070,
      "pup": 7071,
      "icit": 7072,
      "populations": 7073,
      "Turk": 7074,
      "ici": 7075,
      "prede": 7076,
      "departure": 7077,
      "Jordan": 7078,
      "widespread": 7079,
      "erald": 7080,
      "recognition": 7081,
      "Hou": 7082,
      "income": 7083,
      "decline": 7084,
      "certified": 7085,
      "scious": 7086,
      "clip": 7087,
      "Pa": 7088,
      "Illinois": 7089,
      "committed": 7090,
      "constitut": 7091,
      "decor": 7092,
      "armor": 7093,
      "acknow": 7094,
      "Throughout": 7095,
      "accused": 7096,
      "Pot": 7097,
      "ynasty": 7098,
      "Douglas": 7099,
      "deleg": 7100,
      "nut": 7101,
      "Isa": 7102,
      "sequel": 7103,
      "Weekly": 7104,
      "derived": 7105,
      "check": 7106,
      "Master": 7107,
      "assumed": 7108,
      "regon": 7109,
      "Media": 7110,
      "Andy": 7111,
      "Pier": 7112,
      "frame": 7113,
      "wearing": 7114,
      "skin": 7115,
      "sam": 7116,
      "citizens": 7117,
      "Card": 7118,
      "agn": 7119,
      "survey": 7120,
      "1959": 7121,
      "Oregon": 7122,
      "Stanley": 7123,
      "iro": 7124,
      "Arsenal": 7125,
      "iven": 7126,
      "segment": 7127,
      "icide": 7128,
      "hosted": 7129,
      "Third": 7130,
      "returns": 7131,
      "valley": 7132,
      "torn": 7133,
      "intelligence": 7134,
      "stands": 7135,
      "DE": 7136,
      "historic": 7137,
      "lose": 7138,
      "denied": 7139,
      "animated": 7140,
      "Recording": 7141,
      "Freder": 7142,
      "Roger": 7143,
      "Cre": 7144,
      "Cas": 7145,
      "Ku": 7146,
      "regional": 7147,
      "Bruce": 7148,
      "iterranean": 7149,
      "parallel": 7150,
      "temple": 7151,
      "Beatles": 7152,
      "Key": 7153,
      "akers": 7154,
      "literary": 7155,
      "Family": 7156,
      "Kevin": 7157,
      "terminus": 7158,
      "Mexican": 7159,
      "1954": 7160,
      "thousands": 7161,
      "Norwegian": 7162,
      "inity": 7163,
      "guil": 7164,
      "altern": 7165,
      "6th": 7166,
      "transition": 7167,
      "1955": 7168,
      "circum": 7169,
      "Mediterranean": 7170,
      "interpret": 7171,
      "supposed": 7172,
      "pled": 7173,
      "graphics": 7174,
      "uni": 7175,
      "wickets": 7176,
      "Bristol": 7177,
      "gets": 7178,
      "Treat": 7179,
      "esh": 7180,
      "Gra": 7181,
      "mosphere": 7182,
      "Alf": 7183,
      "plate": 7184,
      "ione": 7185,
      "Allen": 7186,
      "intr": 7187,
      "fruit": 7188,
      "thedr": 7189,
      "ISBN": 7190,
      "noon": 7191,
      "raise": 7192,
      "proto": 7193,
      "strongly": 7194,
      "aboard": 7195,
      "eman": 7196,
      "Girl": 7197,
      "Ira": 7198,
      "behavior": 7199,
      "circulation": 7200,
      "sailed": 7201,
      "link": 7202,
      "Rain": 7203,
      "16th": 7204,
      "passengers": 7205,
      "Morgan": 7206,
      "convict": 7207,
      "impl": 7208,
      "clubs": 7209,
      "fictional": 7210,
      "thetic": 7211,
      "mates": 7212,
      "prey": 7213,
      "Federal": 7214,
      "emerged": 7215,
      "thirty": 7216,
      "races": 7217,
      "trait": 7218,
      "gers": 7219,
      "conscious": 7220,
      "aced": 7221,
      "tied": 7222,
      "ML": 7223,
      "ologist": 7224,
      "Glo": 7225,
      "commanded": 7226,
      "Bush": 7227,
      "Channel": 7228,
      "establishment": 7229,
      "tex": 7230,
      "Now": 7231,
      "shr": 7232,
      "aran": 7233,
      "neck": 7234,
      "Ali": 7235,
      "address": 7236,
      "magn": 7237,
      "replacement": 7238,
      "begun": 7239,
      "ocked": 7240,
      "costs": 7241,
      "norm": 7242,
      "downtown": 7243,
      "uous": 7244,
      "exception": 7245,
      "operate": 7246,
      "assistance": 7247,
      "conduct": 7248,
      "destruction": 7249,
      "moves": 7250,
      "vary": 7251,
      "instru": 7252,
      "generated": 7253,
      "telling": 7254,
      "emed": 7255,
      "Tenn": 7256,
      "migr": 7257,
      "feeling": 7258,
      "orient": 7259,
      "82": 7260,
      "apart": 7261,
      "atinum": 7262,
      "71": 7263,
      "attributed": 7264,
      "cou": 7265,
      "speaking": 7266,
      "sud": 7267,
      "task": 7268,
      "Forest": 7269,
      "kid": 7270,
      "Within": 7271,
      "Ut": 7272,
      "Korea": 7273,
      "13th": 7274,
      "demol": 7275,
      "finishing": 7276,
      "appearing": 7277,
      "opposite": 7278,
      "stayed": 7279,
      "anned": 7280,
      "driven": 7281,
      "orb": 7282,
      "sight": 7283,
      "Additionally": 7284,
      "Lisa": 7285,
      "unusual": 7286,
      "alleged": 7287,
      "Fame": 7288,
      "Argent": 7289,
      "properties": 7290,
      "dict": 7291,
      "joining": 7292,
      "recovered": 7293,
      "grass": 7294,
      "Dig": 7295,
      "volunte": 7296,
      "Kin": 7297,
      "atmosphere": 7298,
      "1952": 7299,
      "dipl": 7300,
      "cow": 7301,
      "73": 7302,
      "Row": 7303,
      "strateg": 7304,
      "abol": 7305,
      "shif": 7306,
      "occasionally": 7307,
      "Low": 7308,
      "institut": 7309,
      "Color": 7310,
      "chorus": 7311,
      "Confeder": 7312,
      "fighter": 7313,
      "Profess": 7314,
      "EC": 7315,
      "fled": 7316,
      "garrison": 7317,
      "Murray": 7318,
      "Robinson": 7319,
      "Ok": 7320,
      "responsibility": 7321,
      "abled": 7322,
      "effectively": 7323,
      "cavalry": 7324,
      "sounds": 7325,
      "Nich": 7326,
      "completion": 7327,
      "astron": 7328,
      "Prior": 7329,
      "Lenn": 7330,
      "Anne": 7331,
      "Morris": 7332,
      "methods": 7333,
      "atus": 7334,
      "dang": 7335,
      "Ever": 7336,
      "1933": 7337,
      "swim": 7338,
      "Somer": 7339,
      "Similar": 7340,
      "Television": 7341,
      "scrap": 7342,
      "alco": 7343,
      "Around": 7344,
      "Hawai": 7345,
      "84": 7346,
      "Unlike": 7347,
      "materials": 7348,
      "fitted": 7349,
      "Construction": 7350,
      "warning": 7351,
      "demo": 7352,
      "opt": 7353,
      "persu": 7354,
      "ingly": 7355,
      "iller": 7356,
      "girls": 7357,
      "province": 7358,
      "Lyn": 7359,
      "accom": 7360,
      "ords": 7361,
      "classical": 7362,
      "Anton": 7363,
      "surviving": 7364,
      "attracted": 7365,
      "technical": 7366,
      "doub": 7367,
      "global": 7368,
      "column": 7369,
      "erup": 7370,
      "Nelson": 7371,
      "climate": 7372,
      "fear": 7373,
      "poly": 7374,
      "classification": 7375,
      "differences": 7376,
      "quant": 7377,
      "Sweden": 7378,
      "Fish": 7379,
      "Finn": 7380,
      "reform": 7381,
      "sid": 7382,
      "inde": 7383,
      "1935": 7384,
      "Bi": 7385,
      "pure": 7386,
      "rus": 7387,
      "keeping": 7388,
      "Anim": 7389,
      "Patrick": 7390,
      "alph": 7391,
      "select": 7392,
      "association": 7393,
      "Winter": 7394,
      "boys": 7395,
      "passage": 7396,
      "Premier": 7397,
      "mobile": 7398,
      "tie": 7399,
      "uit": 7400,
      "sequently": 7401,
      "bels": 7402,
      "reality": 7403,
      "ratings": 7404,
      "ensure": 7405,
      "neither": 7406,
      "enses": 7407,
      "Fron": 7408,
      "count": 7409,
      "massive": 7410,
      "credit": 7411,
      "Toronto": 7412,
      "code": 7413,
      "concer": 7414,
      "poses": 7415,
      "aza": 7416,
      "reinforce": 7417,
      "1951": 7418,
      "painted": 7419,
      "1949": 7420,
      "Welsh": 7421,
      "Journal": 7422,
      "separated": 7423,
      "Temple": 7424,
      "thy": 7425,
      "desire": 7426,
      "FI": 7427,
      "Mas": 7428,
      "controversi": 7429,
      "outbreak": 7430,
      "weigh": 7431,
      "vehicle": 7432,
      "Nations": 7433,
      "fur": 7434,
      "votes": 7435,
      "seemed": 7436,
      "Byzantine": 7437,
      "Pi": 7438,
      "infe": 7439,
      "oslav": 7440,
      "predecess": 7441,
      "shar": 7442,
      "PS": 7443,
      "picture": 7444,
      "Web": 7445,
      "battleships": 7446,
      "cel": 7447,
      "memory": 7448,
      "tip": 7449,
      "hoped": 7450,
      "requested": 7451,
      "revi": 7452,
      "restored": 7453,
      "movements": 7454,
      "loyd": 7455,
      "soul": 7456,
      "carbon": 7457,
      "historians": 7458,
      "Gill": 7459,
      "Netherlands": 7460,
      "Ak": 7461,
      "Matthew": 7462,
      "basketball": 7463,
      "funding": 7464,
      "Every": 7465,
      "Chron": 7466,
      "scape": 7467,
      "difficulty": 7468,
      "Jam": 7469,
      "cript": 7470,
      "agle": 7471,
      "pir": 7472,
      "convinced": 7473,
      "communities": 7474,
      "fee": 7475,
      "Az": 7476,
      "remember": 7477,
      "uty": 7478,
      "Ford": 7479,
      "Dean": 7480,
      "CR": 7481,
      "thedral": 7482,
      "cos": 7483,
      "programme": 7484,
      "Dri": 7485,
      "ala": 7486,
      "Jews": 7487,
      "map": 7488,
      "premiere": 7489,
      "MI": 7490,
      "delayed": 7491,
      "praise": 7492,
      "Dog": 7493,
      "Open": 7494,
      "dating": 7495,
      "weapon": 7496,
      "discovery": 7497,
      "cloud": 7498,
      "batting": 7499,
      "inspiration": 7500,
      "otherwise": 7501,
      "solution": 7502,
      "greatly": 7503,
      "anniversary": 7504,
      "consult": 7505,
      "Design": 7506,
      "injuries": 7507,
      "anny": 7508,
      "leads": 7509,
      "assem": 7510,
      "ucks": 7511,
      "Again": 7512,
      "boil": 7513,
      "accounts": 7514,
      "Story": 7515,
      "Hero": 7516,
      "spoke": 7517,
      "94": 7518,
      "surrounded": 7519,
      "moral": 7520,
      "penalty": 7521,
      "98": 7522,
      "needs": 7523,
      "Techn": 7524,
      "1900": 7525,
      "bear": 7526,
      "Iraq": 7527,
      "partner": 7528,
      "pattern": 7529,
      "cock": 7530,
      "Russell": 7531,
      "Heart": 7532,
      "oked": 7533,
      "Thomp": 7534,
      "Ey": 7535,
      "ureau": 7536,
      "Bou": 7537,
      "Puer": 7538,
      "Sports": 7539,
      "ige": 7540,
      "Marine": 7541,
      "Sax": 7542,
      "strategy": 7543,
      "Av": 7544,
      "throne": 7545,
      "comparison": 7546,
      "Bishop": 7547,
      "DNA": 7548,
      "Tal": 7549,
      "Oak": 7550,
      "elev": 7551,
      "agree": 7552,
      "vive": 7553,
      "sees": 7554,
      "wrong": 7555,
      "Domin": 7556,
      "Lau": 7557,
      "documentary": 7558,
      "musicians": 7559,
      "architecture": 7560,
      "accompl": 7561,
      "crosses": 7562,
      "learn": 7563,
      "rates": 7564,
      "worst": 7565,
      "umin": 7566,
      "12th": 7567,
      "Pow": 7568,
      "ography": 7569,
      "termine": 7570,
      "Croatian": 7571,
      "Hop": 7572,
      "vince": 7573,
      "Thompson": 7574,
      "category": 7575,
      "rip": 7576,
      "formally": 7577,
      "Bah": 7578,
      "elling": 7579,
      "determine": 7580,
      "involvement": 7581,
      "chairman": 7582,
      "dismissed": 7583,
      "Armen": 7584,
      "NFL": 7585,
      "micro": 7586,
      "Centre": 7587,
      "sale": 7588,
      "ios": 7589,
      "cement": 7590,
      "adaptation": 7591,
      "Last": 7592,
      "MC": 7593,
      "remn": 7594,
      "Carter": 7595,
      "intense": 7596,
      "gross": 7597,
      "infl": 7598,
      "trained": 7599,
      "falling": 7600,
      "Kelly": 7601,
      "quir": 7602,
      "Dick": 7603,
      "Islam": 7604,
      "Puerto": 7605,
      "Shar": 7606,
      "ua": 7607,
      "somewhat": 7608,
      "resources": 7609,
      "Holy": 7610,
      "Brun": 7611,
      "Free": 7612,
      "NBC": 7613,
      "interests": 7614,
      "scheme": 7615,
      "forcing": 7616,
      "colonial": 7617,
      "MP": 7618,
      "medieval": 7619,
      "immediate": 7620,
      "library": 7621,
      "adults": 7622,
      "bond": 7623,
      "presidential": 7624,
      "rhyth": 7625,
      "oty": 7626,
      "pregn": 7627,
      "vul": 7628,
      "sized": 7629,
      "ardian": 7630,
      "tack": 7631,
      "legs": 7632,
      "alien": 7633,
      "Along": 7634,
      "fighters": 7635,
      "techniques": 7636,
      "invent": 7637,
      "lins": 7638,
      "ninth": 7639,
      "profit": 7640,
      "mont": 7641,
      "Niel": 7642,
      "themat": 7643,
      "starred": 7644,
      "academic": 7645,
      "elections": 7646,
      "Bed": 7647,
      "faces": 7648,
      "theat": 7649,
      "9th": 7650,
      "difference": 7651,
      "audio": 7652,
      "frequent": 7653,
      "stro": 7654,
      "modified": 7655,
      "commem": 7656,
      "passenger": 7657,
      "streets": 7658,
      "Hungarian": 7659,
      "Labor": 7660,
      "fold": 7661,
      "falls": 7662,
      "meets": 7663,
      "Hend": 7664,
      "oles": 7665,
      "BI": 7666,
      "1913": 7667,
      "pound": 7668,
      "ugu": 7669,
      "buy": 7670,
      "attacking": 7671,
      "electron": 7672,
      "bron": 7673,
      "reviewer": 7674,
      "Wright": 7675,
      "submarine": 7676,
      "premiered": 7677,
      "83": 7678,
      "bean": 7679,
      "Constitution": 7680,
      "absence": 7681,
      "Thus": 7682,
      "stan": 7683,
      "phr": 7684,
      "observ": 7685,
      "Batman": 7686,
      "controversial": 7687,
      "superior": 7688,
      "margin": 7689,
      "measures": 7690,
      "ava": 7691,
      "favorite": 7692,
      "interior": 7693,
      "engineer": 7694,
      "arrangement": 7695,
      "Parker": 7696,
      "Modern": 7697,
      "porter": 7698,
      "impressed": 7699,
      "Cra": 7700,
      "Hell": 7701,
      "airport": 7702,
      "Build": 7703,
      "deemed": 7704,
      "firing": 7705,
      "Harris": 7706,
      "romantic": 7707,
      "Steven": 7708,
      "Ban": 7709,
      "Pak": 7710,
      "1926": 7711,
      "shut": 7712,
      "landed": 7713,
      "conclusion": 7714,
      "Ath": 7715,
      "renew": 7716,
      "oman": 7717,
      "Bang": 7718,
      "characteristics": 7719,
      "belt": 7720,
      "Benn": 7721,
      "Eric": 7722,
      "facility": 7723,
      "encouraged": 7724,
      "1927": 7725,
      "Berlin": 7726,
      "enters": 7727,
      "unch": 7728,
      "giant": 7729,
      "afterwards": 7730,
      "retirement": 7731,
      "continuing": 7732,
      "Library": 7733,
      "munic": 7734,
      "colony": 7735,
      "talk": 7736,
      "temperatures": 7737,
      "wins": 7738,
      "myster": 7739,
      "convection": 7740,
      "everyone": 7741,
      "biography": 7742,
      "Seven": 7743,
      "1921": 7744,
      "informed": 7745,
      "crete": 7746,
      "suffering": 7747,
      "eggs": 7748,
      "secured": 7749,
      "infr": 7750,
      "legislation": 7751,
      "cha": 7752,
      "1934": 7753,
      "Minn": 7754,
      "ameter": 7755,
      "vac": 7756,
      "cloth": 7757,
      "Education": 7758,
      "horn": 7759,
      "toms": 7760,
      "tenance": 7761,
      "owed": 7762,
      "rome": 7763,
      "styles": 7764,
      "itzer": 7765,
      "wings": 7766,
      "Front": 7767,
      "believes": 7768,
      "distributed": 7769,
      "ipl": 7770,
      "cris": 7771,
      "ceased": 7772,
      "Late": 7773,
      "aux": 7774,
      "attempting": 7775,
      "Houston": 7776,
      "authors": 7777,
      "Police": 7778,
      "Beck": 7779,
      "defended": 7780,
      "iate": 7781,
      "pointed": 7782,
      "standards": 7783,
      "Commander": 7784,
      "rescue": 7785,
      "Cop": 7786,
      "ool": 7787,
      "archae": 7788,
      "ixon": 7789,
      "roit": 7790,
      "Palace": 7791,
      "Dist": 7792,
      "cancer": 7793,
      "facing": 7794,
      "judge": 7795,
      "habitat": 7796,
      "depicted": 7797,
      "apse": 7798,
      "monarch": 7799,
      "curren": 7800,
      "dominated": 7801,
      "900": 7802,
      "1912": 7803,
      "huge": 7804,
      "agas": 7805,
      "anyone": 7806,
      "carrier": 7807,
      "longest": 7808,
      "Wy": 7809,
      "Silver": 7810,
      "Santa": 7811,
      "Var": 7812,
      "acknowled": 7813,
      "asure": 7814,
      "biggest": 7815,
      "Swedish": 7816,
      "ware": 7817,
      "unsuccessful": 7818,
      "representing": 7819,
      "Commonwealth": 7820,
      "dress": 7821,
      "empt": 7822,
      "graphical": 7823,
      "Samuel": 7824,
      "Hospital": 7825,
      "Jacob": 7826,
      "stal": 7827,
      "merged": 7828,
      "Sab": 7829,
      "Vis": 7830,
      "finals": 7831,
      "Bri": 7832,
      "stances": 7833,
      "Simpson": 7834,
      "sudden": 7835,
      "Tok": 7836,
      "Cry": 7837,
      "remix": 7838,
      "ultane": 7839,
      "teor": 7840,
      "Reser": 7841,
      "abinet": 7842,
      "1932": 7843,
      "Yug": 7844,
      "Wis": 7845,
      "toll": 7846,
      "Track": 7847,
      "immigr": 7848,
      "Indians": 7849,
      "Offic": 7850,
      "layer": 7851,
      "comfort": 7852,
      "changing": 7853,
      "RAAF": 7854,
      "Yan": 7855,
      "harmon": 7856,
      "ners": 7857,
      "dimen": 7858,
      "pin": 7859,
      "veter": 7860,
      "releases": 7861,
      "ón": 7862,
      "aire": 7863,
      "convention": 7864,
      "140": 7865,
      "Corporation": 7866,
      "Mot": 7867,
      "uding": 7868,
      "91": 7869,
      "Cru": 7870,
      "Warner": 7871,
      "bridges": 7872,
      "Gard": 7873,
      "adj": 7874,
      "formerly": 7875,
      "beautiful": 7876,
      "93": 7877,
      "Yugoslav": 7878,
      "Jason": 7879,
      "Anthony": 7880,
      "TA": 7881,
      "retreat": 7882,
      "vy": 7883,
      "closer": 7884,
      "deployed": 7885,
      "comed": 7886,
      "moderate": 7887,
      "emergency": 7888,
      "97": 7889,
      "emotional": 7890,
      "Work": 7891,
      "intent": 7892,
      "hypo": 7893,
      "siege": 7894,
      "Raj": 7895,
      "oke": 7896,
      "AI": 7897,
      "questions": 7898,
      "journalist": 7899,
      "Social": 7900,
      "trials": 7901,
      "Wing": 7902,
      "festival": 7903,
      "narrative": 7904,
      "gay": 7905,
      "influential": 7906,
      "RAF": 7907,
      "bone": 7908,
      "Author": 7909,
      "Croatia": 7910,
      "satisf": 7911,
      "Rap": 7912,
      "thel": 7913,
      "Detroit": 7914,
      "Lam": 7915,
      "hunting": 7916,
      "oxy": 7917,
      "mart": 7918,
      "successor": 7919,
      "treated": 7920,
      "novels": 7921,
      "eless": 7922,
      "factory": 7923,
      "encies": 7924,
      "bright": 7925,
      "util": 7926,
      "influences": 7927,
      "Athen": 7928,
      "Gaga": 7929,
      "ugg": 7930,
      "eing": 7931,
      "acent": 7932,
      "1929": 7933,
      "aska": 7934,
      "courts": 7935,
      "suitable": 7936,
      "squad": 7937,
      "printed": 7938,
      "1911": 7939,
      "Anna": 7940,
      "Get": 7941,
      "hanna": 7942,
      "childhood": 7943,
      "assass": 7944,
      "experiences": 7945,
      "excess": 7946,
      "tes": 7947,
      "Chamber": 7948,
      "discussed": 7949,
      "Network": 7950,
      "sor": 7951,
      "170": 7952,
      "handed": 7953,
      "apparently": 7954,
      "Tar": 7955,
      "alcohol": 7956,
      "ocean": 7957,
      "Belg": 7958,
      "Dom": 7959,
      "coins": 7960,
      "instruments": 7961,
      "stab": 7962,
      "hys": 7963,
      "executed": 7964,
      "victims": 7965,
      "watching": 7966,
      "Spears": 7967,
      "graduate": 7968,
      "environmental": 7969,
      "aser": 7970,
      "approval": 7971,
      "diplom": 7972,
      "veget": 7973,
      "irt": 7974,
      "Princess": 7975,
      "Asian": 7976,
      "detail": 7977,
      "insur": 7978,
      "VI": 7979,
      "Staff": 7980,
      "tone": 7981,
      "1931": 7982,
      "flash": 7983,
      "1922": 7984,
      "offices": 7985,
      "factors": 7986,
      "Wol": 7987,
      "inhabit": 7988,
      "coin": 7989,
      "Jesus": 7990,
      "Arn": 7991,
      "loan": 7992,
      "channel": 7993,
      "depos": 7994,
      "Mort": 7995,
      "Nic": 7996,
      "Wat": 7997,
      "Xbox": 7998,
      "tern": 7999,
      "wooden": 8000,
      "Melbourne": 8001,
      "iat": 8002,
      "arked": 8003,
      "15th": 8004,
      "normally": 8005,
      "Nielsen": 8006,
      "Ag": 8007,
      "DC": 8008,
      "Pope": 8009,
      "Win": 8010,
      "igins": 8011,
      "existed": 8012,
      "achment": 8013,
      "skills": 8014,
      "hearing": 8015,
      "Cooper": 8016,
      "Evans": 8017,
      "Clinton": 8018,
      "banks": 8019,
      "Horse": 8020,
      "hundreds": 8021,
      "Ren": 8022,
      "navig": 8023,
      "eller": 8024,
      "reck": 8025,
      "resigned": 8026,
      "Vice": 8027,
      "chain": 8028,
      "exposed": 8029,
      "Ian": 8030,
      "format": 8031,
      "CO": 8032,
      "plus": 8033,
      "Tower": 8034,
      "reveals": 8035,
      "tran": 8036,
      "flew": 8037,
      "spin": 8038,
      "Nevertheless": 8039,
      "chapter": 8040,
      "Da": 8041,
      "Hud": 8042,
      "owa": 8043,
      "Category": 8044,
      "jum": 8045,
      "oli": 8046,
      "disput": 8047,
      "memor": 8048,
      "memorial": 8049,
      "enthus": 8050,
      "understand": 8051,
      "substantial": 8052,
      "relationships": 8053,
      "prevented": 8054,
      "wet": 8055,
      "locom": 8056,
      "testing": 8057,
      "Guy": 8058,
      "drums": 8059,
      "jur": 8060,
      "listing": 8061,
      "Son": 8062,
      "Stewart": 8063,
      "Ol": 8064,
      "preferred": 8065,
      "genetic": 8066,
      "linked": 8067,
      "animation": 8068,
      "eat": 8069,
      "lik": 8070,
      "Thor": 8071,
      "pushed": 8072,
      "chell": 8073,
      "tests": 8074,
      "92": 8075,
      "pete": 8076,
      "Heavy": 8077,
      "chemical": 8078,
      "skill": 8079,
      "footage": 8080,
      "languages": 8081,
      "happened": 8082,
      "opponents": 8083,
      "thereafter": 8084,
      "reportedly": 8085,
      "hatt": 8086,
      "resign": 8087,
      "correct": 8088,
      "Mars": 8089,
      "seek": 8090,
      "iliar": 8091,
      "politan": 8092,
      "thousand": 8093,
      "Cel": 8094,
      "stance": 8095,
      "imens": 8096,
      "alo": 8097,
      "Turkish": 8098,
      "device": 8099,
      "liqu": 8100,
      "notably": 8101,
      "grav": 8102,
      "Alb": 8103,
      "wheel": 8104,
      "Bulgar": 8105,
      "TO": 8106,
      "Lennon": 8107,
      "driver": 8108,
      "visitors": 8109,
      "Lane": 8110,
      "guide": 8111,
      "Stock": 8112,
      "agents": 8113,
      "Sarah": 8114,
      "deter": 8115,
      "icians": 8116,
      "Real": 8117,
      "employees": 8118,
      "Baltim": 8119,
      "Gib": 8120,
      "arring": 8121,
      "Greece": 8122,
      "Austria": 8123,
      "Baltimore": 8124,
      "calcul": 8125,
      "Gam": 8126,
      "grown": 8127,
      "accompany": 8128,
      "factor": 8129,
      "extin": 8130,
      "Express": 8131,
      "Queens": 8132,
      "Albums": 8133,
      "commemor": 8134,
      "lists": 8135,
      "Dur": 8136,
      "interpre": 8137,
      "departed": 8138,
      "participate": 8139,
      "helm": 8140,
      "Carib": 8141,
      "favorable": 8142,
      "poetry": 8143,
      "Budd": 8144,
      "gang": 8145,
      "dialogue": 8146,
      "usal": 8147,
      "mac": 8148,
      "teeth": 8149,
      "icon": 8150,
      "extent": 8151,
      "detailed": 8152,
      "mam": 8153,
      "imprison": 8154,
      "learning": 8155,
      "Colorado": 8156,
      "Organ": 8157,
      "Writing": 8158,
      "Sulli": 8159,
      "universe": 8160,
      "instance": 8161,
      "residential": 8162,
      "mention": 8163,
      "periods": 8164,
      "familiar": 8165,
      "picked": 8166,
      "draf": 8167,
      "Conne": 8168,
      "ee": 8169,
      "Malays": 8170,
      "covering": 8171,
      "Initially": 8172,
      "vals": 8173,
      "oster": 8174,
      "powered": 8175,
      "Marshall": 8176,
      "endment": 8177,
      "Dave": 8178,
      "Foundation": 8179,
      "Bird": 8180,
      "Hand": 8181,
      "Raw": 8182,
      "apprec": 8183,
      "evil": 8184,
      "afternoon": 8185,
      "AL": 8186,
      "dens": 8187,
      "taught": 8188,
      "Sullivan": 8189,
      "easy": 8190,
      "talent": 8191,
      "Lim": 8192,
      "10th": 8193,
      "lon": 8194,
      "territories": 8195,
      "Frederick": 8196,
      "Somerset": 8197,
      "Player": 8198,
      "videos": 8199,
      "reviewers": 8200,
      "Ark": 8201,
      "Baby": 8202,
      "criminal": 8203,
      "balance": 8204,
      "cad": 8205,
      "Wrestling": 8206,
      "1928": 8207,
      "14th": 8208,
      "3D": 8209,
      "Having": 8210,
      "Mario": 8211,
      "Gilbert": 8212,
      "EP": 8213,
      "obl": 8214,
      "negotiations": 8215,
      "diameter": 8216,
      "osaurus": 8217,
      "isolated": 8218,
      "creative": 8219,
      "Lev": 8220,
      "iling": 8221,
      "brick": 8222,
      "Marg": 8223,
      "prep": 8224,
      "ethnic": 8225,
      "Univers": 8226,
      "behavi": 8227,
      "tub": 8228,
      "encountered": 8229,
      "sleep": 8230,
      "1925": 8231,
      "Release": 8232,
      "goods": 8233,
      "dangerous": 8234,
      "lined": 8235,
      "covers": 8236,
      "nations": 8237,
      "iva": 8238,
      "withdrew": 8239,
      "founder": 8240,
      "technique": 8241,
      "divers": 8242,
      "lla": 8243,
      "gene": 8244,
      "Rick": 8245,
      "athers": 8246,
      "simultane": 8247,
      "bases": 8248,
      "junior": 8249,
      "iner": 8250,
      "icy": 8251,
      "embr": 8252,
      "scholars": 8253,
      "Know": 8254,
      "upgraded": 8255,
      "portions": 8256,
      "Anglo": 8257,
      "Giants": 8258,
      "Clar": 8259,
      "engineering": 8260,
      "Philipp": 8261,
      "iest": 8262,
      "aria": 8263,
      "occupation": 8264,
      "specimens": 8265,
      "satell": 8266,
      "Miami": 8267,
      "organizations": 8268,
      "pounds": 8269,
      "medium": 8270,
      "Seattle": 8271,
      "Horn": 8272,
      "excell": 8273,
      "lowest": 8274,
      "loop": 8275,
      "Guard": 8276,
      "carto": 8277,
      "icop": 8278,
      "cong": 8279,
      "1924": 8280,
      "partly": 8281,
      "Edge": 8282,
      "ongo": 8283,
      "indicate": 8284,
      "spending": 8285,
      "expression": 8286,
      "fined": 8287,
      "Championships": 8288,
      "crisis": 8289,
      "soft": 8290,
      "Soon": 8291,
      "irs": 8292,
      "prohib": 8293,
      "Nev": 8294,
      "etime": 8295,
      "traveled": 8296,
      "ipe": 8297,
      "whereas": 8298,
      "window": 8299,
      "orous": 8300,
      "proced": 8301,
      "partially": 8302,
      "doctor": 8303,
      "designer": 8304,
      "rarely": 8305,
      "oking": 8306,
      "refers": 8307,
      "collect": 8308,
      "doesn": 8309,
      "turrets": 8310,
      "Ay": 8311,
      "1920s": 8312,
      "weekend": 8313,
      "Treaty": 8314,
      "Iowa": 8315,
      "raising": 8316,
      "bellion": 8317,
      "platinum": 8318,
      "intercept": 8319,
      "Trek": 8320,
      "compete": 8321,
      "finale": 8322,
      "criticised": 8323,
      "Nichol": 8324,
      "Alab": 8325,
      "hen": 8326,
      "permission": 8327,
      "pole": 8328,
      "advice": 8329,
      "icine": 8330,
      "deser": 8331,
      "maintenance": 8332,
      "Human": 8333,
      "teacher": 8334,
      "truth": 8335,
      "uncertain": 8336,
      "ranking": 8337,
      "difficulties": 8338,
      "absor": 8339,
      "mainstream": 8340,
      "employment": 8341,
      "pse": 8342,
      "policies": 8343,
      "Alabama": 8344,
      "personality": 8345,
      "friendly": 8346,
      "ordinary": 8347,
      "stick": 8348,
      "spher": 8349,
      "Forces": 8350,
      "representative": 8351,
      "cott": 8352,
      "earning": 8353,
      "recordings": 8354,
      "pitched": 8355,
      "Missou": 8356,
      "uscript": 8357,
      "Caribbean": 8358,
      "comments": 8359,
      "closing": 8360,
      "remove": 8361,
      "Lan": 8362,
      "USS": 8363,
      "refuge": 8364,
      "understanding": 8365,
      "Country": 8366,
      "marry": 8367,
      "jack": 8368,
      "oftw": 8369,
      "Lawrence": 8370,
      "Mississ": 8371,
      "orbit": 8372,
      "recur": 8373,
      "locomot": 8374,
      "concerts": 8375,
      "scr": 8376,
      "Canal": 8377,
      "Napole": 8378,
      "seats": 8379,
      "windows": 8380,
      "drawing": 8381,
      "ilst": 8382,
      "1923": 8383,
      "Charlie": 8384,
      "ventures": 8385,
      "aggress": 8386,
      "sop": 8387,
      "km2": 8388,
      "attered": 8389,
      "shear": 8390,
      "honour": 8391,
      "Hindu": 8392,
      "Minnes": 8393,
      "tap": 8394,
      "zes": 8395,
      "uster": 8396,
      "prompted": 8397,
      "housing": 8398,
      "divor": 8399,
      "perspect": 8400,
      "patch": 8401,
      "Then": 8402,
      "Senator": 8403,
      "8th": 8404,
      "vors": 8405,
      "monument": 8406,
      "gery": 8407,
      "tenth": 8408,
      "fishing": 8409,
      "dynam": 8410,
      "ende": 8411,
      "Hamp": 8412,
      "WC": 8413,
      "describe": 8414,
      "Crown": 8415,
      "Hip": 8416,
      "hockey": 8417,
      "tag": 8418,
      "poison": 8419,
      "bay": 8420,
      "Ministry": 8421,
      "destroyers": 8422,
      "communication": 8423,
      "Buff": 8424,
      "bombers": 8425,
      "Roc": 8426,
      "minimum": 8427,
      "examples": 8428,
      "nationally": 8429,
      "Garden": 8430,
      "hat": 8431,
      "churches": 8432,
      "neighborhood": 8433,
      "string": 8434,
      "patron": 8435,
      "Grammy": 8436,
      "Hungary": 8437,
      "false": 8438,
      "Dance": 8439,
      "anton": 8440,
      "Stud": 8441,
      "corpor": 8442,
      "violent": 8443,
      "Nazi": 8444,
      "Health": 8445,
      "travelled": 8446,
      "11th": 8447,
      "explo": 8448,
      "expensive": 8449,
      "dynasty": 8450,
      "adjacent": 8451,
      "Banks": 8452,
      "cular": 8453,
      "soil": 8454,
      "USD": 8455,
      "inaug": 8456,
      "celer": 8457,
      "credits": 8458,
      "displayed": 8459,
      "mines": 8460,
      "predict": 8461,
      "Benj": 8462,
      "oftware": 8463,
      "Bros": 8464,
      "shall": 8465,
      "restrict": 8466,
      "Australians": 8467,
      "vies": 8468,
      "olis": 8469,
      "Polit": 8470,
      "Belgium": 8471,
      "Flight": 8472,
      "creator": 8473,
      "benefit": 8474,
      "Shakes": 8475,
      "Return": 8476,
      "dale": 8477,
      "garden": 8478,
      "forests": 8479,
      "earn": 8480,
      "tribute": 8481,
      "collapse": 8482,
      "Diego": 8483,
      "partnership": 8484,
      "LC": 8485,
      "protagonist": 8486,
      "vić": 8487,
      "values": 8488,
      "appropriate": 8489,
      "scientists": 8490,
      "inno": 8491,
      "option": 8492,
      "Medal": 8493,
      "Shakespe": 8494,
      "Event": 8495,
      "moments": 8496,
      "hid": 8497,
      "Ass": 8498,
      "designation": 8499,
      "possession": 8500,
      "grees": 8501,
      "interesting": 8502,
      "Township": 8503,
      "alions": 8504,
      "nur": 8505,
      "lift": 8506,
      "naissance": 8507,
      "solute": 8508,
      "Children": 8509,
      "catal": 8510,
      "Represent": 8511,
      "villages": 8512,
      "Guardian": 8513,
      "Ni": 8514,
      "orph": 8515,
      "fung": 8516,
      "radar": 8517,
      "cope": 8518,
      "incent": 8519,
      "instrumental": 8520,
      "restricted": 8521,
      "velt": 8522,
      "dollars": 8523,
      "1905": 8524,
      "treaty": 8525,
      "Call": 8526,
      "forth": 8527,
      "nee": 8528,
      "1908": 8529,
      "itim": 8530,
      "justice": 8531,
      "Christopher": 8532,
      "rell": 8533,
      "tox": 8534,
      "rounds": 8535,
      "Cho": 8536,
      "survive": 8537,
      "victories": 8538,
      "eliminated": 8539,
      "paintings": 8540,
      "Tan": 8541,
      "priest": 8542,
      "Legacy": 8543,
      "autom": 8544,
      "21st": 8545,
      "mature": 8546,
      "1909": 8547,
      "Roose": 8548,
      "minimal": 8549,
      "Cold": 8550,
      "Cred": 8551,
      "precip": 8552,
      "namese": 8553,
      "Vietnamese": 8554,
      "elsewhere": 8555,
      "Hockey": 8556,
      "newspapers": 8557,
      "waves": 8558,
      "surprise": 8559,
      "Has": 8560,
      "anium": 8561,
      "jection": 8562,
      "seeking": 8563,
      "wine": 8564,
      "encing": 8565,
      "Review": 8566,
      "arriving": 8567,
      "numbered": 8568,
      "armament": 8569,
      "Apple": 8570,
      "purposes": 8571,
      "helping": 8572,
      "amph": 8573,
      "logy": 8574,
      "Por": 8575,
      "suicide": 8576,
      "Hills": 8577,
      "Minnesota": 8578,
      "dispute": 8579,
      "Benjamin": 8580,
      "categ": 8581,
      "bin": 8582,
      "cot": 8583,
      "unlike": 8584,
      "Dead": 8585,
      "occasions": 8586,
      "cous": 8587,
      "Khan": 8588,
      "Alfred": 8589,
      "aya": 8590,
      "smooth": 8591,
      "allies": 8592,
      "oren": 8593,
      "Walker": 8594,
      "rupted": 8595,
      "het": 8596,
      "legend": 8597,
      "Manhatt": 8598,
      "orious": 8599,
      "oms": 8600,
      "manuscript": 8601,
      "Manhattan": 8602,
      "AS": 8603,
      "Interstate": 8604,
      "parent": 8605,
      "struggle": 8606,
      "recre": 8607,
      "cryst": 8608,
      "munition": 8609,
      "aws": 8610,
      "coordin": 8611,
      "mayor": 8612,
      "Franklin": 8613,
      "lov": 8614,
      "preserved": 8615,
      "Trust": 8616,
      "degrees": 8617,
      "professor": 8618,
      "Roosevelt": 8619,
      "RO": 8620,
      "bath": 8621,
      "mental": 8622,
      "schedule": 8623,
      "Fel": 8624,
      "boards": 8625,
      "imeter": 8626,
      "lah": 8627,
      "assisted": 8628,
      "tight": 8629,
      "Administr": 8630,
      "intensified": 8631,
      "amounts": 8632,
      "Hans": 8633,
      "Kurt": 8634,
      "competed": 8635,
      "oz": 8636,
      "1907": 8637,
      "traits": 8638,
      "Peninsula": 8639,
      "publicly": 8640,
      "neighbour": 8641,
      "alignment": 8642,
      "atherine": 8643,
      "resumed": 8644,
      "emperor": 8645,
      "candidates": 8646,
      "god": 8647,
      "functions": 8648,
      "Cher": 8649,
      "electronic": 8650,
      "jan": 8651,
      "shi": 8652,
      "pilots": 8653,
      "wedding": 8654,
      "Kansas": 8655,
      "survivors": 8656,
      "prove": 8657,
      "Industry": 8658,
      "oxygen": 8659,
      "concrete": 8660,
      "qualified": 8661,
      "neutral": 8662,
      "citing": 8663,
      "clar": 8664,
      "angel": 8665,
      "Mississip": 8666,
      "tested": 8667,
      "Satur": 8668,
      "asking": 8669,
      "impossible": 8670,
      "ayer": 8671,
      "organised": 8672,
      "vit": 8673,
      "Portland": 8674,
      "hur": 8675,
      "teaching": 8676,
      "ishment": 8677,
      "argument": 8678,
      "sher": 8679,
      "Much": 8680,
      "Race": 8681,
      "backing": 8682,
      "defeating": 8683,
      "advoc": 8684,
      "wrest": 8685,
      "meter": 8686,
      "oen": 8687,
      "helicop": 8688,
      "ensu": 8689,
      "sung": 8690,
      "Cole": 8691,
      "Ta": 8692,
      "remark": 8693,
      "assists": 8694,
      "rede": 8695,
      "Building": 8696,
      "foundation": 8697,
      "Nash": 8698,
      "uto": 8699,
      "Hotel": 8700,
      "constitutional": 8701,
      "prosecut": 8702,
      "tomb": 8703,
      "acle": 8704,
      "anne": 8705,
      "sevent": 8706,
      "Shel": 8707,
      "opponent": 8708,
      "backs": 8709,
      "legitim": 8710,
      "Digital": 8711,
      "Hong": 8712,
      "elabor": 8713,
      "diet": 8714,
      "Campbell": 8715,
      "agricultural": 8716,
      "businesses": 8717,
      "consistent": 8718,
      "owing": 8719,
      "ounced": 8720,
      "submitted": 8721,
      "switch": 8722,
      "VII": 8723,
      "lights": 8724,
      "stones": 8725,
      "signing": 8726,
      "Born": 8727,
      "Gate": 8728,
      "Lith": 8729,
      "beaten": 8730,
      "gap": 8731,
      "voiced": 8732,
      "Py": 8733,
      "cod": 8734,
      "sunk": 8735,
      "household": 8736,
      "discipl": 8737,
      "fifteen": 8738,
      "Fried": 8739,
      "signs": 8740,
      "dense": 8741,
      "symptoms": 8742,
      "Nik": 8743,
      "Dal": 8744,
      "behalf": 8745,
      "hull": 8746,
      "affili": 8747,
      "gor": 8748,
      "pm": 8749,
      "rows": 8750,
      "pron": 8751,
      "percentage": 8752,
      "Area": 8753,
      "Shakespeare": 8754,
      "ache": 8755,
      "utter": 8756,
      "incial": 8757,
      "Tennes": 8758,
      "Native": 8759,
      "spiritual": 8760,
      "Whe": 8761,
      "Halo": 8762,
      "Dol": 8763,
      "Ti": 8764,
      "registered": 8765,
      "parish": 8766,
      "Blues": 8767,
      "situated": 8768,
      "Imp": 8769,
      "ila": 8770,
      "forty": 8771,
      "miss": 8772,
      "subjects": 8773,
      "Set": 8774,
      "sank": 8775,
      "illness": 8776,
      "racing": 8777,
      "elder": 8778,
      "rug": 8779,
      "Descri": 8780,
      "Buck": 8781,
      "railroad": 8782,
      "ammunition": 8783,
      "Contro": 8784,
      "organisation": 8785,
      "Rober": 8786,
      "Athlet": 8787,
      "Alexand": 8788,
      "tornado": 8789,
      "Margaret": 8790,
      "repairs": 8791,
      "gard": 8792,
      "recognised": 8793,
      "resolution": 8794,
      "chron": 8795,
      "Inc": 8796,
      "flights": 8797,
      "rant": 8798,
      "pler": 8799,
      "conventional": 8800,
      "Ship": 8801,
      "itt": 8802,
      "shells": 8803,
      "onymous": 8804,
      "Kings": 8805,
      "disaster": 8806,
      "esis": 8807,
      "imperial": 8808,
      "entertain": 8809,
      "collaboration": 8810,
      "attendance": 8811,
      "grey": 8812,
      "worn": 8813,
      "Lucas": 8814,
      "lieutenant": 8815,
      "restaurant": 8816,
      "audiences": 8817,
      "Egyptian": 8818,
      "sacrif": 8819,
      "feelings": 8820,
      "underground": 8821,
      "itated": 8822,
      "Guide": 8823,
      "deliber": 8824,
      "atically": 8825,
      "affairs": 8826,
      "suspended": 8827,
      "uro": 8828,
      "rolled": 8829,
      "terror": 8830,
      "Mississippi": 8831,
      "Box": 8832,
      "Tennessee": 8833,
      "360": 8834,
      "tot": 8835,
      "exit": 8836,
      "flank": 8837,
      "initi": 8838,
      "Ward": 8839,
      "worship": 8840,
      "fires": 8841,
      "threw": 8842,
      "eties": 8843,
      "amps": 8844,
      "targets": 8845,
      "earthqu": 8846,
      "pace": 8847,
      "1906": 8848,
      "NO": 8849,
      "Louisiana": 8850,
      "iples": 8851,
      "thinking": 8852,
      "funeral": 8853,
      "affair": 8854,
      "Montreal": 8855,
      "andal": 8856,
      "loved": 8857,
      "aimed": 8858,
      "measured": 8859,
      "seed": 8860,
      "odge": 8861,
      "operational": 8862,
      "poorly": 8863,
      "Historic": 8864,
      "Rang": 8865,
      "1904": 8866,
      "shield": 8867,
      "compilation": 8868,
      "inners": 8869,
      "documents": 8870,
      "Depression": 8871,
      "Palest": 8872,
      "Missouri": 8873,
      "Dest": 8874,
      "Labour": 8875,
      "filed": 8876,
      "ij": 8877,
      "eros": 8878,
      "lob": 8879,
      "Warren": 8880,
      "represents": 8881,
      "ingham": 8882,
      "queen": 8883,
      "Season": 8884,
      "Critics": 8885,
      "Lad": 8886,
      "stell": 8887,
      "delay": 8888,
      "circle": 8889,
      "Philippines": 8890,
      "statue": 8891,
      "eme": 8892,
      "Pad": 8893,
      "fat": 8894,
      "netic": 8895,
      "temporarily": 8896,
      "lanes": 8897,
      "overe": 8898,
      "Mitchell": 8899,
      "OS": 8900,
      "explosion": 8901,
      "alliance": 8902,
      "keeper": 8903,
      "gry": 8904,
      "Program": 8905,
      "Billy": 8906,
      "Kal": 8907,
      "entertainment": 8908,
      "armored": 8909,
      "offering": 8910,
      "hem": 8911,
      "sector": 8912,
      "crews": 8913,
      "Fal": 8914,
      "nucle": 8915,
      "Nine": 8916,
      "tension": 8917,
      "replacing": 8918,
      "trend": 8919,
      "meat": 8920,
      "wore": 8921,
      "rial": 8922,
      "plain": 8923,
      "scription": 8924,
      "fifty": 8925,
      "Mach": 8926,
      "UE": 8927,
      "diver": 8928,
      "mers": 8929,
      "onomy": 8930,
      "Tel": 8931,
      "ders": 8932,
      "Beg": 8933,
      "administrative": 8934,
      "AT": 8935,
      "Cze": 8936,
      "zona": 8937,
      "eline": 8938,
      "hole": 8939,
      "Mack": 8940,
      "residence": 8941,
      "inea": 8942,
      "engagement": 8943,
      "preparation": 8944,
      "Fem": 8945,
      "Ultim": 8946,
      "ori": 8947,
      "Dragon": 8948,
      "Independent": 8949,
      "Graham": 8950,
      "roots": 8951,
      "ateur": 8952,
      "Small": 8953,
      "reflected": 8954,
      "feud": 8955,
      "venues": 8956,
      "CS": 8957,
      "touring": 8958,
      "reluct": 8959,
      "restoration": 8960,
      "rod": 8961,
      "prime": 8962,
      "charter": 8963,
      "Report": 8964,
      "igs": 8965,
      "agen": 8966,
      "fatal": 8967,
      "oes": 8968,
      "Business": 8969,
      "surge": 8970,
      "Jos": 8971,
      "Luc": 8972,
      "collaps": 8973,
      "rivers": 8974,
      "exh": 8975,
      "Czech": 8976,
      "completing": 8977,
      "amongst": 8978,
      "Michel": 8979,
      "Wes": 8980,
      "inland": 8981,
      "rebuilt": 8982,
      "Tag": 8983,
      "suggesting": 8984,
      "remin": 8985,
      "conservative": 8986,
      "lemur": 8987,
      "igen": 8988,
      "Shaw": 8989,
      "tribes": 8990,
      "cancelled": 8991,
      "diction": 8992,
      "directors": 8993,
      "horror": 8994,
      "squ": 8995,
      "diagn": 8996,
      "coverage": 8997,
      "Cuba": 8998,
      "cture": 8999,
      "recommend": 9000,
      "rh": 9001,
      "looks": 9002,
      "wasn": 9003,
      "pulled": 9004,
      "dramatic": 9005,
      "Tot": 9006,
      "decides": 9007,
      "circuit": 9008,
      "escaped": 9009,
      "blocks": 9010,
      "wonder": 9011,
      "fallen": 9012,
      "altered": 9013,
      "warn": 9014,
      "stores": 9015,
      "ribute": 9016,
      "Works": 9017,
      "ownership": 9018,
      "arrier": 9019,
      "stretch": 9020,
      "Ridge": 9021,
      "frig": 9022,
      "lacked": 9023,
      "distinguished": 9024,
      "fixed": 9025,
      "Cook": 9026,
      "tellect": 9027,
      "geo": 9028,
      "mining": 9029,
      "mountains": 9030,
      "Ped": 9031,
      "clearly": 9032,
      "bombard": 9033,
      "Ring": 9034,
      "Phoen": 9035,
      "patterns": 9036,
      "argues": 9037,
      "predomin": 9038,
      "overeign": 9039,
      "Files": 9040,
      "adequ": 9041,
      "steps": 9042,
      "dish": 9043,
      "patrol": 9044,
      "Cow": 9045,
      "Dw": 9046,
      "cargo": 9047,
      "Tamil": 9048,
      "altar": 9049,
      "femin": 9050,
      "Persian": 9051,
      "Mes": 9052,
      "wicket": 9053,
      "Arizona": 9054,
      "saved": 9055,
      "artney": 9056,
      "faster": 9057,
      "perspective": 9058,
      "characterized": 9059,
      "colonies": 9060,
      "eron": 9061,
      "Indies": 9062,
      "Maur": 9063,
      "rix": 9064,
      "maneu": 9065,
      "drove": 9066,
      "artistic": 9067,
      "Snow": 9068,
      "punk": 9069,
      "contributions": 9070,
      "Saturday": 9071,
      "Sony": 9072,
      "oxide": 9073,
      "mathemat": 9074,
      "valid": 9075,
      "spoken": 9076,
      "merchant": 9077,
      "Bureau": 9078,
      "ais": 9079,
      "fastest": 9080,
      "playoffs": 9081,
      "riders": 9082,
      "Grey": 9083,
      "Dylan": 9084,
      "remnants": 9085,
      "shock": 9086,
      "icken": 9087,
      "athy": 9088,
      "absolute": 9089,
      "clock": 9090,
      "Scout": 9091,
      "idency": 9092,
      "Josh": 9093,
      "boundary": 9094,
      "explain": 9095,
      "hosts": 9096,
      "Swe": 9097,
      "dia": 9098,
      "rising": 9099,
      "severely": 9100,
      "urally": 9101,
      "spend": 9102,
      "Marie": 9103,
      "ranging": 9104,
      "militia": 9105,
      "institutions": 9106,
      "hu": 9107,
      "twin": 9108,
      "phe": 9109,
      "rever": 9110,
      "notice": 9111,
      "badly": 9112,
      "serial": 9113,
      "excav": 9114,
      "Denn": 9115,
      "depending": 9116,
      "chapel": 9117,
      "retail": 9118,
      "Confederate": 9119,
      "ranks": 9120,
      "wait": 9121,
      "distinctive": 9122,
      "strict": 9123,
      "bowling": 9124,
      "explains": 9125,
      "crest": 9126,
      "hears": 9127,
      "ideal": 9128,
      "turb": 9129,
      "bronze": 9130,
      "jazz": 9131,
      "Oklah": 9132,
      "xture": 9133,
      "demonstrated": 9134,
      "bulk": 9135,
      "closure": 9136,
      "inations": 9137,
      "condem": 9138,
      "lips": 9139,
      "practices": 9140,
      "poems": 9141,
      "Barbar": 9142,
      "tz": 9143,
      "controls": 9144,
      "inhabitants": 9145,
      "Nar": 9146,
      "context": 9147,
      "arrive": 9148,
      "chamber": 9149,
      "abund": 9150,
      "Switzer": 9151,
      "flagship": 9152,
      "Murphy": 9153,
      "wants": 9154,
      "agency": 9155,
      "Mrs": 9156,
      "theater": 9157,
      "Harvey": 9158,
      "waiting": 9159,
      "ABC": 9160,
      "visiting": 9161,
      "Switzerland": 9162,
      "boss": 9163,
      "wider": 9164,
      "itter": 9165,
      "obvious": 9166,
      "evolved": 9167,
      "articles": 9168,
      "baby": 9169,
      "Aff": 9170,
      "tha": 9171,
      "dominant": 9172,
      "spotted": 9173,
      "sisters": 9174,
      "Mess": 9175,
      "reaches": 9176,
      "application": 9177,
      "Ye": 9178,
      "Econom": 9179,
      "Sin": 9180,
      "shad": 9181,
      "Broadway": 9182,
      "Liz": 9183,
      "yield": 9184,
      "yd": 9185,
      "placing": 9186,
      "northward": 9187,
      "vulner": 9188,
      "rub": 9189,
      "vast": 9190,
      "adi": 9191,
      "ighth": 9192,
      "mphony": 9193,
      "acceler": 9194,
      "lia": 9195,
      "surgery": 9196,
      "Barry": 9197,
      "1901": 9198,
      "Chand": 9199,
      "synd": 9200,
      "Len": 9201,
      "Shad": 9202,
      "fortun": 9203,
      "elig": 9204,
      "satellite": 9205,
      "dee": 9206,
      "Cycl": 9207,
      "Oklahoma": 9208,
      "Bron": 9209,
      "Ga": 9210,
      "protein": 9211,
      "exhibition": 9212,
      "subspecies": 9213,
      "Austrian": 9214,
      "Las": 9215,
      "helps": 9216,
      "nominations": 9217,
      "beam": 9218,
      "altit": 9219,
      "predicted": 9220,
      "Federation": 9221,
      "rescu": 9222,
      "Kirk": 9223,
      "households": 9224,
      "prepare": 9225,
      "Mik": 9226,
      "Such": 9227,
      "adventure": 9228,
      "heading": 9229,
      "ruption": 9230,
      "palace": 9231,
      "Mode": 9232,
      "enger": 9233,
      "Amy": 9234,
      "Cer": 9235,
      "08": 9236,
      "Gab": 9237,
      "impression": 9238,
      "Delaware": 9239,
      "storage": 9240,
      "slaves": 9241,
      "attained": 9242,
      "1902": 9243,
      "Gary": 9244,
      "ffect": 9245,
      "apy": 9246,
      "motiv": 9247,
      "vs": 9248,
      "vine": 9249,
      "1903": 9250,
      "carriers": 9251,
      "oga": 9252,
      "engage": 9253,
      "kees": 9254,
      "Lithuan": 9255,
      "hl": 9256,
      "tent": 9257,
      "HD": 9258,
      "Original": 9259,
      "essential": 9260,
      "span": 9261,
      "aks": 9262,
      "repeatedly": 9263,
      "intellect": 9264,
      "predecessor": 9265,
      "sper": 9266,
      "Leslie": 9267,
      "NS": 9268,
      "Perry": 9269,
      "Hem": 9270,
      "UC": 9271,
      "vens": 9272,
      "peaking": 9273,
      "Sn": 9274,
      "signal": 9275,
      "Morr": 9276,
      "philosophy": 9277,
      "descend": 9278,
      "pretty": 9279,
      "vertical": 9280,
      "mistry": 9281,
      "excellent": 9282,
      "striking": 9283,
      "bombing": 9284,
      "Fif": 9285,
      "matters": 9286,
      "Originally": 9287,
      "Flo": 9288,
      "remarked": 9289,
      "ić": 9290,
      "frustr": 9291,
      "ée": 9292,
      "illegal": 9293,
      "perceived": 9294,
      "choose": 9295,
      "seriously": 9296,
      "convers": 9297,
      "Juan": 9298,
      "faction": 9299,
      "bard": 9300,
      "Denmark": 9301,
      "Rico": 9302,
      "apartment": 9303,
      "westward": 9304,
      "pension": 9305,
      "Jonathan": 9306,
      "Won": 9307,
      "mund": 9308,
      "Tokyo": 9309,
      "cliff": 9310,
      "useful": 9311,
      "circumstances": 9312,
      "Players": 9313,
      "ci": 9314,
      "impress": 9315,
      "ulating": 9316,
      "Atlanta": 9317,
      "Baseball": 9318,
      "aqu": 9319,
      "alive": 9320,
      "meetings": 9321,
      "drugs": 9322,
      "Rihanna": 9323,
      "battalions": 9324,
      "harm": 9325,
      "conspir": 9326,
      "ogan": 9327,
      "Joh": 9328,
      "proxim": 9329,
      "sket": 9330,
      "sick": 9331,
      "musician": 9332,
      "planets": 9333,
      "inals": 9334,
      "backed": 9335,
      "readers": 9336,
      "Nixon": 9337,
      "RS": 9338,
      "civilian": 9339,
      "09": 9340,
      "Johnny": 9341,
      "whilst": 9342,
      "armour": 9343,
      "Barr": 9344,
      "Lex": 9345,
      "Ton": 9346,
      "chi": 9347,
      "expo": 9348,
      "angular": 9349,
      "juris": 9350,
      "quiet": 9351,
      "strengthened": 9352,
      "reconnaissance": 9353,
      "RP": 9354,
      "leaf": 9355,
      "Territ": 9356,
      "Campaign": 9357,
      "Hub": 9358,
      "democr": 9359,
      "Abbey": 9360,
      "posit": 9361,
      "izon": 9362,
      "similarly": 9363,
      "lord": 9364,
      "retain": 9365,
      "Bernard": 9366,
      "simultaneously": 9367,
      "Edwards": 9368,
      "bones": 9369,
      "acou": 9370,
      "clin": 9371,
      "legacy": 9372,
      "triple": 9373,
      "Spot": 9374,
      "alternate": 9375,
      "pressing": 9376,
      "demanded": 9377,
      "typhoon": 9378,
      "Gray": 9379,
      "definite": 9380,
      "urer": 9381,
      "apolis": 9382,
      "retre": 9383,
      "placement": 9384,
      "Wilhelm": 9385,
      "mingham": 9386,
      "Pitts": 9387,
      "Arnold": 9388,
      "panel": 9389,
      "accurate": 9390,
      "connect": 9391,
      "assembled": 9392,
      "115": 9393,
      "rine": 9394,
      "enlisted": 9395,
      "shift": 9396,
      "coat": 9397,
      "insisted": 9398,
      "RI": 9399,
      "dancing": 9400,
      "pages": 9401,
      "citizen": 9402,
      "jury": 9403,
      "overw": 9404,
      "promised": 9405,
      "iences": 9406,
      "shipping": 9407,
      "marketing": 9408,
      "rebound": 9409,
      "Brig": 9410,
      "Jimmy": 9411,
      "behaviour": 9412,
      "partial": 9413,
      "revenue": 9414,
      "texts": 9415,
      "console": 9416,
      "aph": 9417,
      "Madagas": 9418,
      "bombs": 9419,
      "Keith": 9420,
      "demands": 9421,
      "gau": 9422,
      "estyle": 9423,
      "cia": 9424,
      "compass": 9425,
      "subsid": 9426,
      "personally": 9427,
      "Prize": 9428,
      "athletes": 9429,
      "continental": 9430,
      "ruling": 9431,
      "Iran": 9432,
      "drivers": 9433,
      "stim": 9434,
      "itted": 9435,
      "cury": 9436,
      "extend": 9437,
      "petition": 9438,
      "dubbed": 9439,
      "Less": 9440,
      "mant": 9441,
      "Internet": 9442,
      "definition": 9443,
      "struggled": 9444,
      "Gy": 9445,
      "Wolf": 9446,
      "mainland": 9447,
      "tempo": 9448,
      "enna": 9449,
      "Rachel": 9450,
      "pione": 9451,
      "zing": 9452,
      "orchestra": 9453,
      "interpretation": 9454,
      "OC": 9455,
      "Prom": 9456,
      "propag": 9457,
      "audition": 9458,
      "moon": 9459,
      "confess": 9460,
      "fossil": 9461,
      "Universal": 9462,
      "loose": 9463,
      "Neil": 9464,
      "artwork": 9465,
      "Spir": 9466,
      "guitarist": 9467,
      "guilty": 9468,
      "Yankees": 9469,
      "fest": 9470,
      "Theod": 9471,
      "accum": 9472,
      "compens": 9473,
      "jobs": 9474,
      "believing": 9475,
      "vices": 9476,
      "artific": 9477,
      "virus": 9478,
      "constitution": 9479,
      "compliment": 9480,
      "Hur": 9481,
      "armies": 9482,
      "secretary": 9483,
      "iveness": 9484,
      "markets": 9485,
      "demolished": 9486,
      "acclaim": 9487,
      "Tracy": 9488,
      "lavery": 9489,
      "amid": 9490,
      "regation": 9491,
      "Birmingham": 9492,
      "Chel": 9493,
      "starring": 9494,
      "Furthermore": 9495,
      "adm": 9496,
      "cannon": 9497,
      "feels": 9498,
      "Railroad": 9499,
      "Laur": 9500,
      "lain": 9501,
      "increases": 9502,
      "profile": 9503,
      "Eventually": 9504,
      "Obama": 9505,
      "AP": 9506,
      "Pil": 9507,
      "kW": 9508,
      "ghan": 9509,
      "guy": 9510,
      "uma": 9511,
      "counties": 9512,
      "azines": 9513,
      "Lost": 9514,
      "utical": 9515,
      "ller": 9516,
      "listen": 9517,
      "See": 9518,
      "culmin": 9519,
      "Enterprise": 9520,
      "olds": 9521,
      "Canter": 9522,
      "discovers": 9523,
      "pursue": 9524,
      "glac": 9525,
      "bonus": 9526,
      "Morrison": 9527,
      "dock": 9528,
      "aman": 9529,
      "comprom": 9530,
      "Cost": 9531,
      "aus": 9532,
      "ressing": 9533,
      "clothing": 9534,
      "Phoenix": 9535,
      "delivery": 9536,
      "ras": 9537,
      "anes": 9538,
      "Baker": 9539,
      "productions": 9540,
      "chest": 9541,
      "Ple": 9542,
      "wire": 9543,
      "iders": 9544,
      "Jup": 9545,
      "inian": 9546,
      "succeed": 9547,
      "cutting": 9548,
      "Hudson": 9549,
      "Eve": 9550,
      "gence": 9551,
      "bearing": 9552,
      "liner": 9553,
      "Wayne": 9554,
      "challenged": 9555,
      "practical": 9556,
      "Mission": 9557,
      "dan": 9558,
      "hind": 9559,
      "verte": 9560,
      "elevation": 9561,
      "educational": 9562,
      "Bobby": 9563,
      "Bach": 9564,
      "icing": 9565,
      "funny": 9566,
      "tario": 9567,
      "cticut": 9568,
      "Connecticut": 9569,
      "extract": 9570,
      "Madagascar": 9571,
      "doubt": 9572,
      "laugh": 9573,
      "Pearl": 9574,
      "oblig": 9575,
      "Defence": 9576,
      "hire": 9577,
      "Sid": 9578,
      "sq": 9579,
      "renov": 9580,
      "sitting": 9581,
      "overseas": 9582,
      "Todd": 9583,
      "understood": 9584,
      "founding": 9585,
      "McCartney": 9586,
      "acknowledged": 9587,
      "Rights": 9588,
      "cultiv": 9589,
      "connecting": 9590,
      "deterior": 9591,
      "quer": 9592,
      "Peace": 9593,
      "realized": 9594,
      "edited": 9595,
      "Ontario": 9596,
      "solar": 9597,
      "oral": 9598,
      "defences": 9599,
      "conversion": 9600,
      "erected": 9601,
      "atomic": 9602,
      "prises": 9603,
      "Blood": 9604,
      "ultan": 9605,
      "bacter": 9606,
      "bats": 9607,
      "jer": 9608,
      "rice": 9609,
      "compounds": 9610,
      "settlers": 9611,
      "Wag": 9612,
      "indicating": 9613,
      "Canterbury": 9614,
      "vous": 9615,
      "diamond": 9616,
      "Friday": 9617,
      "ouver": 9618,
      "mush": 9619,
      "legislature": 9620,
      "Community": 9621,
      "Impact": 9622,
      "dressed": 9623,
      "tale": 9624,
      "objective": 9625,
      "sharp": 9626,
      "lu": 9627,
      "idal": 9628,
      "highways": 9629,
      "decisions": 9630,
      "communications": 9631,
      "Allies": 9632,
      "dogs": 9633,
      "Leonard": 9634,
      "aftermath": 9635,
      "initiated": 9636,
      "arrangements": 9637,
      "concentration": 9638,
      "haul": 9639,
      "campaigns": 9640,
      "liquid": 9641,
      "exactly": 9642,
      "oker": 9643,
      "Trail": 9644,
      "Rat": 9645,
      "Foreign": 9646,
      "hidden": 9647,
      "irty": 9648,
      "establishing": 9649,
      "rolling": 9650,
      "wealthy": 9651,
[...]
