{
  "version": "1.0",
  "truncation": null,
  "padding": null,
  "added_tokens": [
    {
      "id": 0,
      "content": "<s>",
      "single_word": false,
      "lstrip": false,
      "rstrip": false,
      "normalized": false,
      "special": true
    },
    {
      "id": 1,
      "content": "<pad>",
      "single_word": false,
      "lstrip": false,
      "rstrip": false,
      "normalized": false,
      "special": true
    },
    {
      "id": 2,
      "content": "</s>",
      "single_word": false,
      "lstrip": false,
      "rstrip": false,
      "normalized": false,
      "special": true
    },
    {
      "id": 3,
      "content": "<unk>",
      "single_word": false,
      "lstrip": false,
      "rstrip": false,
      "normalized": false,
      "special": true
    },
    {
      "id": 4,
      "content": "<mask>",
      "single_word": false,
      "lstrip": false,
      "rstrip": false,
      "normalized": false,
      "special": true
    }
  ],
  "normalizer": {
    "type": "Sequence",
    "normalizers": [
      {
        "type": "NFKC"
      },
      {
        "type": "Lowercase"
      }
    ]
  },
  "pre_tokenizer": {
    "type": "Whitespace"
  },
  "post_processor": null,
  "decoder": null,
  "model": {
    "type": "BPE",
    "dropout": null,
    "unk_token": "<unk>",
    "continuing_subword_prefix": null,
    "end_of_word_suffix": null,
    "fuse_unk": false,
    "byte_fallback": false,
    "ignore_merges": false,
    "vocab": {
      "<s>": 0,
      "<pad>": 1,
      "</s>": 2,
      "<unk>": 3,
      "<mask>": 4,
      "!": 5,
      "\"": 6,
      "#": 7,
      "$": 8,
      "%": 9,
      "&": 10,
      "'": 11,
      "(": 12,
      ")": 13,
      "*": 14,
      "+": 15,
      ",": 16,
      "-": 17,
      ".": 18,
      "/": 19,
      "0": 20,
      "1": 21,
      "2": 22,
      "3": 23,
      "4": 24,
      "5": 25,
      "6": 26,
      "7": 27,
      "8": 28,
      "9": 29,
      ":": 30,
      ";": 31,
      "<": 32,
      "=": 33,
      ">": 34,
      "?": 35,
      "@": 36,
      "[": 37,
      "\\": 38,
      "]": 39,
      "^": 40,
      "_": 41,
      "`": 42,
      "a": 43,
      "b": 44,
      "c": 45,
      "d": 46,
      "e": 47,
      "f": 48,
      "g": 49,
      "h": 50,
      "i": 51,
      "j": 52,
      "k": 53,
      "l": 54,
      "m": 55,
      "n": 56,
      "o": 57,
      "p": 58,
      "q": 59,
      "r": 60,
      "s": 61,
      "t": 62,
      "u": 63,
      "v": 64,
      "w": 65,
      "x": 66,
      "y": 67,
      "z": 68,
      "{": 69,
      "|": 70,
      "}": 71,
      "~": 72,
      "": 73,
      "": 74,
      "": 75,
      "": 76,
      "¡": 77,
      "¢": 78,
      "£": 79,
      "¥": 80,
      "§": 81,
      "©": 82,
      "«": 83,
      "­": 84,
      "®": 85,
      "°": 86,
      "±": 87,
      "¶": 88,
      "·": 89,
      "»": 90,
      "¿": 91,
      "×": 92,
      "ß": 93,
      "à": 94,
      "á": 95,
      "â": 96,
      "ã": 97,
      "ä": 98,
      "å": 99,
      "æ": 100,
      "ç": 101,
      "è": 102,
      "é": 103,
      "ê": 104,
      "ë": 105,
      "ì": 106,
      "í": 107,
      "î": 108,
      "ï": 109,
      "ð": 110,
      "ñ": 111,
      "ò": 112,
      "ó": 113,
      "ô": 114,
      "õ": 115,
      "ö": 116,
      "÷": 117,
      "ø": 118,
      "ù": 119,
      "ú": 120,
      "û": 121,
      "ü": 122,
      "ý": 123,
      "þ": 124,
      "ÿ": 125,
      "ā": 126,
      "ă": 127,
      "ą": 128,
      "ć": 129,
      "č": 130,
      "ď": 131,
      "đ": 132,
      "ē": 133,
      "ė": 134,
      "ę": 135,
      "ě": 136,
      "ğ": 137,
      "ġ": 138,
      "ħ": 139,
      "ĩ": 140,
      "ī": 141,
      "ı": 142,
      "ķ": 143,
      "ľ": 144,
      "ł": 145,
      "ń": 146,
      "ņ": 147,
      "ň": 148,
      "ŋ": 149,
      "ō": 150,
      "ŏ": 151,
      "ő": 152,
      "œ": 153,
      "ř": 154,
      "ś": 155,
      "ş": 156,
      "š": 157,
      "ţ": 158,
      "ť": 159,
      "ũ": 160,
      "ū": 161,
      "ŭ": 162,
      "ů": 163,
      "ų": 164,
      "ŵ": 165,
      "ŷ": 166,
      "ź": 167,
      "ż": 168,
      "ž": 169,
      "ƒ": 170,
      "ơ": 171,
      "ư": 172,
      "ǂ": 173,
      "ǎ": 174,
      "ǐ": 175,
      "ǒ": 176,
      "ǔ": 177,
      "ǫ": 178,
      "ș": 179,
      "ț": 180,
      "ɐ": 181,
      "ɑ": 182,
      "ɒ": 183,
      "ɓ": 184,
      "ɔ": 185,
      "ɕ": 186,
      "ɖ": 187,
      "ɗ": 188,
      "ə": 189,
      "ɛ": 190,
      "ɟ": 191,
      "ɡ": 192,
      "ɢ": 193,
      "ɣ": 194,
      "ɦ": 195,
      "ɧ": 196,
      "ɨ": 197,
      "ɪ": 198,
      "ɬ": 199,
      "ɯ": 200,
      "ɲ": 201,
      "ɴ": 202,
      "ɵ": 203,
      "ɸ": 204,
      "ɻ": 205,
      "ɾ": 206,
      "ʀ": 207,
      "ʁ": 208,
      "ʂ": 209,
      "ʃ": 210,
      "ʇ": 211,
      "ʈ": 212,
      "ʊ": 213,
      "ʋ": 214,
      "ʌ": 215,
      "ʍ": 216,
      "ʎ": 217,
      "ʒ": 218,
      "ʔ": 219,
      "ʕ": 220,
      "ʘ": 221,
      "ʝ": 222,
      "ʟ": 223,
      "ʻ": 224,
      "ʼ": 225,
      "ʾ": 226,
      "ʿ": 227,
      "ˀ": 228,
      "ˁ": 229,
      "ˈ": 230,
      "ˌ": 231,
      "ː": 232,
      "˔": 233,
      "˞": 234,
      "˥": 235,
      "˦": 236,
      "˧": 237,
      "˨": 238,
      "˩": 239,
      "̀": 240,
      "́": 241,
      "̂": 242,
      "̃": 243,
      "̄": 244,
      "̆": 245,
      "̇": 246,
      "̈": 247,
      "̊": 248,
      "̌": 249,
      "̍": 250,
      "̐": 251,
      "̚": 252,
      "̝": 253,
      "̞": 254,
      "̟": 255,
      "̠": 256,
      "̣": 257,
      "̤": 258,
      "̥": 259,
      "̧": 260,
      "̩": 261,
      "̪": 262,
      "̯": 263,
      "̰": 264,
      "̱": 265,
      "̲": 266,
      "̺": 267,
      "̽": 268,
      "͍": 269,
      "͘": 270,
      "͜": 271,
      "͡": 272,
      "ά": 273,
      "έ": 274,
      "ή": 275,
      "ί": 276,
      "α": 277,
      "β": 278,
      "γ": 279,
      "δ": 280,
      "ε": 281,
      "ζ": 282,
      "η": 283,
      "θ": 284,
      "ι": 285,
      "κ": 286,
      "λ": 287,
      "μ": 288,
      "ν": 289,
      "ξ": 290,
      "ο": 291,
      "π": 292,
      "ρ": 293,
      "ς": 294,
      "σ": 295,
      "τ": 296,
      "υ": 297,
      "φ": 298,
      "χ": 299,
      "ψ": 300,
      "ω": 301,
      "ό": 302,
      "ύ": 303,
      "ώ": 304,
      "а": 305,
      "б": 306,
      "в": 307,
      "г": 308,
      "д": 309,
      "е": 310,
      "ж": 311,
      "з": 312,
      "и": 313,
      "й": 314,
      "к": 315,
      "л": 316,
      "м": 317,
      "н": 318,
      "о": 319,
      "п": 320,
      "р": 321,
      "с": 322,
      "т": 323,
      "у": 324,
      "х": 325,
      "ц": 326,
      "ч": 327,
      "ш": 328,
      "ъ": 329,
      "ы": 330,
      "ь": 331,
      "э": 332,
      "ю": 333,
      "я": 334,
      "ё": 335,
      "і": 336,
      "ј": 337,
      "љ": 338,
      "ў": 339,
      "ա": 340,
      "բ": 341,
      "ե": 342,
      "թ": 343,
      "ի": 344,
      "կ": 345,
      "հ": 346,
      "ղ": 347,
      "մ": 348,
      "յ": 349,
      "ն": 350,
      "շ": 351,
      "ո": 352,
      "պ": 353,
      "ս": 354,
      "վ": 355,
      "տ": 356,
      "ր": 357,
      "ց": 358,
      "ւ": 359,
      "ք": 360,
      "֤": 361,
      "֫": 362,
      "ֵ": 363,
      "ֶ": 364,
      "ּ": 365,
      "א": 366,
      "ב": 367,
      "ג": 368,
      "ד": 369,
      "ו": 370,
      "ח": 371,
      "י": 372,
      "כ": 373,
      "ל": 374,
      "ם": 375,
      "מ": 376,
      "ן": 377,
      "נ": 378,
      "ס": 379,
      "ע": 380,
      "צ": 381,
      "ר": 382,
      "ש": 383,
      "ת": 384,
      "،": 385,
      "ء": 386,
      "أ": 387,
      "إ": 388,
      "ا": 389,
      "ب": 390,
      "ة": 391,
      "ت": 392,
      "ث": 393,
      "ج": 394,
      "ح": 395,
      "خ": 396,
      "د": 397,
      "ر": 398,
      "ز": 399,
      "س": 400,
      "ش": 401,
      "ص": 402,
      "ط": 403,
      "ع": 404,
      "غ": 405,
      "ف": 406,
      "ق": 407,
      "ك": 408,
      "ل": 409,
      "م": 410,
      "ن": 411,
      "ه": 412,
      "و": 413,
      "ي": 414,
      "ی": 415,
      "ं": 416,
      "अ": 417,
      "आ": 418,
      "उ": 419,
      "क": 420,
      "ग": 421,
      "ट": 422,
      "ड": 423,
      "त": 424,
      "द": 425,
      "न": 426,
      "प": 427,
      "ब": 428,
      "भ": 429,
      "म": 430,
      "य": 431,
      "र": 432,
      "ल": 433,
      "श": 434,
      "ष": 435,
      "स": 436,
      "ह": 437,
      "़": 438,
      "ा": 439,
      "ि": 440,
      "ी": 441,
      "ु": 442,
      "े": 443,
      "ो": 444,
      "्": 445,
      "।": 446,
      "॥": 447,
      "ক": 448,
      "ত": 449,
      "ন": 450,
      "ব": 451,
      "ম": 452,
      "ল": 453,
      "়": 454,
      "া": 455,
      "ি": 456,
      "্": 457,
      "க": 458,
      "ன": 459,
      "ள": 460,
      "்": 461,
      "్": 462,
      "್": 463,
      "്": 464,
      "්": 465,
      "ก": 466,
      "ข": 467,
      "ง": 468,
      "จ": 469,
      "ช": 470,
      "ฐ": 471,
      "ณ": 472,
      "ต": 473,
      "ท": 474,
      "น": 475,
      "ป": 476,
      "พ": 477,
      "ม": 478,
      "ย": 479,
      "ร": 480,
      "ล": 481,
      "ว": 482,
      "ะ": 483,
      "ั": 484,
      "า": 485,
      "ิ": 486,
      "ี": 487,
      "ู": 488,
      "฿": 489,
      "เ": 490,
      "แ": 491,
      "็": 492,
      "่": 493,
      "้": 494,
      "์": 495,
      "་": 496,
      "།": 497,
      "င": 498,
      "ဆ": 499,
      "န": 500,
      "ရ": 501,
      "္": 502,
      "်": 503,
      "გ": 504,
      "დ": 505,
      "ვ": 506,
      "ზ": 507,
      "ი": 508,
      "კ": 509,
      "ო": 510,
      "რ": 511,
      "ს": 512,
      "უ": 513,
      "ც": 514,
      "ძ": 515,
      "წ": 516,
      "ხ": 517,
      "ჯ": 518,
      "჻": 519,
      "፡": 520,
      "ᛃ": 521,
      "ᛋ": 522,
      "ᛟ": 523,
      "ត": 524,
      "ន": 525,
      "ព": 526,
      "ម": 527,
      "រ": 528,
      "ស": 529,
      "ហ": 530,
      "ី": 531,
      "ុ": 532,
      "ោ": 533,
      "ះ": 534,
      "់": 535,
      "្": 536,
      "᷉": 537,
      "ḍ": 538,
      "ḑ": 539,
      "ḥ": 540,
      "ḩ": 541,
      "ḷ": 542,
      "ḻ": 543,
      "ṃ": 544,
      "ṅ": 545,
      "ṇ": 546,
      "ṉ": 547,
      "ṛ": 548,
      "ṟ": 549,
      "ṣ": 550,
      "ṭ": 551,
      "ṯ": 552,
      "ạ": 553,
      "ả": 554,
      "ấ": 555,
      "ầ": 556,
      "ẩ": 557,
      "ẫ": 558,
      "ậ": 559,
      "ắ": 560,
      "ằ": 561,
      "ẵ": 562,
      "ặ": 563,
      "ẹ": 564,
      "ế": 565,
      "ề": 566,
      "ể": 567,
      "ễ": 568,
      "ệ": 569,
      "ị": 570,
      "ọ": 571,
      "ỏ": 572,
      "ố": 573,
      "ồ": 574,
      "ổ": 575,
      "ỗ": 576,
      "ộ": 577,
      "ớ": 578,
      "ờ": 579,
      "ở": 580,
      "ợ": 581,
      "ụ": 582,
      "ủ": 583,
      "ứ": 584,
      "ừ": 585,
      "ử": 586,
      "ữ": 587,
      "ự": 588,
      "ỳ": 589,
      "ỵ": 590,
      "ỹ": 591,
      "ἀ": 592,
      "ἄ": 593,
      "ἐ": 594,
      "ἕ": 595,
      "ἠ": 596,
      "ἡ": 597,
      "ἰ": 598,
      "ἱ": 599,
      "ἵ": 600,
      "ἶ": 601,
      "ὁ": 602,
      "ὄ": 603,
      "ὐ": 604,
      "ὑ": 605,
      "ὡ": 606,
      "ὰ": 607,
      "ὲ": 608,
      "ὴ": 609,
      "ὶ": 610,
      "ὸ": 611,
      "ὺ": 612,
      "ὼ": 613,
      "ᾶ": 614,
      "ῆ": 615,
      "ῖ": 616,
      "ῥ": 617,
      "ῦ": 618,
      "ῶ": 619,
      "ῷ": 620,
      "​": 621,
      "‌": 622,
      "‍": 623,
      "‐": 624,
      "‒": 625,
      "–": 626,
      "—": 627,
      "―": 628,
      "‘": 629,
      "’": 630,
      "‚": 631,
      "“": 632,
      "”": 633,
      "„": 634,
      "†": 635,
      "‡": 636,
      "•": 637,
      "‰": 638,
      "′": 639,
      "※": 640,
      "‿": 641,
      "⁄": 642,
      "⁊": 643,
      "⁡": 644,
      "₡": 645,
      "₣": 646,
      "₤": 647,
      "₦": 648,
      "₩": 649,
      "₫": 650,
      "€": 651,
      "₱": 652,
      "₹": 653,
      "←": 654,
      "↑": 655,
      "→": 656,
      "↓": 657,
      "↔": 658,
      "↗": 659,
      "↦": 660,
      "↪": 661,
      "⇄": 662,
      "⇌": 663,
      "∀": 664,
      "∂": 665,
      "∆": 666,
      "∈": 667,
      "∑": 668,
      "−": 669,
      "∕": 670,
      "∖": 671,
      "∗": 672,
      "∘": 673,
      "√": 674,
      "∝": 675,
      "∞": 676,
      "∩": 677,
      "∪": 678,
      "∴": 679,
      "∼": 680,
      "≈": 681,
      "≠": 682,
      "≡": 683,
      "≢": 684,
      "≤": 685,
      "≥": 686,
      "≪": 687,
      "⊂": 688,
      "⊕": 689,
      "⊗": 690,
      "⊙": 691,
      "⊥": 692,
      "⋅": 693,
      "⋯": 694,
      "⌊": 695,
      "⌋": 696,
      "█": 697,
      "▲": 698,
      "★": 699,
      "☆": 700,
      "☉": 701,
      "♀": 702,
      "♠": 703,
      "♣": 704,
      "♥": 705,
      "♦": 706,
      "♩": 707,
      "♪": 708,
      "♭": 709,
      "♮": 710,
      "♯": 711,
      "⟦": 712,
      "⟧": 713,
      "⟨": 714,
      "⟩": 715,
      "⩽": 716,
      "ⴷ": 717,
      "、": 718,
      "。": 719,
      "〈": 720,
      "〉": 721,
      "「": 722,
      "」": 723,
      "『": 724,
      "』": 725,
      "〜": 726,
      "あ": 727,
      "い": 728,
      "ぅ": 729,
      "う": 730,
      "お": 731,
      "か": 732,
      "が": 733,
      "き": 734,
      "く": 735,
      "ぐ": 736,
      "こ": 737,
      "さ": 738,
      "し": 739,
      "じ": 740,
      "す": 741,
      "ず": 742,
      "せ": 743,
      "た": 744,
      "ち": 745,
      "つ": 746,
      "て": 747,
      "と": 748,
      "ど": 749,
      "な": 750,
      "の": 751,
      "は": 752,
      "ば": 753,
      "ふ": 754,
      "へ": 755,
      "ぽ": 756,
      "ま": 757,
      "み": 758,
      "め": 759,
      "よ": 760,
      "ら": 761,
      "り": 762,
      "る": 763,
      "ん": 764,
      "ァ": 765,
      "ア": 766,
      "ィ": 767,
      "イ": 768,
      "ウ": 769,
      "ェ": 770,
      "エ": 771,
      "ォ": 772,
      "オ": 773,
      "カ": 774,
      "ガ": 775,
      "キ": 776,
      "ギ": 777,
      "ク": 778,
      "グ": 779,
      "ケ": 780,
      "コ": 781,
      "ゴ": 782,
      "サ": 783,
      "ザ": 784,
      "シ": 785,
      "ジ": 786,
      "ス": 787,
      "ズ": 788,
      "セ": 789,
      "ゼ": 790,
      "ソ": 791,
      "タ": 792,
      "ダ": 793,
      "チ": 794,
      "ッ": 795,
      "ツ": 796,
      "テ": 797,
      "デ": 798,
      "ト": 799,
      "ド": 800,
      "ナ": 801,
      "ニ": 802,
      "ノ": 803,
      "ハ": 804,
      "バ": 805,
      "パ": 806,
      "ヒ": 807,
      "ビ": 808,
      "フ": 809,
      "ブ": 810,
      "プ": 811,
      "ベ": 812,
      "ペ": 813,
      "ボ": 814,
      "ポ": 815,
      "マ": 816,
      "ミ": 817,
      "ム": 818,
      "メ": 819,
      "モ": 820,
      "ャ": 821,
      "ヤ": 822,
      "ュ": 823,
      "ユ": 824,
      "ョ": 825,
      "ラ": 826,
      "リ": 827,
      "ル": 828,
      "レ": 829,
      "ロ": 830,
      "ワ": 831,
      "ン": 832,
      "ヴ": 833,
      "・": 834,
      "ー": 835,
      "一": 836,
      "三": 837,
      "上": 838,
      "下": 839,
      "不": 840,
      "丑": 841,
      "世": 842,
      "个": 843,
      "久": 844,
      "之": 845,
      "乙": 846,
      "二": 847,
      "五": 848,
      "亦": 849,
      "京": 850,
      "人": 851,
      "介": 852,
      "仙": 853,
      "令": 854,
      "伝": 855,
      "住": 856,
      "佛": 857,
      "作": 858,
      "併": 859,
      "侠": 860,
      "個": 861,
      "催": 862,
      "像": 863,
      "光": 864,
      "内": 865,
      "写": 866,
      "冴": 867,
      "净": 868,
      "凪": 869,
      "分": 870,
      "列": 871,
      "刘": 872,
      "初": 873,
      "判": 874,
      "別": 875,
      "前": 876,
      "剛": 877,
      "剣": 878,
      "劇": 879,
      "動": 880,
      "勝": 881,
      "北": 882,
      "匹": 883,
      "千": 884,
      "卒": 885,
      "南": 886,
      "博": 887,
      "厘": 888,
      "双": 889,
      "台": 890,
      "号": 891,
      "同": 892,
      "名": 893,
      "君": 894,
      "呼": 895,
      "哈": 896,
      "四": 897,
      "回": 898,
      "国": 899,
      "國": 900,
      "土": 901,
      "坂": 902,
      "場": 903,
      "境": 904,
      "士": 905,
      "外": 906,
      "大": 907,
      "天": 908,
      "太": 909,
      "女": 910,
      "姉": 911,
      "婷": 912,
      "子": 913,
      "字": 914,
      "季": 915,
      "孩": 916,
      "守": 917,
      "宋": 918,
      "宗": 919,
      "寔": 920,
      "寺": 921,
      "小": 922,
      "少": 923,
      "尾": 924,
      "巨": 925,
      "廷": 926,
      "式": 927,
      "弘": 928,
      "张": 929,
      "張": 930,
      "彼": 931,
      "後": 932,
      "心": 933,
      "思": 934,
      "愛": 935,
      "憲": 936,
      "戦": 937,
      "房": 938,
      "所": 939,
      "撃": 940,
      "攻": 941,
      "新": 942,
      "方": 943,
      "日": 944,
      "旦": 945,
      "早": 946,
      "星": 947,
      "春": 948,
      "時": 949,
      "書": 950,
      "月": 951,
      "朝": 952,
      "木": 953,
      "本": 954,
      "李": 955,
      "杜": 956,
      "束": 957,
      "条": 958,
      "東": 959,
      "松": 960,
      "枚": 961,
      "條": 962,
      "植": 963,
      "椎": 964,
      "楽": 965,
      "様": 966,
      "機": 967,
      "正": 968,
      "武": 969,
      "歩": 970,
      "死": 971,
      "殻": 972,
      "氏": 973,
      "民": 974,
      "気": 975,
      "氣": 976,
      "水": 977,
      "氷": 978,
      "氾": 979,
      "法": 980,
      "活": 981,
      "流": 982,
      "浅": 983,
      "海": 984,
      "溜": 985,
      "瀬": 986,
      "火": 987,
      "無": 988,
      "版": 989,
      "特": 990,
      "王": 991,
      "瓦": 992,
      "生": 993,
      "用": 994,
      "田": 995,
      "町": 996,
      "界": 997,
      "畫": 998,
      "皮": 999,
      "真": 1000,
      "礮": 1001,
      "神": 1002,
      "秋": 1003,
      "積": 1004,
      "空": 1005,
      "章": 1006,
      "箇": 1007,
      "節": 1008,
      "米": 1009,
      "約": 1010,
      "紋": 1011,
      "綾": 1012,
      "緑": 1013,
      "編": 1014,
      "群": 1015,
      "羽": 1016,
      "耕": 1017,
      "聖": 1018,
      "肖": 1019,
      "膺": 1020,
      "芝": 1021,
      "花": 1022,
      "草": 1023,
      "莊": 1024,
      "蛍": 1025,
      "街": 1026,
      "裁": 1027,
      "装": 1028,
      "西": 1029,
      "見": 1030,
      "語": 1031,
      "説": 1032,
      "議": 1033,
      "词": 1034,
      "谷": 1035,
      "路": 1036,
      "軍": 1037,
      "転": 1038,
      "輝": 1039,
      "逆": 1040,
      "進": 1041,
      "道": 1042,
      "遠": 1043,
      "邪": 1044,
      "部": 1045,
      "野": 1046,
      "量": 1047,
      "金": 1048,
      "銀": 1049,
      "銖": 1050,
      "錬": 1051,
      "隊": 1052,
      "隴": 1053,
      "隻": 1054,
      "雄": 1055,
      "集": 1056,
      "雪": 1057,
      "零": 1058,
      "靈": 1059,
      "青": 1060,
      "韓": 1061,
      "風": 1062,
      "鬼": 1063,
      "魂": 1064,
      "魄": 1065,
      "魔": 1066,
      "鼓": 1067,
      "거": 1068,
      "루": 1069,
      "마": 1070,
      "막": 1071,
      "말": 1072,
      "사": 1073,
      "인": 1074,
      "전": 1075,
      "지": 1076,
      "짓": 1077,
      "투": 1078,
      "하": 1079,
      "﻿": 1080,
      "th": 1081,
      "in": 1082,
      "the": 1083,
      "an": 1084,
      "er": 1085,
      "on": 1086,
      "ed": 1087,
      "re": 1088,
      "at": 1089,
      "en": 1090,
      "or": 1091,
      "st": 1092,
      "al": 1093,
      "ar": 1094,
      "as": 1095,
      "and": 1096,
      "of": 1097,
      "to": 1098,
      "ing": 1099,
      "is": 1100,
      "es": 1101,
      "it": 1102,
      "ro": 1103,
      "ic": 1104,
      "ou": 1105,
      "le": 1106,
      "ion": 1107,
      "ch": 1108,
      "se": 1109,
      "un": 1110,
      "il": 1111,
      "ent": 1112,
      "am": 1113,
      "ad": 1114,
      "be": 1115,
      "ac": 1116,
      "for": 1117,
      "co": 1118,
      "de": 1119,
      "ly": 1120,
      "was": 1121,
      "ve": 1122,
      "ur": 1123,
      "he": 1124,
      "ir": 1125,
      "wh": 1126,
      "lo": 1127,
      "im": 1128,
      "-@": 1129,
      "@-@": 1130,
      "ig": 1131,
      "ver": 1132,
      "ter": 1133,
      "wi": 1134,
      "con": 1135,
      "ce": 1136,
      "ay": 1137,
      "with": 1138,
      "ol": 1139,
      "ation": 1140,
      "ag": 1141,
      "id": 1142,
      "us": 1143,
      "that": 1144,
      "by": 1145,
      "te": 1146,
      "ct": 1147,
      "no": 1148,
      "su": 1149,
      "ap": 1150,
      "me": 1151,
      "ri": 1152,
      "ne": 1153,
      "mo": 1154,
      "we": 1155,
      "li": 1156,
      "ut": 1157,
      "po": 1158,
      "pe": 1159,
      "19": 1160,
      "com": 1161,
      "sh": 1162,
      "ain": 1163,
      "pro": 1164,
      "so": 1165,
      "ab": 1166,
      "ul": 1167,
      "ere": 1168,
      "res": 1169,
      "pl": 1170,
      "di": 1171,
      "00": 1172,
      "rom": 1173,
      "ers": 1174,
      "his": 1175,
      "unk": 1176,
      "all": 1177,
      "ge": 1178,
      "tr": 1179,
      "from": 1180,
      "ther": 1181,
      "um": 1182,
      "fe": 1183,
      "art": 1184,
      "oun": 1185,
      "ld": 1186,
      "are": 1187,
      "ate": 1188,
      "cl": 1189,
      "per": 1190,
      "ke": 1191,
      "man": 1192,
      "igh": 1193,
      "ber": 1194,
      "ex": 1195,
      "af": 1196,
      "bo": 1197,
      "ment": 1198,
      "si": 1199,
      "qu": 1200,
      "ich": 1201,
      "were": 1202,
      "ill": 1203,
      "ard": 1204,
      "ts": 1205,
      "ast": 1206,
      "ho": 1207,
      "ie": 1208,
      "au": 1209,
      "one": 1210,
      "gh": 1211,
      "ies": 1212,
      "ated": 1213,
      "ame": 1214,
      "ll": 1215,
      "ong": 1216,
      "ity": 1217,
      "ted": 1218,
      "end": 1219,
      "av": 1220,
      "out": 1221,
      "had": 1222,
      "str": 1223,
      "br": 1224,
      "ess": 1225,
      "our": 1226,
      "wn": 1227,
      "ack": 1228,
      "ish": 1229,
      "up": 1230,
      "ear": 1231,
      "which": 1232,
      "wor": 1233,
      "ist": 1234,
      "ant": 1235,
      "but": 1236,
      "por": 1237,
      "do": 1238,
      "der": 1239,
      "ive": 1240,
      "ip": 1241,
      "ine": 1242,
      "her": 1243,
      "du": 1244,
      "wo": 1245,
      "ally": 1246,
      "ave": 1247,
      "ak": 1248,
      "op": 1249,
      "act": 1250,
      "cor": 1251,
      "its": 1252,
      "not": 1253,
      "ary": 1254,
      "go": 1255,
      "pr": 1256,
      "iv": 1257,
      "fir": 1258,
      "cr": 1259,
      "low": 1260,
      "em": 1261,
      "tim": 1262,
      "ser": 1263,
      "20": 1264,
      "this": 1265,
      "bl": 1266,
      "gr": 1267,
      "ud": 1268,
      "200": 1269,
      "ian": 1270,
      "mar": 1271,
      "fo": 1272,
      "age": 1273,
      "ach": 1274,
      "ree": 1275,
      "after": 1276,
      "ight": 1277,
      "ould": 1278,
      "if": 1279,
      "ia": 1280,
      "aw": 1281,
      "first": 1282,
      "new": 1283,
      "ous": 1284,
      "od": 1285,
      "land": 1286,
      "ial": 1287,
      "part": 1288,
      "other": 1289,
      "ction": 1290,
      "their": 1291,
      "form": 1292,
      "who": 1293,
      "ign": 1294,
      "att": 1295,
      "ass": 1296,
      "min": 1297,
      "ition": 1298,
      "ical": 1299,
      "also": 1300,
      "sp": 1301,
      "pres": 1302,
      "el": 1303,
      "ater": 1304,
      "ound": 1305,
      "she": 1306,
      "gu": 1307,
      "des": 1308,
      "ev": 1309,
      "play": 1310,
      "they": 1311,
      "comm": 1312,
      "off": 1313,
      "two": 1314,
      "ph": 1315,
      "ure": 1316,
      "ty": 1317,
      "cre": 1318,
      "ck": 1319,
      "pre": 1320,
      "18": 1321,
      "pos": 1322,
      "nor": 1323,
      "cont": 1324,
      "cent": 1325,
      "have": 1326,
      "comp": 1327,
      "ma": 1328,
      "dis": 1329,
      "over": 1330,
      "rou": 1331,
      "ans": 1332,
      "fin": 1333,
      "ice": 1334,
      ".@": 1335,
      "@.@": 1336,
      "air": 1337,
      "jo": 1338,
      "has": 1339,
      "ile": 1340,
      "year": 1341,
      "ence": 1342,
      "est": 1343,
      "inter": 1344,
      "ance": 1345,
      "uring": 1346,
      "been": 1347,
      "ace": 1348,
      "ok": 1349,
      ",@": 1350,
      "@,@": 1351,
      "ough": 1352,
      "201": 1353,
      "mber": 1354,
      "ship": 1355,
      "spe": 1356,
      "ren": 1357,
      "ory": 1358,
      "port": 1359,
      "tur": 1360,
      "time": 1361,
      "ite": 1362,
      "ved": 1363,
      "can": 1364,
      "fr": 1365,
      "mon": 1366,
      "work": 1367,
      "ade": 1368,
      "gro": 1369,
      "ten": 1370,
      "when": 1371,
      "sion": 1372,
      "able": 1373,
      "sc": 1374,
      "pt": 1375,
      "ding": 1376,
      "incl": 1377,
      "ep": 1378,
      "par": 1379,
      "fer": 1380,
      "fl": 1381,
      "ced": 1382,
      "during": 1383,
      "fil": 1384,
      "eng": 1385,
      "sho": 1386,
      "ail": 1387,
      "et": 1388,
      "gen": 1389,
      "vis": 1390,
      "vi": 1391,
      "would": 1392,
      "way": 1393,
      "ations": 1394,
      "dr": 1395,
      "into": 1396,
      "him": 1397,
      "most": 1398,
      "war": 1399,
      "more": 1400,
      "col": 1401,
      "oc": 1402,
      "coun": 1403,
      "sy": 1404,
      "om": 1405,
      "iz": 1406,
      "main": 1407,
      "char": 1408,
      "fore": 1409,
      "son": 1410,
      "rough": 1411,
      "some": 1412,
      "car": 1413,
      "bu": 1414,
      "day": 1415,
      "ces": 1416,
      "ates": 1417,
      "bec": 1418,
      "ased": 1419,
      "ase": 1420,
      "ited": 1421,
      "bet": 1422,
      "vie": 1423,
      "ton": 1424,
      "ds": 1425,
      "amp": 1426,
      "reg": 1427,
      "les": 1428,
      "sing": 1429,
      "film": 1430,
      "while": 1431,
      "sou": 1432,
      "ire": 1433,
      "ang": 1434,
      "ju": 1435,
      "used": 1436,
      "int": 1437,
      "ason": 1438,
      "pu": 1439,
      "game": 1440,
      "includ": 1441,
      "med": 1442,
      "ning": 1443,
      "cted": 1444,
      "fol": 1445,
      "though": 1446,
      "under": 1447,
      "there": 1448,
      "ot": 1449,
      "only": 1450,
      "gan": 1451,
      "than": 1452,
      "high": 1453,
      "produ": 1454,
      "ue": 1455,
      "king": 1456,
      "wr": 1457,
      "sa": 1458,
      "cess": 1459,
      "west": 1460,
      "ican": 1461,
      "cond": 1462,
      "ict": 1463,
      "later": 1464,
      "ors": 1465,
      "song": 1466,
      "any": 1467,
      "mus": 1468,
      "again": 1469,
      "ger": 1470,
      "ick": 1471,
      "bro": 1472,
      "sch": 1473,
      "my": 1474,
      "je": 1475,
      "may": 1476,
      "old": 1477,
      "win": 1478,
      "ions": 1479,
      "ble": 1480,
      "amer": 1481,
      "mi": 1482,
      "cap": 1483,
      "about": 1484,
      "ped": 1485,
      "three": 1486,
      "red": 1487,
      "ween": 1488,
      "199": 1489,
      "between": 1490,
      "rele": 1491,
      "through": 1492,
      "ath": 1493,
      "publ": 1494,
      "als": 1495,
      "them": 1496,
      "recor": 1497,
      "pol": 1498,
      "ating": 1499,
      "led": 1500,
      "follow": 1501,
      "gre": 1502,
      "tain": 1503,
      "la": 1504,
      "ned": 1505,
      "ational": 1506,
      "num": 1507,
      "ele": 1508,
      "where": 1509,
      "ss": 1510,
      "ef": 1511,
      "lar": 1512,
      "ward": 1513,
      "ry": 1514,
      "season": 1515,
      "10": 1516,
      "ra": 1517,
      "sub": 1518,
      "ful": 1519,
      "ste": 1520,
      "sur": 1521,
      "alb": 1522,
      "world": 1523,
      "four": 1524,
      "view": 1525,
      "cur": 1526,
      "mat": 1527,
      "well": 1528,
      "sel": 1529,
      "kno": 1530,
      "men": 1531,
      "back": 1532,
      "ics": 1533,
      "stru": 1534,
      "spec": 1535,
      "second": 1536,
      "ting": 1537,
      "ident": 1538,
      "north": 1539,
      "und": 1540,
      "set": 1541,
      "before": 1542,
      "rel": 1543,
      "team": 1544,
      "ames": 1545,
      "made": 1546,
      "000": 1547,
      "buil": 1548,
      "writ": 1549,
      "ters": 1550,
      "ular": 1551,
      "ci": 1552,
      "then": 1553,
      "many": 1554,
      "loc": 1555,
      "call": 1556,
      "such": 1557,
      "mu": 1558,
      "ange": 1559,
      "mer": 1560,
      "album": 1561,
      "cer": 1562,
      "ered": 1563,
      "national": 1564,
      "io": 1565,
      "ank": 1566,
      "17": 1567,
      "sup": 1568,
      "appe": 1569,
      "ann": 1570,
      "ished": 1571,
      "tem": 1572,
      "sever": 1573,
      "tri": 1574,
      "lin": 1575,
      "gener": 1576,
      "years": 1577,
      "vers": 1578,
      "very": 1579,
      "..": 1580,
      "state": 1581,
      "mb": 1582,
      "tro": 1583,
      "howe": 1584,
      "like": 1585,
      "15": 1586,
      "serv": 1587,
      "mis": 1588,
      "south": 1589,
      "show": 1590,
      "both": 1591,
      "cy": 1592,
      "ale": 1593,
      "mill": 1594,
      "mor": 1595,
      "ta": 1596,
      "music": 1597,
      "being": 1598,
      "however": 1599,
      "add": 1600,
      "ily": 1601,
      "ents": 1602,
      "epis": 1603,
      "rece": 1604,
      "ft": 1605,
      "long": 1606,
      "these": 1607,
      "ven": 1608,
      "ative": 1609,
      "bur": 1610,
      "lead": 1611,
      "series": 1612,
      "uary": 1613,
      "line": 1614,
      "against": 1615,
      "batt": 1616,
      "ments": 1617,
      "ual": 1618,
      "ied": 1619,
      "sim": 1620,
      "number": 1621,
      "ult": 1622,
      "log": 1623,
      "don": 1624,
      "charac": 1625,
      "ince": 1626,
      "velo": 1627,
      "side": 1628,
      "vol": 1629,
      "az": 1630,
      "hist": 1631,
      "city": 1632,
      "found": 1633,
      "dire": 1634,
      "ub": 1635,
      "brit": 1636,
      "appear": 1637,
      "mil": 1638,
      "ific": 1639,
      "arch": 1640,
      "dif": 1641,
      "bar": 1642,
      "develo": 1643,
      "united": 1644,
      "tal": 1645,
      "16": 1646,
      "ause": 1647,
      "ens": 1648,
      "cro": 1649,
      "became": 1650,
      "unt": 1651,
      "leg": 1652,
      "12": 1653,
      "down": 1654,
      "east": 1655,
      "ob": 1656,
      "igin": 1657,
      "several": 1658,
      "including": 1659,
      "vision": 1660,
      "ious": 1661,
      "origin": 1662,
      "pop": 1663,
      "head": 1664,
      "wer": 1665,
      "oper": 1666,
      "har": 1667,
      "cri": 1668,
      "stor": 1669,
      "early": 1670,
      "feat": 1671,
      "hn": 1672,
      "contin": 1673,
      "198": 1674,
      "bor": 1675,
      "did": 1676,
      "pers": 1677,
      "val": 1678,
      "ca": 1679,
      "ode": 1680,
      "ek": 1681,
      "gover": 1682,
      "ms": 1683,
      "ley": 1684,
      "large": 1685,
      "tre": 1686,
      "sted": 1687,
      "ner": 1688,
      "sul": 1689,
      "bre": 1690,
      "194": 1691,
      "trans": 1692,
      "ended": 1693,
      "cast": 1694,
      "pass": 1695,
      "clo": 1696,
      "ls": 1697,
      "wil": 1698,
      "nam": 1699,
      "sid": 1700,
      "suc": 1701,
      "cour": 1702,
      "try": 1703,
      "ities": 1704,
      "ise": 1705,
      "states": 1706,
      "episode": 1707,
      "ures": 1708,
      "crit": 1709,
      "group": 1710,
      "john": 1711,
      "30": 1712,
      "said": 1713,
      "uni": 1714,
      "hou": 1715,
      "following": 1716,
      "plan": 1717,
      "run": 1718,
      "design": 1719,
      "cle": 1720,
      "ived": 1721,
      "comple": 1722,
      "peri": 1723,
      "could": 1724,
      "ings": 1725,
      "record": 1726,
      "nove": 1727,
      "ind": 1728,
      "retur": 1729,
      "sign": 1730,
      "ury": 1731,
      "ide": 1732,
      "american": 1733,
      "ern": 1734,
      "own": 1735,
      "fam": 1736,
      "bed": 1737,
      "ield": 1738,
      "vo": 1739,
      "known": 1740,
      "use": 1741,
      "although": 1742,
      "called": 1743,
      "plo": 1744,
      "pon": 1745,
      "vid": 1746,
      "roy": 1747,
      "indi": 1748,
      "197": 1749,
      "ron": 1750,
      "life": 1751,
      "self": 1752,
      "196": 1753,
      "14": 1754,
      "offic": 1755,
      "near": 1756,
      "sk": 1757,
      "ually": 1758,
      "present": 1759,
      "jor": 1760,
      "stem": 1761,
      "band": 1762,
      "public": 1763,
      "descri": 1764,
      "remain": 1765,
      "ii": 1766,
      "os": 1767,
      "road": 1768,
      "began": 1769,
      "open": 1770,
      "scho": 1771,
      "ves": 1772,
      "hel": 1773,
      "until": 1774,
      "star": 1775,
      "sed": 1776,
      "sm": 1777,
      "ople": 1778,
      "dec": 1779,
      "released": 1780,
      "ball": 1781,
      "less": 1782,
      "13": 1783,
      "school": 1784,
      "along": 1785,
      "aking": 1786,
      "dy": 1787,
      "because": 1788,
      "gin": 1789,
      "ose": 1790,
      "pri": 1791,
      "ash": 1792,
      "position": 1793,
      "ised": 1794,
      "na": 1795,
      "une": 1796,
      "just": 1797,
      "fa": 1798,
      "house": 1799,
      "ject": 1800,
      "ital": 1801,
      "hy": 1802,
      "ort": 1803,
      "var": 1804,
      "come": 1805,
      "people": 1806,
      "you": 1807,
      "success": 1808,
      "place": 1809,
      "system": 1810,
      "week": 1811,
      "gust": 1812,
      "xt": 1813,
      "vide": 1814,
      "million": 1815,
      "cover": 1816,
      "will": 1817,
      "stri": 1818,
      "pen": 1819,
      "thir": 1820,
      "let": 1821,
      "field": 1822,
      "50": 1823,
      "british": 1824,
      "sist": 1825,
      "hal": 1826,
      "since": 1827,
      "ham": 1828,
      "cut": 1829,
      "around": 1830,
      "tit": 1831,
      "best": 1832,
      "attack": 1833,
      "town": 1834,
      "six": 1835,
      "ple": 1836,
      "jan": 1837,
      "award": 1838,
      "major": 1839,
      "sco": 1840,
      "book": 1841,
      "ving": 1842,
      "sep": 1843,
      "lit": 1844,
      "colle": 1845,
      "fic": 1846,
      "vent": 1847,
      "fect": 1848,
      "start": 1849,
      "eu": 1850,
      "each": 1851,
      "times": 1852,
      "track": 1853,
      "read": 1854,
      "continu": 1855,
      "ized": 1856,
      "now": 1857,
      "character": 1858,
      "requ": 1859,
      "ys": 1860,
      "ris": 1861,
      "tember": 1862,
      "ica": 1863,
      "stral": 1864,
      "september": 1865,
      "care": 1866,
      "sive": 1867,
      "same": 1868,
      "took": 1869,
      "grap": 1870,
      "august": 1871,
      "stand": 1872,
      "govern": 1873,
      "final": 1874,
      "sol": 1875,
      "plac": 1876,
      "order": 1877,
      "resul": 1878,
      "den": 1879,
      "another": 1880,
      "five": 1881,
      "top": 1882,
      "dep": 1883,
      "what": 1884,
      "ild": 1885,
      "11": 1886,
      "home": 1887,
      "km": 1888,
      "mid": 1889,
      "fle": 1890,
      "ired": 1891,
      "get": 1892,
      "person": 1893,
      "aving": 1894,
      "camp": 1895,
      "cal": 1896,
      "test": 1897,
      "que": 1898,
      "stu": 1899,
      "austral": 1900,
      "formed": 1901,
      "area": 1902,
      "mal": 1903,
      "water": 1904,
      "fur": 1905,
      "tour": 1906,
      "sen": 1907,
      "consid": 1908,
      "def": 1909,
      "aim": 1910,
      "march": 1911,
      "aft": 1912,
      "century": 1913,
      "light": 1914,
      "ze": 1915,
      "contro": 1916,
      "direct": 1917,
      "gun": 1918,
      "received": 1919,
      "appro": 1920,
      "due": 1921,
      "octo": 1922,
      "october": 1923,
      "last": 1924,
      "ib": 1925,
      "small": 1926,
      "ore": 1927,
      "ork": 1928,
      "urch": 1929,
      "pat": 1930,
      "met": 1931,
      "ism": 1932,
      "even": 1933,
      "allow": 1934,
      "mot": 1935,
      "ility": 1936,
      "cial": 1937,
      "liam": 1938,
      "games": 1939,
      "match": 1940,
      "power": 1941,
      "class": 1942,
      "hol": 1943,
      "giv": 1944,
      "partic": 1945,
      "ps": 1946,
      "government": 1947,
      "thern": 1948,
      "tle": 1949,
      "ked": 1950,
      "ks": 1951,
      "ese": 1952,
      "york": 1953,
      "mag": 1954,
      "ately": 1955,
      "ket": 1956,
      "law": 1957,
      "won": 1958,
      "pa": 1959,
      "command": 1960,
      "lan": 1961,
      "rist": 1962,
      "child": 1963,
      "june": 1964,
      "ported": 1965,
      "river": 1966,
      "single": 1967,
      "general": 1968,
      "develop": 1969,
      "ril": 1970,
      "squ": 1971,
      "company": 1972,
      "force": 1973,
      "name": 1974,
      "dam": 1975,
      "july": 1976,
      "dece": 1977,
      "point": 1978,
      "played": 1979,
      "november": 1980,
      "differ": 1981,
      "sequ": 1982,
      "event": 1983,
      "25": 1984,
      "third": 1985,
      "reach": 1986,
      "death": 1987,
      "review": 1988,
      "cas": 1989,
      "respon": 1990,
      "much": 1991,
      "wal": 1992,
      "island": 1993,
      "lish": 1994,
      "short": 1995,
      "ium": 1996,
      "april": 1997,
      "ling": 1998,
      "posed": 1999,
      "accor": 2000,
      "aged": 2001,
      "battle": 2002,
      "organ": 2003,
      "ress": 2004,
      "story": 2005,
      "ional": 2006,
      "bus": 2007,
      "kill": 2008,
      "ained": 2009,
      "rest": 2010,
      "fri": 2011,
      "ages": 2012,
      "family": 2013,
      "left": 2014,
      "univers": 2015,
      "building": 2016,
      "went": 2017,
      "van": 2018,
      "ina": 2019,
      "rad": 2020,
      "ude": 2021,
      "month": 2022,
      "0s": 2023,
      "idge": 2024,
      "vious": 2025,
      "ster": 2026,
      "version": 2027,
      "based": 2028,
      "far": 2029,
      "ague": 2030,
      "hand": 2031,
      "sal": 2032,
      "vir": 2033,
      "production": 2034,
      "wood": 2035,
      "addition": 2036,
      "club": 2037,
      "ru": 2038,
      "ined": 2039,
      "ists": 2040,
      "incre": 2041,
      "sum": 2042,
      "nat": 2043,
      "poin": 2044,
      "late": 2045,
      "history": 2046,
      "black": 2047,
      "army": 2048,
      "german": 2049,
      "ons": 2050,
      "thing": 2051,
      "ships": 2052,
      "december": 2053,
      "thor": 2054,
      "avy": 2055,
      "great": 2056,
      "named": 2057,
      "issu": 2058,
      "moved": 2059,
      "according": 2060,
      "ah": 2061,
      "included": 2062,
      "dest": 2063,
      "fun": 2064,
      "lon": 2065,
      "bat": 2066,
      "claim": 2067,
      "rote": 2068,
      "fall": 2069,
      "gl": 2070,
      "constru": 2071,
      "using": 2072,
      "make": 2073,
      "january": 2074,
      "hum": 2075,
      "195": 2076,
      "fort": 2077,
      "studi": 2078,
      "ically": 2079,
      "...": 2080,
      "ground": 2081,
      "wrote": 2082,
      "gram": 2083,
      "beli": 2084,
      "193": 2085,
      "polit": 2086,
      "park": 2087,
      "lim": 2088,
      "tak": 2089,
      "euro": 2090,
      "jap": 2091,
      "cept": 2092,
      "flu": 2093,
      "gar": 2094,
      "species": 2095,
      "tt": 2096,
      "still": 2097,
      "stud": 2098,
      "sw": 2099,
      "che": 2100,
      "ially": 2101,
      "ford": 2102,
      "gy": 2103,
      "24": 2104,
      "init": 2105,
      "japan": 2106,
      "real": 2107,
      "previous": 2108,
      "sty": 2109,
      "video": 2110,
      "pical": 2111,
      "lt": 2112,
      "champ": 2113,
      "hor": 2114,
      "former": 2115,
      "original": 2116,
      "within": 2117,
      "list": 2118,
      "described": 2119,
      "those": 2120,
      "ution": 2121,
      "ney": 2122,
      "fact": 2123,
      "ord": 2124,
      "forman": 2125,
      "lu": 2126,
      "built": 2127,
      "ness": 2128,
      "board": 2129,
      "dist": 2130,
      "bal": 2131,
      "rench": 2132,
      "next": 2133,
      "ier": 2134,
      "vict": 2135,
      "ians": 2136,
      "bas": 2137,
      "pect": 2138,
      "mbers": 2139,
      "ric": 2140,
      "performan": 2141,
      "storm": 2142,
      "release": 2143,
      "among": 2144,
      "put": 2145,
      "bill": 2146,
      "support": 2147,
      "further": 2148,
      "attem": 2149,
      "ins": 2150,
      "league": 2151,
      "ns": 2152,
      "ark": 2153,
      "rus": 2154,
      "flo": 2155,
      "bert": 2156,
      "sent": 2157,
      "commun": 2158,
      "effect": 2159,
      "ilar": 2160,
      "ont": 2161,
      "foot": 2162,
      "tele": 2163,
      "mc": 2164,
      "placed": 2165,
      "days": 2166,
      "held": 2167,
      "route": 2168,
      "ler": 2169,
      "ared": 2170,
      "white": 2171,
      "ants": 2172,
      "christ": 2173,
      "night": 2174,
      "move": 2175,
      "scen": 2176,
      "sound": 2177,
      "ral": 2178,
      "soci": 2179,
      "fac": 2180,
      "cus": 2181,
      "stit": 2182,
      "half": 2183,
      "rican": 2184,
      "milit": 2185,
      "similar": 2186,
      "division": 2187,
      "bir": 2188,
      "febr": 2189,
      "february": 2190,
      "olog": 2191,
      "augh": 2192,
      "ba": 2193,
      "row": 2194,
      "period": 2195,
      "ben": 2196,
      "ently": 2197,
      "fire": 2198,
      "action": 2199,
      "president": 2200,
      "player": 2201,
      "train": 2202,
      "say": 2203,
      "21": 2204,
      "app": 2205,
      "anim": 2206,
      "came": 2207,
      "station": 2208,
      "rock": 2209,
      "friend": 2210,
      "church": 2211,
      "cup": 2212,
      "prim": 2213,
      "ured": 2214,
      "good": 2215,
      "dan": 2216,
      "ences": 2217,
      "100": 2218,
      "europe": 2219,
      "youn": 2220,
      "blo": 2221,
      "university": 2222,
      "wards": 2223,
      "take": 2224,
      "service": 2225,
      "french": 2226,
      "local": 2227,
      "members": 2228,
      "stree": 2229,
      "22": 2230,
      "role": 2231,
      "estab": 2232,
      "ute": 2233,
      "ator": 2234,
      "hur": 2235,
      "del": 2236,
      "2010": 2237,
      "craft": 2238,
      "dro": 2239,
      "ny": 2240,
      "inc": 2241,
      "moun": 2242,
      "post": 2243,
      "equ": 2244,
      "non": 2245,
      "mit": 2246,
      "pot": 2247,
      "having": 2248,
      "continued": 2249,
      "every": 2250,
      "william": 2251,
      "hun": 2252,
      "never": 2253,
      "prof": 2254,
      "23": 2255,
      "see": 2256,
      "phil": 2257,
      "begin": 2258,
      "key": 2259,
      "tech": 2260,
      "ights": 2261,
      "ats": 2262,
      "chart": 2263,
      "often": 2264,
      "associ": 2265,
      "ged": 2266,
      "sible": 2267,
      "chang": 2268,
      "free": 2269,
      "ga": 2270,
      "ending": 2271,
      "sci": 2272,
      "ran": 2273,
      "ulation": 2274,
      "27": 2275,
      "tor": 2276,
      "bon": 2277,
      "desp": 2278,
      "histor": 2279,
      "2008": 2280,
      "leve": 2281,
      "ff": 2282,
      "2009": 2283,
      "geor": 2284,
      "career": 2285,
      "elect": 2286,
      "court": 2287,
      "cu": 2288,
      "different": 2289,
      "ines": 2290,
      "wat": 2291,
      "champion": 2292,
      "mich": 2293,
      "28": 2294,
      "lat": 2295,
      "2011": 2296,
      "ken": 2297,
      "trad": 2298,
      "ption": 2299,
      "bridge": 2300,
      "without": 2301,
      "gest": 2302,
      "seven": 2303,
      "indu": 2304,
      "net": 2305,
      "ched": 2306,
      "ison": 2307,
      "provid": 2308,
      "western": 2309,
      "despite": 2310,
      "sl": 2311,
      "england": 2312,
      "26": 2313,
      "ars": 2314,
      "wall": 2315,
      "considered": 2316,
      "party": 2317,
      "40": 2318,
      "rich": 2319,
      "pho": 2320,
      "author": 2321,
      "ctions": 2322,
      "tropical": 2323,
      "prote": 2324,
      "bel": 2325,
      "ided": 2326,
      "dav": 2327,
      "development": 2328,
      "served": 2329,
      "pur": 2330,
      "enter": 2331,
      "written": 2332,
      "father": 2333,
      "ret": 2334,
      "2007": 2335,
      "search": 2336,
      "country": 2337,
      "few": 2338,
      "stead": 2339,
      "ural": 2340,
      "county": 2341,
      "influ": 2342,
      "ik": 2343,
      "concer": 2344,
      "refer": 2345,
      "songs": 2346,
      "royal": 2347,
      "uc": 2348,
      "english": 2349,
      "moder": 2350,
      "sug": 2351,
      "ices": 2352,
      "member": 2353,
      "lling": 2354,
      "military": 2355,
      "highway": 2356,
      "face": 2357,
      "wide": 2358,
      "given": 2359,
      "range": 2360,
      "graph": 2361,
      "arri": 2362,
      "beh": 2363,
      "compe": 2364,
      "program": 2365,
      "super": 2366,
      "mp": 2367,
      "ston": 2368,
      "scor": 2369,
      "become": 2370,
      "contr": 2371,
      "2012": 2372,
      "ross": 2373,
      "little": 2374,
      "forces": 2375,
      "ref": 2376,
      "lost": 2377,
      "strong": 2378,
      "ried": 2379,
      "sit": 2380,
      "sto": 2381,
      "ha": 2382,
      "coast": 2383,
      "live": 2384,
      "international": 2385,
      "london": 2386,
      "how": 2387,
      "eder": 2388,
      "hit": 2389,
      "right": 2390,
      "total": 2391,
      "invol": 2392,
      "change": 2393,
      "street": 2394,
      "body": 2395,
      "announ": 2396,
      "front": 2397,
      "29": 2398,
      "hen": 2399,
      "190": 2400,
      "vin": 2401,
      "cir": 2402,
      "sea": 2403,
      "love": 2404,
      "hour": 2405,
      "nel": 2406,
      "struct": 2407,
      "close": 2408,
      "ches": 2409,
      "rail": 2410,
      "quar": 2411,
      "gave": 2412,
      "popular": 2413,
      "iety": 2414,
      "aff": 2415,
      "dri": 2416,
      "decl": 2417,
      "away": 2418,
      "published": 2419,
      "cru": 2420,
      "canad": 2421,
      "mad": 2422,
      "ports": 2423,
      "bri": 2424,
      "successful": 2425,
      "cho": 2426,
      "represent": 2427,
      "sure": 2428,
      "performance": 2429,
      "project": 2430,
      "produced": 2431,
      "ring": 2432,
      "stated": 2433,
      "bs": 2434,
      "ards": 2435,
      "lie": 2436,
      "ery": 2437,
      "returned": 2438,
      "children": 2439,
      "ext": 2440,
      "need": 2441,
      "common": 2442,
      "broad": 2443,
      "base": 2444,
      "aver": 2445,
      "ified": 2446,
      "wing": 2447,
      "iment": 2448,
      "fail": 2449,
      "too": 2450,
      "ives": 2451,
      "making": 2452,
      "voc": 2453,
      "reported": 2454,
      "grad": 2455,
      "ws": 2456,
      "aren": 2457,
      "interest": 2458,
      "xim": 2459,
      "rain": 2460,
      "look": 2461,
      "curren": 2462,
      "recorded": 2463,
      "writing": 2464,
      "particular": 2465,
      "san": 2466,
      "jack": 2467,
      "mur": 2468,
      "teen": 2469,
      "television": 2470,
      "hon": 2471,
      "official": 2472,
      "ably": 2473,
      "2006": 2474,
      "ban": 2475,
      "aircraft": 2476,
      "special": 2477,
      "uk": 2478,
      "aign": 2479,
      "dou": 2480,
      "ission": 2481,
      "gold": 2482,
      "covered": 2483,
      "campaign": 2484,
      "should": 2485,
      "import": 2486,
      "include": 2487,
      "coming": 2488,
      "cross": 2489,
      "room": 2490,
      "ior": 2491,
      "upon": 2492,
      "control": 2493,
      "critic": 2494,
      "stat": 2495,
      "rit": 2496,
      "intro": 2497,
      "women": 2498,
      "press": 2499,
      "central": 2500,
      "suf": 2501,
      "style": 2502,
      "arm": 2503,
      "stone": 2504,
      "hurrican": 2505,
      "ink": 2506,
      "gn": 2507,
      "once": 2508,
      "died": 2509,
      "throughout": 2510,
      "destroy": 2511,
      "pal": 2512,
      "cum": 2513,
      "sex": 2514,
      "fav": 2515,
      "male": 2516,
      "sil": 2517,
      "cul": 2518,
      "young": 2519,
      "mission": 2520,
      "race": 2521,
      "nal": 2522,
      "works": 2523,
      "fan": 2524,
      "himself": 2525,
      "ama": 2526,
      "anted": 2527,
      "fran": 2528,
      "hard": 2529,
      "2013": 2530,
      "tar": 2531,
      "depend": 2532,
      "sun": 2533,
      "hill": 2534,
      "istr": 2535,
      "mix": 2536,
      "vill": 2537,
      "australia": 2538,
      "construction": 2539,
      "depart": 2540,
      "characters": 2541,
      "clear": 2542,
      "introdu": 2543,
      "ively": 2544,
      "ops": 2545,
      "commit": 2546,
      "mas": 2547,
      "expl": 2548,
      "eight": 2549,
      "cing": 2550,
      "big": 2551,
      "pit": 2552,
      "players": 2553,
      "located": 2554,
      "utes": 2555,
      "believ": 2556,
      "cop": 2557,
      "title": 2558,
      "ever": 2559,
      "ming": 2560,
      "conne": 2561,
      "developed": 2562,
      "189": 2563,
      "instead": 2564,
      "ni": 2565,
      "squad": 2566,
      "mark": 2567,
      "ploy": 2568,
      "southern": 2569,
      "james": 2570,
      "saw": 2571,
      "ane": 2572,
      "result": 2573,
      "iness": 2574,
      "acy": 2575,
      "ded": 2576,
      "signific": 2577,
      "ges": 2578,
      "center": 2579,
      "lled": 2580,
      "across": 2581,
      "alth": 2582,
      "grand": 2583,
      "remained": 2584,
      "months": 2585,
      "activ": 2586,
      "return": 2587,
      "exp": 2588,
      "chan": 2589,
      "break": 2590,
      "reed": 2591,
      "ways": 2592,
      "political": 2593,
      "ping": 2594,
      "hing": 2595,
      "60": 2596,
      "wa": 2597,
      "akes": 2598,
      "modern": 2599,
      "hall": 2600,
      "taken": 2601,
      "pra": 2602,
      "itions": 2603,
      "various": 2604,
      "lies": 2605,
      "coll": 2606,
      "fif": 2607,
      "ana": 2608,
      "ither": 2609,
      "trave": 2610,
      "born": 2611,
      "hurricane": 2612,
      "experi": 2613,
      "toge": 2614,
      "seen": 2615,
      "together": 2616,
      "felt": 2617,
      "formation": 2618,
      "conf": 2619,
      "ability": 2620,
      "cil": 2621,
      "vil": 2622,
      "commission": 2623,
      "ival": 2624,
      "ago": 2625,
      "round": 2626,
      "bow": 2627,
      "ains": 2628,
      "office": 2629,
      "bul": 2630,
      "ae": 2631,
      "complete": 2632,
      "stage": 2633,
      "dom": 2634,
      "created": 2635,
      "lied": 2636,
      "aster": 2637,
      "ey": 2638,
      "pan": 2639,
      "america": 2640,
      "vest": 2641,
      "miles": 2642,
      "pted": 2643,
      "noted": 2644,
      "areas": 2645,
      "full": 2646,
      "announced": 2647,
      "eventually": 2648,
      "inv": 2649,
      "appeared": 2650,
      "brother": 2651,
      "mass": 2652,
      "george": 2653,
      "ctor": 2654,
      "ael": 2655,
      "reached": 2656,
      "college": 2657,
      "pain": 2658,
      "fight": 2659,
      "recording": 2660,
      "mm": 2661,
      "engine": 2662,
      "rap": 2663,
      "occur": 2664,
      "tell": 2665,
      "gree": 2666,
      "pression": 2667,
      "mother": 2668,
      "case": 2669,
      "northern": 2670,
      "got": 2671,
      "lines": 2672,
      "japanese": 2673,
      "cost": 2674,
      "2005": 2675,
      "aval": 2676,
      "performed": 2677,
      "gir": 2678,
      "dre": 2679,
      "sele": 2680,
      "process": 2681,
      "abor": 2682,
      "mir": 2683,
      "heavy": 2684,
      "points": 2685,
      "followed": 2686,
      "ino": 2687,
      "meet": 2688,
      "abo": 2689,
      "tail": 2690,
      "civ": 2691,
      "pair": 2692,
      "iting": 2693,
      "viet": 2694,
      "impro": 2695,
      "2014": 2696,
      "significant": 2697,
      "ka": 2698,
      "mean": 2699,
      "human": 2700,
      "football": 2701,
      "section": 2702,
      "bank": 2703,
      "hu": 2704,
      "treat": 2705,
      "qual": 2706,
      "profess": 2707,
      "level": 2708,
      "killed": 2709,
      "playing": 2710,
      "debut": 2711,
      "gg": 2712,
      "antic": 2713,
      "earli": 2714,
      "termin": 2715,
      "mph": 2716,
      "reco": 2717,
      "soon": 2718,
      "current": 2719,
      "relation": 2720,
      "lished": 2721,
      "adv": 2722,
      "brown": 2723,
      "green": 2724,
      "thought": 2725,
      "ties": 2726,
      "does": 2727,
      "itive": 2728,
      "thom": 2729,
      "established": 2730,
      "spr": 2731,
      "ones": 2732,
      "cat": 2733,
      "nes": 2734,
      "ribut": 2735,
      "originally": 2736,
      "ues": 2737,
      "wel": 2738,
      "mac": 2739,
      "lower": 2740,
      "sess": 2741,
      "strict": 2742,
      "michael": 2743,
      "others": 2744,
      "ought": 2745,
      "subsequ": 2746,
      "director": 2747,
      "ization": 2748,
      "lou": 2749,
      "tru": 2750,
      "whe": 2751,
      "thre": 2752,
      "started": 2753,
      "quest": 2754,
      "entire": 2755,
      "enced": 2756,
      "bin": 2757,
      "tee": 2758,
      "david": 2759,
      "cred": 2760,
      "australian": 2761,
      "exe": 2762,
      "pie": 2763,
      "spir": 2764,
      "features": 2765,
      "ister": 2766,
      "dem": 2767,
      "nine": 2768,
      "surv": 2769,
      "cret": 2770,
      "reve": 2771,
      "audi": 2772,
      "atic": 2773,
      "rid": 2774,
      "conom": 2775,
      "decided": 2776,
      "business": 2777,
      "tra": 2778,
      "critics": 2779,
      "nar": 2780,
      "econom": 2781,
      "feet": 2782,
      "caused": 2783,
      "scre": 2784,
      "pred": 2785,
      "idence": 2786,
      "aves": 2787,
      "union": 2788,
      "civil": 2789,
      "ko": 2790,
      "rather": 2791,
      "mater": 2792,
      "site": 2793,
      "fourth": 2794,
      "soc": 2795,
      "opened": 2796,
      "ray": 2797,
      "fleet": 2798,
      "ample": 2799,
      "ox": 2800,
      "added": 2801,
      "sold": 2802,
      "bi": 2803,
      "loss": 2804,
      "aring": 2805,
      "important": 2806,
      "ony": 2807,
      "behind": 2808,
      "research": 2809,
      "exist": 2810,
      "magaz": 2811,
      "jour": 2812,
      "imp": 2813,
      "independ": 2814,
      "bc": 2815,
      "han": 2816,
      "educ": 2817,
      "188": 2818,
      "uses": 2819,
      "medi": 2820,
      "ators": 2821,
      "here": 2822,
      "squadron": 2823,
      "sus": 2824,
      "championship": 2825,
      "comment": 2826,
      "bes": 2827,
      "possible": 2828,
      "anti": 2829,
      "ime": 2830,
      "cou": 2831,
      "ief": 2832,
      "population": 2833,
      "leading": 2834,
      "tom": 2835,
      "inj": 2836,
      "rought": 2837,
      "radio": 2838,
      "theast": 2839,
      "space": 2840,
      "pract": 2841,
      "guns": 2842,
      "eastern": 2843,
      "completed": 2844,
      "scri": 2845,
      "damage": 2846,
      "leader": 2847,
      "sat": 2848,
      "almost": 2849,
      "invest": 2850,
      "mes": 2851,
      "working": 2852,
      "jud": 2853,
      "peak": 2854,
      "fish": 2855,
      "thus": 2856,
      "worked": 2857,
      "sam": 2858,
      "inst": 2859,
      "ient": 2860,
      "ilo": 2861,
      "region": 2862,
      "awards": 2863,
      "initially": 2864,
      "sib": 2865,
      "bay": 2866,
      "tic": 2867,
      "mart": 2868,
      "social": 2869,
      "kingdom": 2870,
      "gal": 2871,
      "lack": 2872,
      "type": 2873,
      "2004": 2874,
      "boy": 2875,
      "los": 2876,
      "bey": 2877,
      "cts": 2878,
      "ids": 2879,
      "oney": 2880,
      "ances": 2881,
      "laun": 2882,
      "dle": 2883,
      "proble": 2884,
      "forced": 2885,
      "alter": 2886,
      "ising": 2887,
      "tradition": 2888,
      "assist": 2889,
      "demo": 2890,
      "individ": 2891,
      "draw": 2892,
      "ceed": 2893,
      "sour": 2894,
      "itar": 2895,
      "separ": 2896,
      "regular": 2897,
      "31": 2898,
      "ram": 2899,
      "scene": 2900,
      "personal": 2901,
      "cult": 2902,
      "weeks": 2903,
      "france": 2904,
      "mult": 2905,
      "2015": 2906,
      "respect": 2907,
      "bell": 2908,
      "help": 2909,
      "bit": 2910,
      "mary": 2911,
      "diffic": 2912,
      "rank": 2913,
      "da": 2914,
      "hab": 2915,
      "fig": 2916,
      "towards": 2917,
      "execut": 2918,
      "operation": 2919,
      "ply": 2920,
      "term": 2921,
      "tained": 2922,
      "ying": 2923,
      "avail": 2924,
      "box": 2925,
      "god": 2926,
      "joined": 2927,
      "approach": 2928,
      "hip": 2929,
      "council": 2930,
      "pi": 2931,
      "commer": 2932,
      "compan": 2933,
      "ature": 2934,
      "ready": 2935,
      "bio": 2936,
      "wanted": 2937,
      "70": 2938,
      "chief": 2939,
      "attempt": 2940,
      "feel": 2941,
      "henry": 2942,
      "pointed": 2943,
      "turn": 2944,
      "goal": 2945,
      "material": 2946,
      "bomb": 2947,
      "washing": 2948,
      "hop": 2949,
      "decis": 2950,
      "cali": 2951,
      "allowed": 2952,
      "records": 2953,
      "mith": 2954,
      "training": 2955,
      "leng": 2956,
      "cell": 2957,
      "scored": 2958,
      "recogn": 2959,
      "ker": 2960,
      "wife": 2961,
      "provided": 2962,
      "navy": 2963,
      "least": 2964,
      "rul": 2965,
      "ministr": 2966,
      "ency": 2967,
      "rang": 2968,
      "quick": 2969,
      "emy": 2970,
      "asing": 2971,
      "secret": 2972,
      "claimed": 2973,
      "crew": 2974,
      "35": 2975,
      "span": 2976,
      "nomin": 2977,
      "average": 2978,
      "brought": 2979,
      "fly": 2980,
      "80": 2981,
      "shot": 2982,
      "dut": 2983,
      "earth": 2984,
      "priv": 2985,
      "counter": 2986,
      "cong": 2987,
      "brig": 2988,
      "featured": 2989,
      "know": 2990,
      "estim": 2991,
      "redu": 2992,
      "either": 2993,
      "corpor": 2994,
      "tempor": 2995,
      "proper": 2996,
      "russi": 2997,
      "past": 2998,
      "ened": 2999,
      "employ": 3000,
      "logy": 3001,
      "500": 3002,
      "ado": 3003,
      "memor": 3004,
      "ends": 3005,
      "regard": 3006,
      "feder": 3007,
      "passed": 3008,
      "ith": 3009,
      "summer": 3010,
      "stop": 3011,
      "ager": 3012,
      "consist": 3013,
      "nia": 3014,
      "keep": 3015,
      "victory": 3016,
      "mic": 3017,
      "troops": 3018,
      "asy": 3019,
      "generally": 3020,
      "studio": 3021,
      "fut": 3022,
      "captain": 3023,
      "defe": 3024,
      "washington": 3025,
      "rac": 3026,
      "castle": 3027,
      "bound": 3028,
      "runs": 3029,
      "must": 3030,
      "forms": 3031,
      "uel": 3032,
      "victor": 3033,
      "aven": 3034,
      "aper": 3035,
      "robert": 3036,
      "prison": 3037,
      "example": 3038,
      "186": 3039,
      "pay": 3040,
      "hig": 3041,
      "events": 3042,
      "igned": 3043,
      "magazine": 3044,
      "condu": 3045,
      "beat": 3046,
      "concl": 3047,
      "finished": 3048,
      "ake": 3049,
      "host": 3050,
      "revol": 3051,
      "hest": 3052,
      "dark": 3053,
      "icated": 3054,
      "lot": 3055,
      "middle": 3056,
      "battal": 3057,
      "speed": 3058,
      "assi": 3059,
      "opening": 3060,
      "2003": 3061,
      "ential": 3062,
      "imin": 3063,
      "particip": 3064,
      "bad": 3065,
      "designed": 3066,
      "verse": 3067,
      "length": 3068,
      "spo": 3069,
      "paul": 3070,
      "hours": 3071,
      "certain": 3072,
      "media": 3073,
      "tex": 3074,
      "ville": 3075,
      "writer": 3076,
      "ades": 3077,
      "aut": 3078,
      "parts": 3079,
      "ata": 3080,
      "believed": 3081,
      "relig": 3082,
      "drop": 3083,
      "police": 3084,
      "fi": 3085,
      "comes": 3086,
      "lake": 3087,
      "taking": 3088,
      "winds": 3089,
      "cially": 3090,
      "cycl": 3091,
      "ense": 3092,
      "suffer": 3093,
      "beginning": 3094,
      "chest": 3095,
      "atl": 3096,
      "lor": 3097,
      "available": 3098,
      "stant": 3099,
      "acted": 3100,
      "inten": 3101,
      "lands": 3102,
      "going": 3103,
      "replaced": 3104,
      "roman": 3105,
      "wit": 3106,
      "prior": 3107,
      "bour": 3108,
      "langu": 3109,
      "tel": 3110,
      "emp": 3111,
      "minutes": 3112,
      "native": 3113,
      "involved": 3114,
      "ering": 3115,
      "liver": 3116,
      "european": 3117,
      "za": 3118,
      "phys": 3119,
      "ention": 3120,
      "acc": 3121,
      "earlier": 3122,
      "active": 3123,
      "erous": 3124,
      "sey": 3125,
      "turned": 3126,
      "society": 3127,
      "jer": 3128,
      "hous": 3129,
      "appearance": 3130,
      "staff": 3131,
      "saying": 3132,
      "heart": 3133,
      "hold": 3134,
      "itor": 3135,
      "tv": 3136,
      "immedi": 3137,
      "plat": 3138,
      "compl": 3139,
      "association": 3140,
      "2000": 3141,
      "45": 3142,
      "hib": 3143,
      "75": 3144,
      "bis": 3145,
      "particularly": 3146,
      "highest": 3147,
      "mountain": 3148,
      "films": 3149,
      "largest": 3150,
      "vic": 3151,
      "deal": 3152,
      "ax": 3153,
      "issue": 3154,
      "news": 3155,
      "suggest": 3156,
      "scott": 3157,
      "virgin": 3158,
      "asked": 3159,
      "nd": 3160,
      "date": 3161,
      "pac": 3162,
      "percent": 3163,
      "stre": 3164,
      "achie": 3165,
      "meas": 3166,
      "better": 3167,
      "aled": 3168,
      "iction": 3169,
      "2001": 3170,
      "cher": 3171,
      "iss": 3172,
      "icle": 3173,
      "reason": 3174,
      "daugh": 3175,
      "typ": 3176,
      "lear": 3177,
      "plot": 3178,
      "ky": 3179,
      "stry": 3180,
      "outside": 3181,
      "signed": 3182,
      "charles": 3183,
      "cks": 3184,
      "ides": 3185,
      "promo": 3186,
      "nu": 3187,
      "tries": 3188,
      "thomas": 3189,
      "ald": 3190,
      "graphy": 3191,
      "ond": 3192,
      "units": 3193,
      "weak": 3194,
      "increased": 3195,
      "ible": 3196,
      "smith": 3197,
      "lay": 3198,
      "ument": 3199,
      "mach": 3200,
      "istic": 3201,
      "gs": 3202,
      "phy": 3203,
      "mou": 3204,
      "reviews": 3205,
      "tou": 3206,
      "ather": 3207,
      "praised": 3208,
      "motion": 3209,
      "load": 3210,
      "pressed": 3211,
      "infan": 3212,
      "community": 3213,
      "chin": 3214,
      "pected": 3215,
      "future": 3216,
      "califor": 3217,
      "acad": 3218,
      "fit": 3219,
      "governor": 3220,
      "ateg": 3221,
      "relationship": 3222,
      "ored": 3223,
      "nation": 3224,
      "coach": 3225,
      "additional": 3226,
      "broadcast": 3227,
      "above": 3228,
      "dig": 3229,
      "prin": 3230,
      "liter": 3231,
      "2002": 3232,
      "enough": 3233,
      "tion": 3234,
      "ida": 3235,
      "ordered": 3236,
      "usually": 3237,
      "90": 3238,
      "natural": 3239,
      "fre": 3240,
      "guitar": 3241,
      "canada": 3242,
      "era": 3243,
      "peter": 3244,
      "argu": 3245,
      "soldi": 3246,
      "ples": 3247,
      "give": 3248,
      "ape": 3249,
      "standing": 3250,
      "alo": 3251,
      "theat": 3252,
      "acqu": 3253,
      "viol": 3254,
      "mun": 3255,
      "pts": 3256,
      "liber": 3257,
      "agon": 3258,
      "domin": 3259,
      "accoun": 3260,
      "previously": 3261,
      "rights": 3262,
      "constit": 3263,
      "premi": 3264,
      "find": 3265,
      "stra": 3266,
      "musical": 3267,
      "cis": 3268,
      "resident": 3269,
      "told": 3270,
      "tax": 3271,
      "dead": 3272,
      "infantry": 3273,
      "minor": 3274,
      "ilities": 3275,
      "critical": 3276,
      "committee": 3277,
      "territ": 3278,
      "rison": 3279,
      "occup": 3280,
      "richard": 3281,
      "elements": 3282,
      "indian": 3283,
      "instit": 3284,
      "positive": 3285,
      "threat": 3286,
      "defin": 3287,
      "ize": 3288,
      "chap": 3289,
      "ai": 3290,
      "ayed": 3291,
      "california": 3292,
      "lyr": 3293,
      "recent": 3294,
      "aps": 3295,
      "specific": 3296,
      "metres": 3297,
      "ener": 3298,
      "amoun": 3299,
      "emer": 3300,
      "explo": 3301,
      "capt": 3302,
      "bers": 3303,
      "woman": 3304,
      "arily": 3305,
      "appointed": 3306,
      "colum": 3307,
      "female": 3308,
      "fest": 3309,
      "food": 3310,
      "ico": 3311,
      "money": 3312,
      "spent": 3313,
      "report": 3314,
      "difficult": 3315,
      "ases": 3316,
      "contribut": 3317,
      "pow": 3318,
      "overall": 3319,
      "lee": 3320,
      "blue": 3321,
      "groups": 3322,
      "directed": 3323,
      "alex": 3324,
      "pul": 3325,
      "reser": 3326,
      "asse": 3327,
      "perform": 3328,
      "vert": 3329,
      "flood": 3330,
      "structure": 3331,
      "screen": 3332,
      "failed": 3333,
      "interview": 3334,
      "gi": 3335,
      "ensive": 3336,
      "rup": 3337,
      "zer": 3338,
      "ctive": 3339,
      "exten": 3340,
      "yard": 3341,
      "poor": 3342,
      "ference": 3343,
      "square": 3344,
      "lad": 3345,
      "health": 3346,
      "required": 3347,
      "prepar": 3348,
      "hot": 3349,
      "novel": 3350,
      "photo": 3351,
      "frank": 3352,
      "tw": 3353,
      "cam": 3354,
      "ali": 3355,
      "usion": 3356,
      "minister": 3357,
      "die": 3358,
      "limited": 3359,
      "india": 3360,
      "dev": 3361,
      "reng": 3362,
      "word": 3363,
      "prevent": 3364,
      "christian": 3365,
      "187": 3366,
      "germany": 3367,
      "district": 3368,
      "actions": 3369,
      "fant": 3370,
      "science": 3371,
      "itself": 3372,
      "evidence": 3373,
      "lam": 3374,
      "rating": 3375,
      "sometimes": 3376,
      "frequ": 3377,
      "changes": 3378,
      "introduced": 3379,
      "mex": 3380,
      "reception": 3381,
      "cli": 3382,
      "prob": 3383,
      "commercial": 3384,
      "seem": 3385,
      "tured": 3386,
      "contract": 3387,
      "election": 3388,
      "odes": 3389,
      "course": 3390,
      "battalion": 3391,
      "streng": 3392,
      "deep": 3393,
      "investig": 3394,
      "transfer": 3395,
      "except": 3396,
      "study": 3397,
      "living": 3398,
      "stars": 3399,
      "clim": 3400,
      "onto": 3401,
      "ultim": 3402,
      "avo": 3403,
      "exper": 3404,
      "wind": 3405,
      "flight": 3406,
      "administr": 3407,
      "score": 3408,
      "whose": 3409,
      "berg": 3410,
      "flow": 3411,
      "idea": 3412,
      "ology": 3413,
      "already": 3414,
      "dies": 3415,
      "situ": 3416,
      "ching": 3417,
      "approxim": 3418,
      "agree": 3419,
      "va": 3420,
      "queen": 3421,
      "compet": 3422,
      "defeated": 3423,
      "bud": 3424,
      "slow": 3425,
      "background": 3426,
      "education": 3427,
      "whom": 3428,
      "flor": 3429,
      "cit": 3430,
      "names": 3431,
      "igan": 3432,
      "might": 3433,
      "tu": 3434,
      "mode": 3435,
      "students": 3436,
      "muse": 3437,
      "changed": 3438,
      "chester": 3439,
      "len": 3440,
      "eli": 3441,
      "quickly": 3442,
      "erson": 3443,
      "kets": 3444,
      "ush": 3445,
      "hero": 3446,
      "entertain": 3447,
      "gard": 3448,
      "effects": 3449,
      "sis": 3450,
      "surface": 3451,
      "fied": 3452,
      "favor": 3453,
      "movement": 3454,
      "transport": 3455,
      "tracks": 3456,
      "response": 3457,
      "bot": 3458,
      "prog": 3459,
      "espe": 3460,
      "hosp": 3461,
      "subject": 3462,
      "hood": 3463,
      "lord": 3464,
      "worth": 3465,
      "scenes": 3466,
      "girl": 3467,
      "commander": 3468,
      "moving": 3469,
      "aining": 3470,
      "your": 3471,
      "burg": 3472,
      "decision": 3473,
      "fifth": 3474,
      "plant": 3475,
      "cele": 3476,
      "horse": 3477,
      "department": 3478,
      "cm": 3479,
      "agreed": 3480,
      "related": 3481,
      "via": 3482,
      "arrived": 3483,
      "centre": 3484,
      "sand": 3485,
      "join": 3486,
      "especially": 3487,
      "likely": 3488,
      "adap": 3489,
      "tons": 3490,
      "oly": 3491,
      "services": 3492,
      "britain": 3493,
      "parliam": 3494,
      "consider": 3495,
      "sons": 3496,
      "teams": 3497,
      "quarter": 3498,
      "fair": 3499,
      "dance": 3500,
      "voice": 3501,
      "museum": 3502,
      "shows": 3503,
      "village": 3504,
      "suit": 3505,
      "object": 3506,
      "depression": 3507,
      "text": 3508,
      "icted": 3509,
      "latter": 3510,
      "gas": 3511,
      "industry": 3512,
      "chic": 3513,
      "nings": 3514,
      "ication": 3515,
      "operations": 3516,
      "larger": 3517,
      "acce": 3518,
      "listed": 3519,
      "estimated": 3520,
      "size": 3521,
      "ses": 3522,
      "becoming": 3523,
      "cape": 3524,
      "33": 3525,
      "aint": 3526,
      "ara": 3527,
      "daughter": 3528,
      "docum": 3529,
      "episodes": 3530,
      "discus": 3531,
      "carried": 3532,
      "parliament": 3533,
      "remaining": 3534,
      "cting": 3535,
      "legal": 3536,
      "married": 3537,
      "establish": 3538,
      "gested": 3539,
      "polic": 3540,
      "ror": 3541,
      "pressure": 3542,
      "blood": 3543,
      "sell": 3544,
      "running": 3545,
      "forest": 3546,
      "1999": 3547,
      "pil": 3548,
      "brief": 3549,
      "flag": 3550,
      "upper": 3551,
      "winter": 3552,
      "leaving": 3553,
      "virginia": 3554,
      "naval": 3555,
      "winning": 3556,
      "acts": 3557,
      "chall": 3558,
      "breed": 3559,
      "entered": 3560,
      "cree": 3561,
      "spring": 3562,
      "paren": 3563,
      "meth": 3564,
      "suggested": 3565,
      "aging": 3566,
      "joy": 3567,
      "iel": 3568,
      "cand": 3569,
      "temporary": 3570,
      "nearly": 3571,
      "equip": 3572,
      "sky": 3573,
      "tural": 3574,
      "fell": 3575,
      "influence": 3576,
      "books": 3577,
      "approximately": 3578,
      "twent": 3579,
      "experience": 3580,
      "occas": 3581,
      "secur": 3582,
      "nic": 3583,
      "atory": 3584,
      "36": 3585,
      "anal": 3586,
      "location": 3587,
      "capital": 3588,
      "kes": 3589,
      "pose": 3590,
      "language": 3591,
      "syn": 3592,
      "shortly": 3593,
      "islands": 3594,
      "envir": 3595,
      "jackson": 3596,
      "empire": 3597,
      "network": 3598,
      "finally": 3599,
      "today": 3600,
      "deb": 3601,
      "mixed": 3602,
      "gian": 3603,
      "37": 3604,
      "forward": 3605,
      "federal": 3606,
      "access": 3607,
      "grow": 3608,
      "relative": 3609,
      "ander": 3610,
      "detail": 3611,
      "regiment": 3612,
      "purch": 3613,
      "proposed": 3614,
      "louis": 3615,
      "producer": 3616,
      "nature": 3617,
      "manager": 3618,
      "aries": 3619,
      "shire": 3620,
      "higher": 3621,
      "rate": 3622,
      "destroyed": 3623,
      "carri": 3624,
      "kin": 3625,
      "repe": 3626,
      "distri": 3627,
      "finan": 3628,
      "olymp": 3629,
      "bring": 3630,
      "selves": 3631,
      "environ": 3632,
      "corps": 3633,
      "professional": 3634,
      "intended": 3635,
      "create": 3636,
      "done": 3637,
      "jun": 3638,
      "spanish": 3639,
      "glo": 3640,
      "provide": 3641,
      "railway": 3642,
      "stan": 3643,
      "ging": 3644,
      "subsequently": 3645,
      "journal": 3646,
      "captured": 3647,
      "mr": 3648,
      "friends": 3649,
      "master": 3650,
      "supported": 3651,
      "tery": 3652,
      "compared": 3653,
      "brigade": 3654,
      "stad": 3655,
      "unit": 3656,
      "bran": 3657,
      "color": 3658,
      "attr": 3659,
      "democr": 3660,
      "battles": 3661,
      "immediately": 3662,
      "gue": 3663,
      "prince": 3664,
      "temper": 3665,
      "hi": 3666,
      "soviet": 3667,
      "private": 3668,
      "complex": 3669,
      "32": 3670,
      "expected": 3671,
      "actor": 3672,
      "ishing": 3673,
      "fill": 3674,
      "38": 3675,
      "birth": 3676,
      "scient": 3677,
      "ams": 3678,
      "fans": 3679,
      "mel": 3680,
      "iation": 3681,
      "tun": 3682,
      "iron": 3683,
      "weap": 3684,
      "planned": 3685,
      "jim": 3686,
      "ius": 3687,
      "block": 3688,
      "mouth": 3689,
      "feature": 3690,
      "initial": 3691,
      "awarded": 3692,
      "agement": 3693,
      "chicago": 3694,
      "fully": 3695,
      "increasing": 3696,
      "whether": 3697,
      "49": 3698,
      "helped": 3699,
      "comb": 3700,
      "closed": 3701,
      "archite": 3702,
      "ological": 3703,
      "icles": 3704,
      "legis": 3705,
      "acting": 3706,
      "chinese": 3707,
      "mig": 3708,
      "issued": 3709,
      "marked": 3710,
      "officer": 3711,
      "kilo": 3712,
      "1998": 3713,
      "trade": 3714,
      "affe": 3715,
      "secut": 3716,
      "possib": 3717,
      "yet": 3718,
      "longer": 3719,
      "reli": 3720,
      "buildings": 3721,
      "eve": 3722,
      "comed": 3723,
      "edward": 3724,
      "soldiers": 3725,
      "billboard": 3726,
      "insp": 3727,
      "185": 3728,
      "cause": 3729,
      "conserv": 3730,
      "script": 3731,
      "fast": 3732,
      "valley": 3733,
      "teach": 3734,
      "aker": 3735,
      "plans": 3736,
      "wed": 3737,
      "positions": 3738,
      "haw": 3739,
      "safe": 3740,
      "sail": 3741,
      "roun": 3742,
      "bury": 3743,
      "associated": 3744,
      "arg": 3745,
      "distribut": 3746,
      "iple": 3747,
      "something": 3748,
      "pacific": 3749,
      "phen": 3750,
      "gor": 3751,
      "300": 3752,
      "instr": 3753,
      "officers": 3754,
      "iii": 3755,
      "singles": 3756,
      "remains": 3757,
      "ipal": 3758,
      "johnson": 3759,
      "atlantic": 3760,
      "mostly": 3761,
      "ordin": 3762,
      "exam": 3763,
      "themselves": 3764,
      "anna": 3765,
      "oce": 3766,
      "countries": 3767,
      "pict": 3768,
      "defeat": 3769,
      "want": 3770,
      "extended": 3771,
      "step": 3772,
      "information": 3773,
      "lyrics": 3774,
      "visit": 3775,
      "kore": 3776,
      "really": 3777,
      "1st": 3778,
      "probably": 3779,
      "demon": 3780,
      "dol": 3781,
      "market": 3782,
      "zo": 3783,
      "rica": 3784,
      "numerous": 3785,
      "lock": 3786,
      "traf": 3787,
      "habit": 3788,
      "appears": 3789,
      "singer": 3790,
      "copies": 3791,
      "ender": 3792,
      "portr": 3793,
      "always": 3794,
      "scot": 3795,
      "admir": 3796,
      "sett": 3797,
      "34": 3798,
      "sales": 3799,
      "py": 3800,
      "goals": 3801,
      "mitted": 3802,
      "demand": 3803,
      "issues": 3804,
      "awn": 3805,
      "aught": 3806,
      "oh": 3807,
      "cruis": 3808,
      "auto": 3809,
      "request": 3810,
      "classi": 3811,
      "marine": 3812,
      "china": 3813,
      "individual": 3814,
      "kar": 3815,
      "tank": 3816,
      "energy": 3817,
      "leave": 3818,
      "status": 3819,
      "congress": 3820,
      "1997": 3821,
      "colon": 3822,
      "takes": 3823,
      "amed": 3824,
      "includes": 3825,
      "conference": 3826,
      "jected": 3827,
      "standard": 3828,
      "advan": 3829,
      "andon": 3830,
      "suffered": 3831,
      "neg": 3832,
      "movie": 3833,
      "marri": 3834,
      "sor": 3835,
      "ories": 3836,
      "hospital": 3837,
      "florida": 3838,
      "hus": 3839,
      "yards": 3840,
      "expand": 3841,
      "maxim": 3842,
      "albums": 3843,
      "inspired": 3844,
      "cham": 3845,
      "edition": 3846,
      "problems": 3847,
      "meeting": 3848,
      "weight": 3849,
      "martin": 3850,
      "rick": 3851,
      "rated": 3852,
      "double": 3853,
      "attacks": 3854,
      "sir": 3855,
      "psy": 3856,
      "increase": 3857,
      "48": 3858,
      "letter": 3859,
      "confir": 3860,
      "bing": 3861,
      "minute": 3862,
      "makes": 3863,
      "carry": 3864,
      "spect": 3865,
      "icket": 3866,
      "independent": 3867,
      "mont": 3868,
      "ull": 3869,
      "uded": 3870,
      "fighting": 3871,
      "removed": 3872,
      "revolution": 3873,
      "celebr": 3874,
      "texas": 3875,
      "roll": 3876,
      "spl": 3877,
      "artist": 3878,
      "card": 3879,
      "dred": 3880,
      "ula": 3881,
      "rd": 3882,
      "forts": 3883,
      "foreign": 3884,
      "offered": 3885,
      "saur": 3886,
      "stic": 3887,
      "majority": 3888,
      "stock": 3889,
      "gil": 3890,
      "portion": 3891,
      "refle": 3892,
      "drum": 3893,
      "terms": 3894,
      "primary": 3895,
      "veh": 3896,
      "creek": 3897,
      "pool": 3898,
      "vey": 3899,
      "metal": 3900,
      "males": 3901,
      "words": 3902,
      "fox": 3903,
      "impact": 3904,
      "shoot": 3905,
      "combat": 3906,
      "composed": 3907,
      "iving": 3908,
      "wild": 3909,
      "discovered": 3910,
      "adop": 3911,
      "dail": 3912,
      "39": 3913,
      "culture": 3914,
      "peace": 3915,
      "model": 3916,
      "entertainment": 3917,
      "convent": 3918,
      "assigned": 3919,
      "ranked": 3920,
      "oil": 3921,
      "pet": 3922,
      "nie": 3923,
      "carol": 3924,
      "giving": 3925,
      "think": 3926,
      "concept": 3927,
      "thur": 3928,
      "guard": 3929,
      "figh": 3930,
      "raised": 3931,
      "environment": 3932,
      "divid": 3933,
      "dv": 3934,
      "bass": 3935,
      "plays": 3936,
      "canadian": 3937,
      "damaged": 3938,
      "alle": 3939,
      "categ": 3940,
      "africa": 3941,
      "daily": 3942,
      "revealed": 3943,
      "47": 3944,
      "selected": 3945,
      "bil": 3946,
      "cere": 3947,
      "launched": 3948,
      "ets": 3949,
      "cyclone": 3950,
      "ously": 3951,
      "isa": 3952,
      "ya": 3953,
      "promis": 3954,
      "techno": 3955,
      "necess": 3956,
      "morning": 3957,
      "ocean": 3958,
      "shar": 3959,
      "conditions": 3960,
      "edge": 3961,
      "piece": 3962,
      "schol": 3963,
      "smo": 3964,
      "republic": 3965,
      "twenty": 3966,
      "greg": 3967,
      "heav": 3968,
      "lived": 3969,
      "russian": 3970,
      "chair": 3971,
      "inside": 3972,
      "rey": 3973,
      "architect": 3974,
      "kent": 3975,
      "greater": 3976,
      "sports": 3977,
      "notes": 3978,
      "dar": 3979,
      "unable": 3980,
      "constructed": 3981,
      "uries": 3982,
      "sched": 3983,
      "ena": 3984,
      "uck": 3985,
      "respectively": 3986,
      "ners": 3987,
      "attacked": 3988,
      "electric": 3989,
      "sister": 3990,
      "wrest": 3991,
      "writers": 3992,
      "whole": 3993,
      "sof": 3994,
      "needed": 3995,
      "fel": 3996,
      "northeast": 3997,
      "ski": 3998,
      "sar": 3999,
      "1995": 4000,
      "confl": 4001,
      "numbers": 4002,
      "aud": 4003,
      "swe": 4004,
      "traditional": 4005,
      "evol": 4006,
      "ask": 4007,
      "houses": 4008,
      "angeles": 4009,
      "smaller": 4010,
      "bob": 4011,
      "wis": 4012,
      "francis": 4013,
      "contains": 4014,
      "cers": 4015,
      "onna": 4016,
      "religious": 4017,
      "below": 4018,
      "gradu": 4019,
      "advance": 4020,
      "attempted": 4021,
      "shown": 4022,
      "wish": 4023,
      "newsp": 4024,
      "sin": 4025,
      "occurred": 4026,
      "boat": 4027,
      "improve": 4028,
      "rare": 4029,
      "festival": 4030,
      "atives": 4031,
      "famil": 4032,
      "uals": 4033,
      "wound": 4034,
      "simp": 4035,
      "mention": 4036,
      "elected": 4037,
      "zz": 4038,
      "2nd": 4039,
      "kel": 4040,
      "ications": 4041,
      "ustr": 4042,
      "annual": 4043,
      "distin": 4044,
      "olic": 4045,
      "collection": 4046,
      "2016": 4047,
      "iter": 4048,
      "guest": 4049,
      "1996": 4050,
      "19th": 4051,
      "ti": 4052,
      "tower": 4053,
      "referred": 4054,
      "1950": 4055,
      "produce": 4056,
      "neigh": 4057,
      "question": 4058,
      "amount": 4059,
      "render": 4060,
      "rose": 4061,
      "theme": 4062,
      "replace": 4063,
      "46": 4064,
      "schools": 4065,
      "kept": 4066,
      "rein": 4067,
      "audience": 4068,
      "largely": 4069,
      "stom": 4070,
      "silver": 4071,
      "resulted": 4072,
      "italian": 4073,
      "build": 4074,
      "economic": 4075,
      "severe": 4076,
      "crow": 4077,
      "dun": 4078,
      "constant": 4079,
      "slight": 4080,
      "tournam": 4081,
      "inch": 4082,
      "mess": 4083,
      "chem": 4084,
      "anth": 4085,
      "variety": 4086,
      "earned": 4087,
      "cath": 4088,
      "sumed": 4089,
      "competition": 4090,
      "arts": 4091,
      "1994": 4092,
      "controver": 4093,
      "stein": 4094,
      "starting": 4095,
      "gate": 4096,
      "prime": 4097,
      "directly": 4098,
      "stream": 4099,
      "kind": 4100,
      "jose": 4101,
      "stadium": 4102,
      "disco": 4103,
      "commented": 4104,
      "document": 4105,
      "sisted": 4106,
      "industri": 4107,
      "attention": 4108,
      "jac": 4109,
      "performances": 4110,
      "fal": 4111,
      "rapid": 4112,
      "scul": 4113,
      "path": 4114,
      "camer": 4115,
      "quarters": 4116,
      "refused": 4117,
      "stories": 4118,
      "cab": 4119,
      "sec": 4120,
      "atest": 4121,
      "install": 4122,
      "extre": 4123,
      "session": 4124,
      "sexual": 4125,
      "trail": 4126,
      "greatest": 4127,
      "ssing": 4128,
      "gam": 4129,
      "traffic": 4130,
      "princ": 4131,
      "indic": 4132,
      "philip": 4133,
      "bol": 4134,
      "zeal": 4135,
      "andre": 4136,
      "michigan": 4137,
      "chor": 4138,
      "declared": 4139,
      "marriage": 4140,
      "direction": 4141,
      "things": 4142,
      "ech": 4143,
      "penn": 4144,
      "serious": 4145,
      "focus": 4146,
      "180": 4147,
      "bia": 4148,
      "matches": 4149,
      "method": 4150,
      "meant": 4151,
      "wales": 4152,
      "defense": 4153,
      "drew": 4154,
      "beth": 4155,
      "vocals": 4156,
      "promin": 4157,
      "ening": 4158,
      "adel": 4159,
      "ira": 4160,
      "hundred": 4161,
      "concert": 4162,
      "touch": 4163,
      "ix": 4164,
      "imper": 4165,
      "levels": 4166,
      "ug": 4167,
      "abandon": 4168,
      "pun": 4169,
      "cases": 4170,
      "izing": 4171,
      "nearby": 4172,
      "weather": 4173,
      "thr": 4174,
      "practice": 4175,
      "inner": 4176,
      "doctor": 4177,
      "resist": 4178,
      "pret": 4179,
      "lane": 4180,
      "sides": 4181,
      "organization": 4182,
      "murder": 4183,
      "ination": 4184,
      "55": 4185,
      "northwest": 4186,
      "determin": 4187,
      "marsh": 4188,
      "windo": 4189,
      "labor": 4190,
      "chron": 4191,
      "source": 4192,
      "fantasy": 4193,
      "uter": 4194,
      "birds": 4195,
      "uten": 4196,
      "cry": 4197,
      "mile": 4198,
      "honor": 4199,
      "ona": 4200,
      "1992": 4201,
      "candid": 4202,
      "beach": 4203,
      "dvd": 4204,
      "incorpor": 4205,
      "admiral": 4206,
      "chris": 4207,
      "wol": 4208,
      "vocal": 4209,
      "favour": 4210,
      "grant": 4211,
      "emper": 4212,
      "separate": 4213,
      "systems": 4214,
      "spot": 4215,
      "highly": 4216,
      "continue": 4217,
      "means": 4218,
      "settle": 4219,
      "nick": 4220,
      "eye": 4221,
      "invas": 4222,
      "44": 4223,
      "rule": 4224,
      "libr": 4225,
      "executive": 4226,
      "medical": 4227,
      "ulated": 4228,
      "farm": 4229,
      "observ": 4230,
      "pack": 4231,
      "urban": 4232,
      "southeast": 4233,
      "pick": 4234,
      "presented": 4235,
      "charge": 4236,
      "ki": 4237,
      "african": 4238,
      "ultimately": 4239,
      "exhib": 4240,
      "reduced": 4241,
      "mechan": 4242,
      "drive": 4243,
      "passing": 4244,
      "zealand": 4245,
      "gall": 4246,
      "divided": 4247,
      "effort": 4248,
      "mexico": 4249,
      "attended": 4250,
      "multiple": 4251,
      "theatre": 4252,
      "tried": 4253,
      "eth": 4254,
      "arab": 4255,
      "ises": 4256,
      "efforts": 4257,
      "vation": 4258,
      "animals": 4259,
      "20th": 4260,
      "vince": 4261,
      "advent": 4262,
      "quality": 4263,
      "pic": 4264,
      "rum": 4265,
      "1930": 4266,
      "coal": 4267,
      "yel": 4268,
      "serve": 4269,
      "function": 4270,
      "studies": 4271,
      "accepted": 4272,
      "symb": 4273,
      "stating": 4274,
      "scr": 4275,
      "saint": 4276,
      "brad": 4277,
      "americ": 4278,
      "bled": 4279,
      "responsible": 4280,
      "financial": 4281,
      "memorial": 4282,
      "lieuten": 4283,
      "wealth": 4284,
      "fund": 4285,
      "nest": 4286,
      "border": 4287,
      "ceremon": 4288,
      "madonna": 4289,
      "trial": 4290,
      "1993": 4291,
      "creation": 4292,
      "1991": 4293,
      "sav": 4294,
      "incident": 4295,
      "founded": 4296,
      "true": 4297,
      "begins": 4298,
      "restor": 4299,
      "jam": 4300,
      "65": 4301,
      "setting": 4302,
      "scotland": 4303,
      "itation": 4304,
      "enemy": 4305,
      "nown": 4306,
      "pin": 4307,
      "jones": 4308,
      "meaning": 4309,
      "sole": 4310,
      "write": 4311,
      "nh": 4312,
      "burn": 4313,
      "aur": 4314,
      "chance": 4315,
      "scale": 4316,
      "managed": 4317,
      "happ": 4318,
      "parents": 4319,
      "stay": 4320,
      "ems": 4321,
      "400": 4322,
      "thick": 4323,
      "protest": 4324,
      "airport": 4325,
      "flying": 4326,
      "lab": 4327,
      "paid": 4328,
      "planet": 4329,
      "visions": 4330,
      "advis": 4331,
      "electron": 4332,
      "greek": 4333,
      "roads": 4334,
      "companies": 4335,
      "activity": 4336,
      "mut": 4337,
      "arms": 4338,
      "fellow": 4339,
      "mind": 4340,
      "resulting": 4341,
      "lip": 4342,
      "tournament": 4343,
      "titled": 4344,
      "loy": 4345,
      "dropped": 4346,
      "thous": 4347,
      "extr": 4348,
      "excl": 4349,
      "painting": 4350,
      "broke": 4351,
      "academy": 4352,
      "showed": 4353,
      "lieutenant": 4354,
      "fat": 4355,
      "authority": 4356,
      "allowing": 4357,
      "policy": 4358,
      "eigh": 4359,
      "aust": 4360,
      "secretary": 4361,
      "folk": 4362,
      "combined": 4363,
      "cub": 4364,
      "strugg": 4365,
      "exped": 4366,
      "extreme": 4367,
      "artill": 4368,
      "latin": 4369,
      "ow": 4370,
      "armed": 4371,
      "administration": 4372,
      "resol": 4373,
      "andy": 4374,
      "ceeded": 4375,
      "williams": 4376,
      "mul": 4377,
      "passeng": 4378,
      "lap": 4379,
      "property": 4380,
      "avoid": 4381,
      "continues": 4382,
      "inches": 4383,
      "emperor": 4384,
      "ament": 4385,
      "artillery": 4386,
      "thin": 4387,
      "spirit": 4388,
      "subsequent": 4389,
      "ome": 4390,
      "artists": 4391,
      "calling": 4392,
      "oth": 4393,
      "kings": 4394,
      "contemporary": 4395,
      "attempts": 4396,
      "territory": 4397,
      "solo": 4398,
      "95": 4399,
      "content": 4400,
      "grade": 4401,
      "account": 4402,
      "selling": 4403,
      "rat": 4404,
      "voy": 4405,
      "accept": 4406,
      "colour": 4407,
      "cities": 4408,
      "pilot": 4409,
      "syl": 4410,
      "deliver": 4411,
      "rot": 4412,
      "cold": 4413,
      "dor": 4414,
      "potential": 4415,
      "behav": 4416,
      "slo": 4417,
      "tree": 4418,
      "viewers": 4419,
      "machine": 4420,
      "studios": 4421,
      "presence": 4422,
      "thousand": 4423,
      "sie": 4424,
      "sixth": 4425,
      "conducted": 4426,
      "sequence": 4427,
      "ulf": 4428,
      "image": 4429,
      "officials": 4430,
      "digital": 4431,
      "egy": 4432,
      "propos": 4433,
      "bishop": 4434,
      "maintain": 4435,
      "wise": 4436,
      "matic": 4437,
      "rev": 4438,
      "sr": 4439,
      "filming": 4440,
      "1942": 4441,
      "repair": 4442,
      "conds": 4443,
      "contrast": 4444,
      "nap": 4445,
      "extensive": 4446,
      "job": 4447,
      "figure": 4448,
      "tam": 4449,
      "collabor": 4450,
      "ja": 4451,
      "scoring": 4452,
      "opport": 4453,
      "defence": 4454,
      "recomm": 4455,
      "sense": 4456,
      "owned": 4457,
      "enn": 4458,
      "twel": 4459,
      "enjoy": 4460,
      "transferred": 4461,
      "yellow": 4462,
      "maximum": 4463,
      "senior": 4464,
      "dome": 4465,
      "demonstr": 4466,
      "theory": 4467,
      "featuring": 4468,
      "opportun": 4469,
      "therefore": 4470,
      "ification": 4471,
      "dise": 4472,
      "pedo": 4473,
      "primarily": 4474,
      "student": 4475,
      "allied": 4476,
      "relatively": 4477,
      "peaked": 4478,
      "becomes": 4479,
      "temple": 4480,
      "ump": 4481,
      "apart": 4482,
      "sip": 4483,
      "accident": 4484,
      "bond": 4485,
      "chos": 4486,
      "lyn": 4487,
      "arthur": 4488,
      "hors": 4489,
      "isation": 4490,
      "ration": 4491,
      "actors": 4492,
      "patter": 4493,
      "strength": 4494,
      "bles": 4495,
      "faced": 4496,
      "actually": 4497,
      "torpedo": 4498,
      "seconds": 4499,
      "oxford": 4500,
      "distance": 4501,
      "travel": 4502,
      "security": 4503,
      "physical": 4504,
      "management": 4505,
      "cert": 4506,
      "citiz": 4507,
      "concluded": 4508,
      "joseph": 4509,
      "beaut": 4510,
      "bird": 4511,
      "sac": 4512,
      "observed": 4513,
      "draft": 4514,
      "agu": 4515,
      "boston": 4516,
      "harrison": 4517,
      "share": 4518,
      "manchester": 4519,
      "table": 4520,
      "battleship": 4521,
      "situation": 4522,
      "alleg": 4523,
      "raid": 4524,
      "affair": 4525,
      "egypt": 4526,
      "prise": 4527,
      "versions": 4528,
      "sions": 4529,
      "invasion": 4530,
      "64": 4531,
      "supp": 4532,
      "results": 4533,
      "swed": 4534,
      "stal": 4535,
      "identified": 4536,
      "ell": 4537,
      "alongside": 4538,
      "conver": 4539,
      "sust": 4540,
      "alone": 4541,
      "hair": 4542,
      "concent": 4543,
      "ressed": 4544,
      "lic": 4545,
      "sources": 4546,
      "benef": 4547,
      "appl": 4548,
      "ots": 4549,
      "owner": 4550,
      "1944": 4551,
      "outs": 4552,
      "hap": 4553,
      "aga": 4554,
      "agreement": 4555,
      "armor": 4556,
      "returning": 4557,
      "mond": 4558,
      "missed": 4559,
      "personnel": 4560,
      "arent": 4561,
      "mob": 4562,
      "historical": 4563,
      "slightly": 4564,
      "hat": 4565,
      "anci": 4566,
      "historian": 4567,
      "mine": 4568,
      "ov": 4569,
      "78": 4570,
      "paper": 4571,
      "paris": 4572,
      "cultural": 4573,
      "ites": 4574,
      "pian": 4575,
      "brid": 4576,
      "41": 4577,
      "nothing": 4578,
      "crash": 4579,
      "appoint": 4580,
      "chi": 4581,
      "dur": 4582,
      "istics": 4583,
      "influenced": 4584,
      "types": 4585,
      "wave": 4586,
      "else": 4587,
      "minim": 4588,
      "surroun": 4589,
      "soundtrack": 4590,
      "bbc": 4591,
      "kg": 4592,
      "medal": 4593,
      "inte": 4594,
      "feed": 4595,
      "custom": 4596,
      "orders": 4597,
      "nominated": 4598,
      "innings": 4599,
      "freed": 4600,
      "vessel": 4601,
      "places": 4602,
      "completely": 4603,
      "imperial": 4604,
      "confirmed": 4605,
      "struck": 4606,
      "anne": 4607,
      "drawn": 4608,
      "athlet": 4609,
      "commissioned": 4610,
      "promoted": 4611,
      "residents": 4612,
      "comedy": 4613,
      "dog": 4614,
      "150": 4615,
      "ify": 4616,
      "attend": 4617,
      "crown": 4618,
      "42": 4619,
      "designated": 4620,
      "1990": 4621,
      "croat": 4622,
      "ays": 4623,
      "core": 4624,
      "iced": 4625,
      "76": 4626,
      "yan": 4627,
      "preser": 4628,
      "gets": 4629,
      "conflict": 4630,
      "capture": 4631,
      "solid": 4632,
      "mainly": 4633,
      "door": 4634,
      "powerful": 4635,
      "charts": 4636,
      "ridge": 4637,
      "orche": 4638,
      "ada": 4639,
      "encour": 4640,
      "sought": 4641,
      "lation": 4642,
      "seasons": 4643,
      "justice": 4644,
      "avenue": 4645,
      "leon": 4646,
      "stephen": 4647,
      "tellig": 4648,
      "yer": 4649,
      "opin": 4650,
      "aid": 4651,
      "intellig": 4652,
      "1920": 4653,
      "1945": 4654,
      "achieve": 4655,
      "offensive": 4656,
      "explained": 4657,
      "metro": 4658,
      "waters": 4659,
      "husband": 4660,
      "fiction": 4661,
      "reaching": 4662,
      "ume": 4663,
      "foc": 4664,
      "offer": 4665,
      "1941": 4666,
      "italy": 4667,
      "appearances": 4668,
      "43": 4669,
      "shap": 4670,
      "floor": 4671,
      "ancient": 4672,
      "sem": 4673,
      "older": 4674,
      "dete": 4675,
      "atom": 4676,
      "growth": 4677,
      "nit": 4678,
      "rear": 4679,
      "brand": 4680,
      "canal": 4681,
      "weapons": 4682,
      "looking": 4683,
      "supply": 4684,
      "instrument": 4685,
      "widely": 4686,
      "astic": 4687,
      "tan": 4688,
      "85": 4689,
      "gained": 4690,
      "oso": 4691,
      "proved": 4692,
      "officially": 4693,
      "americans": 4694,
      "successfully": 4695,
      "drama": 4696,
      "dang": 4697,
      "sher": 4698,
      "shell": 4699,
      "pieces": 4700,
      "steam": 4701,
      "jersey": 4702,
      "baseball": 4703,
      "otto": 4704,
      "duke": 4705,
      "workers": 4706,
      "negot": 4707,
      "steel": 4708,
      "mann": 4709,
      "asia": 4710,
      "shel": 4711,
      "surrounding": 4712,
      "wy": 4713,
      "beyond": 4714,
      "swit": 4715,
      "choice": 4716,
      "ulations": 4717,
      "brothers": 4718,
      "gary": 4719,
      "cine": 4720,
      "acu": 4721,
      "watch": 4722,
      "mounted": 4723,
      "assa": 4724,
      "ireland": 4725,
      "jeff": 4726,
      "express": 4727,
      "doing": 4728,
      "element": 4729,
      "library": 4730,
      "organized": 4731,
      "nas": 4732,
      "manu": 4733,
      "vania": 4734,
      "exc": 4735,
      "reign": 4736,
      "horses": 4737,
      "ahead": 4738,
      "affected": 4739,
      "eas": 4740,
      "says": 4741,
      "rob": 4742,
      "normal": 4743,
      "rhy": 4744,
      "partner": 4745,
      "headquarters": 4746,
      "1989": 4747,
      "capac": 4748,
      "causing": 4749,
      "laid": 4750,
      "fine": 4751,
      "visited": 4752,
      "speech": 4753,
      "bowl": 4754,
      "bodies": 4755,
      "rainfall": 4756,
      "1943": 4757,
      "expressed": 4758,
      "theless": 4759,
      "leaders": 4760,
      "rho": 4761,
      "require": 4762,
      "represented": 4763,
      "cance": 4764,
      "victoria": 4765,
      "mast": 4766,
      "escape": 4767,
      "vote": 4768,
      "cool": 4769,
      "famous": 4770,
      "catholic": 4771,
      "article": 4772,
      "techni": 4773,
      "equipment": 4774,
      "imag": 4775,
      "von": 4776,
      "matter": 4777,
      "split": 4778,
      "apparent": 4779,
      "pap": 4780,
      "tells": 4781,
      "hotel": 4782,
      "reports": 4783,
      "crimin": 4784,
      "broken": 4785,
      "channel": 4786,
      "moon": 4787,
      "bush": 4788,
      "occasion": 4789,
      "fired": 4790,
      "computer": 4791,
      "store": 4792,
      "fuel": 4793,
      "endo": 4794,
      "advanced": 4795,
      "fred": 4796,
      "prominent": 4797,
      "ano": 4798,
      "nations": 4799,
      "category": 4800,
      "logical": 4801,
      "technology": 4802,
      "analys": 4803,
      "advant": 4804,
      "179": 4805,
      "worldwide": 4806,
      "claims": 4807,
      "skill": 4808,
      "strike": 4809,
      "negative": 4810,
      "assemb": 4811,
      "manufact": 4812,
      "treatment": 4813,
      "lb": 4814,
      "ami": 4815,
      "experiment": 4816,
      "ku": 4817,
      "zed": 4818,
      "leaves": 4819,
      "usual": 4820,
      "defend": 4821,
      "gri": 4822,
      "sle": 4823,
      "kir": 4824,
      "cip": 4825,
      "reserve": 4826,
      "spread": 4827,
      "activities": 4828,
      "heavily": 4829,
      "trees": 4830,
      "dutch": 4831,
      "600": 4832,
      "uled": 4833,
      "powers": 4834,
      "ert": 4835,
      "rome": 4836,
      "sens": 4837,
      "condition": 4838,
      "extra": 4839,
      "actress": 4840,
      "senate": 4841,
      "3rd": 4842,
      "snow": 4843,
      "sport": 4844,
      "editor": 4845,
      "figures": 4846,
      "meanwhile": 4847,
      "unknown": 4848,
      "bart": 4849,
      "why": 4850,
      "believe": 4851,
      "gment": 4852,
      "tay": 4853,
      "aired": 4854,
      "plement": 4855,
      "hands": 4856,
      "shore": 4857,
      "stations": 4858,
      "walls": 4859,
      "combin": 4860,
      "data": 4861,
      "toward": 4862,
      "injury": 4863,
      "homer": 4864,
      "graphic": 4865,
      "1980s": 4866,
      "1940": 4867,
      "arre": 4868,
      "guar": 4869,
      "expedition": 4870,
      "ckey": 4871,
      "passes": 4872,
      "unlike": 4873,
      "ero": 4874,
      "lives": 4875,
      "historic": 4876,
      "negoti": 4877,
      "landing": 4878,
      "symbol": 4879,
      "golden": 4880,
      "currently": 4881,
      "typically": 4882,
      "ari": 4883,
      "debuted": 4884,
      "necessary": 4885,
      "challeng": 4886,
      "sity": 4887,
      "sn": 4888,
      "consisted": 4889,
      "holding": 4890,
      "casual": 4891,
      "attach": 4892,
      "rise": 4893,
      "ito": 4894,
      "zone": 4895,
      "crossing": 4896,
      "argued": 4897,
      "uments": 4898,
      "cricket": 4899,
      "motor": 4900,
      "expans": 4901,
      "dream": 4902,
      "eliza": 4903,
      "opposed": 4904,
      "phone": 4905,
      "none": 4906,
      "vice": 4907,
      "ledge": 4908,
      "republ": 4909,
      "poly": 4910,
      "ficient": 4911,
      "frequently": 4912,
      "couple": 4913,
      "dated": 4914,
      "brook": 4915,
      "composition": 4916,
      "heard": 4917,
      "icts": 4918,
      "polish": 4919,
      "opposition": 4920,
      "formula": 4921,
      "reference": 4922,
      "value": 4923,
      "twice": 4924,
      "industrial": 4925,
      "aling": 4926,
      "shif": 4927,
      "rect": 4928,
      "modif": 4929,
      "dry": 4930,
      "1970s": 4931,
      "description": 4932,
      "finish": 4933,
      "aspect": 4934,
      "animal": 4935,
      "hope": 4936,
      "ji": 4937,
      "branch": 4938,
      "77": 4939,
      "ounds": 4940,
      "elimin": 4941,
      "maintained": 4942,
      "notable": 4943,
      "hear": 4944,
      "advert": 4945,
      "sphere": 4946,
      "arrange": 4947,
      "heads": 4948,
      "trying": 4949,
      "supre": 4950,
      "1960s": 4951,
      "protection": 4952,
      "problem": 4953,
      "lying": 4954,
      "criticized": 4955,
      "wart": 4956,
      "georg": 4957,
      "growing": 4958,
      "clin": 4959,
      "moment": 4960,
      "operated": 4961,
      "nav": 4962,
      "jes": 4963,
      "carolina": 4964,
      "adapt": 4965,
      "lau": 4966,
      "compar": 4967,
      "anta": 4968,
      "glass": 4969,
      "onel": 4970,
      "phas": 4971,
      "joint": 4972,
      "note": 4973,
      "chosen": 4974,
      "ingu": 4975,
      "institute": 4976,
      "holly": 4977,
      "webs": 4978,
      "fru": 4979,
      "kh": 4980,
      "1987": 4981,
      "scottish": 4982,
      "twelve": 4983,
      "producers": 4984,
      "plants": 4985,
      "ota": 4986,
      "pursu": 4987,
      "micro": 4988,
      "cked": 4989,
      "kr": 4990,
      "1988": 4991,
      "bute": 4992,
      "mount": 4993,
      "comic": 4994,
      "austri": 4995,
      "rolling": 4996,
      "seventh": 4997,
      "66": 4998,
      "web": 4999,
      "kick": 5000,
      "caval": 5001,
      "philoso": 5002,
      "vari": 5003,
      "grew": 5004,
      "assembly": 5005,
      "wheel": 5006,
      "wounded": 5007,
      "newspaper": 5008,
      "nuclear": 5009,
      "gers": 5010,
      "fication": 5011,
      "stood": 5012,
      "lect": 5013,
      "consecut": 5014,
      "illustr": 5015,
      "degree": 5016,
      "youth": 5017,
      "independence": 5018,
      "billion": 5019,
      "phia": 5020,
      "sites": 5021,
      "classic": 5022,
      "atures": 5023,
      "awa": 5024,
      "bra": 5025,
      "bach": 5026,
      "fare": 5027,
      "voted": 5028,
      "risk": 5029,
      "republican": 5030,
      "rival": 5031,
      "serving": 5032,
      "oppos": 5033,
      "simply": 5034,
      "alternative": 5035,
      "imen": 5036,
      "vot": 5037,
      "yu": 5038,
      "max": 5039,
      "expansion": 5040,
      "follows": 5041,
      "weekly": 5042,
      "teenth": 5043,
      "pir": 5044,
      "perfect": 5045,
      "contained": 5046,
      "sia": 5047,
      "regarded": 5048,
      "aware": 5049,
      "joe": 5050,
      "deck": 5051,
      "losing": 5052,
      "herself": 5053,
      "killing": 5054,
      "newly": 5055,
      "oppon": 5056,
      "christmas": 5057,
      "individuals": 5058,
      "scar": 5059,
      "fresh": 5060,
      "agric": 5061,
      "shop": 5062,
      "div": 5063,
      "honour": 5064,
      "fields": 5065,
      "roof": 5066,
      "mem": 5067,
      "pennsyl": 5068,
      "reven": 5069,
      "conce": 5070,
      "integr": 5071,
      "ares": 5072,
      "emphas": 5073,
      "mand": 5074,
      "happen": 5075,
      "consecutive": 5076,
      "measure": 5077,
      "continent": 5078,
      "finding": 5079,
      "wilson": 5080,
      "holds": 5081,
      "throw": 5082,
      "bid": 5083,
      "boats": 5084,
      "volume": 5085,
      "eyes": 5086,
      "homes": 5087,
      "ranged": 5088,
      "creating": 5089,
      "franch": 5090,
      "mentioned": 5091,
      "website": 5092,
      "chose": 5093,
      "cannot": 5094,
      "taylor": 5095,
      "circ": 5096,
      "ulty": 5097,
      "supporting": 5098,
      "unds": 5099,
      "1986": 5100,
      "sets": 5101,
      "visual": 5102,
      "perman": 5103,
      "alexander": 5104,
      "bru": 5105,
      "goes": 5106,
      "capacity": 5107,
      "lun": 5108,
      "sections": 5109,
      "pier": 5110,
      "kee": 5111,
      "analysis": 5112,
      "seas": 5113,
      "contest": 5114,
      "yo": 5115,
      "themes": 5116,
      "encounter": 5117,
      "push": 5118,
      "cock": 5119,
      "mist": 5120,
      "lady": 5121,
      "initi": 5122,
      "spin": 5123,
      "participated": 5124,
      "leadership": 5125,
      "adopted": 5126,
      "ato": 5127,
      "iff": 5128,
      "disease": 5129,
      "calls": 5130,
      "filmed": 5131,
      "paralle": 5132,
      "democratic": 5133,
      "boys": 5134,
      "pine": 5135,
      "mn": 5136,
      "robin": 5137,
      "colonel": 5138,
      "genus": 5139,
      "basis": 5140,
      "girls": 5141,
      "possibly": 5142,
      "abandoned": 5143,
      "distingu": 5144,
      "ils": 5145,
      "multi": 5146,
      "jay": 5147,
      "arc": 5148,
      "gain": 5149,
      "purpose": 5150,
      "pennsylvania": 5151,
      "contact": 5152,
      "cé": 5153,
      "freedom": 5154,
      "zen": 5155,
      "mike": 5156,
      "failure": 5157,
      "kid": 5158,
      "hay": 5159,
      "gameplay": 5160,
      "aded": 5161,
      "mcc": 5162,
      "seat": 5163,
      "defensive": 5164,
      "adult": 5165,
      "strip": 5166,
      "irish": 5167,
      "disc": 5168,
      "zy": 5169,
      "ros": 5170,
      "rush": 5171,
      "treaty": 5172,
      "judge": 5173,
      "tric": 5174,
      "meters": 5175,
      "foundation": 5176,
      "palace": 5177,
      "straight": 5178,
      "56": 5179,
      "ec": 5180,
      "harry": 5181,
      "brian": 5182,
      "hart": 5183,
      "hang": 5184,
      "guide": 5185,
      "rooms": 5186,
      "constitution": 5187,
      "principal": 5188,
      "iled": 5189,
      "rod": 5190,
      "egg": 5191,
      "glas": 5192,
      "dram": 5193,
      "sche": 5194,
      "mate": 5195,
      "99": 5196,
      "ideas": 5197,
      "xon": 5198,
      "merch": 5199,
      "southwest": 5200,
      "gill": 5201,
      "garden": 5202,
      "juni": 5203,
      "spain": 5204,
      "interchange": 5205,
      "unique": 5206,
      "deploy": 5207,
      "retired": 5208,
      "bron": 5209,
      "hockey": 5210,
      "surrender": 5211,
      "improved": 5212,
      "1990s": 5213,
      "struction": 5214,
      "occupied": 5215,
      "wars": 5216,
      "hydro": 5217,
      "younger": 5218,
      "kit": 5219,
      "suppor": 5220,
      "page": 5221,
      "myth": 5222,
      "generation": 5223,
      "aly": 5224,
      "roles": 5225,
      "basket": 5226,
      "witness": 5227,
      "budget": 5228,
      "agent": 5229,
      "scientific": 5230,
      "tag": 5231,
      "speak": 5232,
      "titles": 5233,
      "opera": 5234,
      "1939": 5235,
      "chamber": 5236,
      "inno": 5237,
      "vised": 5238,
      "wick": 5239,
      "achieved": 5240,
      "isra": 5241,
      "repeated": 5242,
      "grounds": 5243,
      "equal": 5244,
      "dollar": 5245,
      "elizabeth": 5246,
      "piano": 5247,
      "economy": 5248,
      "ctic": 5249,
      "istan": 5250,
      "effective": 5251,
      "borough": 5252,
      "families": 5253,
      "ini": 5254,
      "eleven": 5255,
      "briefly": 5256,
      "trou": 5257,
      "atmo": 5258,
      "kins": 5259,
      "simple": 5260,
      "evacu": 5261,
      "online": 5262,
      "count": 5263,
      "province": 5264,
      "anni": 5265,
      "58": 5266,
      "granted": 5267,
      "print": 5268,
      "techn": 5269,
      "ria": 5270,
      "gather": 5271,
      "vehicles": 5272,
      "braz": 5273,
      "firm": 5274,
      "determined": 5275,
      "experienced": 5276,
      "rejected": 5277,
      "turns": 5278,
      "regional": 5279,
      "fame": 5280,
      "gives": 5281,
      "advantage": 5282,
      "caught": 5283,
      "1985": 5284,
      "nan": 5285,
      "recently": 5286,
      "1968": 5287,
      "bac": 5288,
      "fro": 5289,
      "md": 5290,
      "norm": 5291,
      "fighter": 5292,
      "agg": 5293,
      "tered": 5294,
      "controlled": 5295,
      "performing": 5296,
      "expanded": 5297,
      "receive": 5298,
      "collap": 5299,
      "secondary": 5300,
      "letters": 5301,
      "attribut": 5302,
      "flooding": 5303,
      "shor": 5304,
      "clou": 5305,
      "authorities": 5306,
      "tact": 5307,
      "motional": 5308,
      "burgh": 5309,
      "ressive": 5310,
      "adding": 5311,
      "didn": 5312,
      "kilometres": 5313,
      "map": 5314,
      "baby": 5315,
      "angle": 5316,
      "cavalry": 5317,
      "1970": 5318,
      "lia": 5319,
      "flat": 5320,
      "ohio": 5321,
      "academ": 5322,
      "eld": 5323,
      "supreme": 5324,
      "literature": 5325,
      "credited": 5326,
      "commonly": 5327,
      "acquired": 5328,
      "ider": 5329,
      "assistant": 5330,
      "thro": 5331,
      "anda": 5332,
      "describes": 5333,
      "cd": 5334,
      "narr": 5335,
      "safety": 5336,
      "tall": 5337,
      "commo": 5338,
      "fought": 5339,
      "soul": 5340,
      "guy": 5341,
      "regarding": 5342,
      "sort": 5343,
      "ques": 5344,
      "singing": 5345,
      "picture": 5346,
      "1984": 5347,
      "odo": 5348,
      "protected": 5349,
      "prefer": 5350,
      "cook": 5351,
      "philadel": 5352,
      "hr": 5353,
      "accompan": 5354,
      "iments": 5355,
      "lum": 5356,
      "kn": 5357,
      "scheduled": 5358,
      "criticism": 5359,
      "conve": 5360,
      "utions": 5361,
      "freeway": 5362,
      "ita": 5363,
      "suggests": 5364,
      "narrow": 5365,
      "tend": 5366,
      "clark": 5367,
      "centuries": 5368,
      "planning": 5369,
      "alty": 5370,
      "shooting": 5371,
      "52": 5372,
      "georgia": 5373,
      "math": 5374,
      "locations": 5375,
      "towns": 5376,
      "reading": 5377,
      "convention": 5378,
      "cambridge": 5379,
      "distribution": 5380,
      "anton": 5381,
      "iday": 5382,
      "crime": 5383,
      "connected": 5384,
      "soft": 5385,
      "philadelphia": 5386,
      "height": 5387,
      "reput": 5388,
      "contain": 5389,
      "falls": 5390,
      "800": 5391,
      "code": 5392,
      "ults": 5393,
      "jen": 5394,
      "accompanied": 5395,
      "enge": 5396,
      "alli": 5397,
      "haps": 5398,
      "campus": 5399,
      "iful": 5400,
      "progress": 5401,
      "gulf": 5402,
      "withdraw": 5403,
      "perhaps": 5404,
      "gency": 5405,
      "victim": 5406,
      "decre": 5407,
      "finds": 5408,
      "save": 5409,
      "bands": 5410,
      "launch": 5411,
      "reaction": 5412,
      "asc": 5413,
      "lif": 5414,
      "attle": 5415,
      "existing": 5416,
      "escor": 5417,
      "1967": 5418,
      "cars": 5419,
      "borne": 5420,
      "lev": 5421,
      "rian": 5422,
      "russia": 5423,
      "ligh": 5424,
      "recon": 5425,
      "estate": 5426,
      "facilities": 5427,
      "trains": 5428,
      "inde": 5429,
      "quite": 5430,
      "price": 5431,
      "laws": 5432,
      "exchange": 5433,
      "wrestling": 5434,
      "rules": 5435,
      "arrival": 5436,
      "vel": 5437,
      "1980": 5438,
      "trip": 5439,
      "din": 5440,
      "containing": 5441,
      "publication": 5442,
      "ottoman": 5443,
      "liverpool": 5444,
      "ceremony": 5445,
      "recru": 5446,
      "ost": 5447,
      "belong": 5448,
      "forming": 5449,
      "approved": 5450,
      "nint": 5451,
      "inth": 5452,
      "asser": 5453,
      "pel": 5454,
      "protect": 5455,
      "moral": 5456,
      "selection": 5457,
      "ador": 5458,
      "nintendo": 5459,
      "remo": 5460,
      "insu": 5461,
      "entry": 5462,
      "cruiser": 5463,
      "scholar": 5464,
      "touchdown": 5465,
      "120": 5466,
      "exer": 5467,
      "evening": 5468,
      "fash": 5469,
      "columbia": 5470,
      "product": 5471,
      "entirely": 5472,
      "herit": 5473,
      "headed": 5474,
      "andrew": 5475,
      "target": 5476,
      "miller": 5477,
      "poe": 5478,
      "prop": 5479,
      "hits": 5480,
      "96": 5481,
      "grey": 5482,
      "ders": 5483,
      "structures": 5484,
      "slav": 5485,
      "wic": 5486,
      "dedicated": 5487,
      "purchased": 5488,
      "singap": 5489,
      "lincol": 5490,
      "88": 5491,
      "legacy": 5492,
      "allows": 5493,
      "contributed": 5494,
      "publish": 5495,
      "rout": 5496,
      "korean": 5497,
      "provides": 5498,
      "jr": 5499,
      "sessions": 5500,
      "agan": 5501,
      "jean": 5502,
      "gone": 5503,
      "filled": 5504,
      "whit": 5505,
      "1983": 5506,
      "windows": 5507,
      "brazil": 5508,
      "resem": 5509,
      "mol": 5510,
      "battery": 5511,
      "prepared": 5512,
      "employed": 5513,
      "jewish": 5514,
      "missing": 5515,
      "engaged": 5516,
      "faith": 5517,
      "intensity": 5518,
      "poll": 5519,
      "happy": 5520,
      "51": 5521,
      "satis": 5522,
      "francisco": 5523,
      "resistance": 5524,
      "singapore": 5525,
      "geo": 5526,
      "viewed": 5527,
      "junction": 5528,
      "lincoln": 5529,
      "turning": 5530,
      "rance": 5531,
      "correspon": 5532,
      "regions": 5533,
      "1964": 5534,
      "casualties": 5535,
      "eighth": 5536,
      "1969": 5537,
      "minist": 5538,
      "iring": 5539,
      "iding": 5540,
      "gay": 5541,
      "oak": 5542,
      "melo": 5543,
      "wright": 5544,
      "rence": 5545,
      "carey": 5546,
      "gol": 5547,
      "promotion": 5548,
      "preced": 5549,
      "nis": 5550,
      "rounded": 5551,
      "wan": 5552,
      "apped": 5553,
      "aer": 5554,
      "tip": 5555,
      "placing": 5556,
      "ody": 5557,
      "resour": 5558,
      "twin": 5559,
      "playstation": 5560,
      "desc": 5561,
      "coastal": 5562,
      "defined": 5563,
      "ables": 5564,
      "charged": 5565,
      "satur": 5566,
      "basketball": 5567,
      "1914": 5568,
      "closely": 5569,
      "introduction": 5570,
      "pitch": 5571,
      "79": 5572,
      "disney": 5573,
      "hms": 5574,
      "1918": 5575,
      "bourne": 5576,
      "ene": 5577,
      "receiving": 5578,
      "isol": 5579,
      "focused": 5580,
      "anderson": 5581,
      "lav": 5582,
      "opportunity": 5583,
      "walter": 5584,
      "views": 5585,
      "corner": 5586,
      "proto": 5587,
      "belief": 5588,
      "cha": 5589,
      "resc": 5590,
      "lewis": 5591,
      "display": 5592,
      "plane": 5593,
      "1982": 5594,
      "hell": 5595,
      "1971": 5596,
      "steve": 5597,
      "4th": 5598,
      "consists": 5599,
      "sequel": 5600,
      "ivity": 5601,
      "evil": 5602,
      "1966": 5603,
      "fashion": 5604,
      "byz": 5605,
      "det": 5606,
      "cles": 5607,
      "roughly": 5608,
      "raf": 5609,
      "1972": 5610,
      "dale": 5611,
      "1979": 5612,
      "lers": 5613,
      "bath": 5614,
      "getting": 5615,
      "losses": 5616,
      "18th": 5617,
      "olympic": 5618,
      "daniel": 5619,
      "formal": 5620,
      "fix": 5621,
      "neighbor": 5622,
      "eds": 5623,
      "premier": 5624,
      "railroad": 5625,
      "mobile": 5626,
      "semi": 5627,
      "patro": 5628,
      "inspir": 5629,
      "rig": 5630,
      "label": 5631,
      "anything": 5632,
      "relations": 5633,
      "link": 5634,
      "provin": 5635,
      "intensi": 5636,
      "consul": 5637,
      "byzant": 5638,
      "cies": 5639,
      "hired": 5640,
      "cris": 5641,
      "fu": 5642,
      "survey": 5643,
      "rising": 5644,
      "ola": 5645,
      "trust": 5646,
      "decor": 5647,
      "garian": 5648,
      "intelligence": 5649,
      "1965": 5650,
      "abs": 5651,
      "retire": 5652,
      "ura": 5653,
      "recognized": 5654,
      "franchise": 5655,
      "cens": 5656,
      "marks": 5657,
      "religion": 5658,
      "providing": 5659,
      "cler": 5660,
      "politics": 5661,
      "apol": 5662,
      "pton": 5663,
      "rand": 5664,
      "ounder": 5665,
      "nhl": 5666,
      "azz": 5667,
      "bottom": 5668,
      "las": 5669,
      "1975": 5670,
      "developing": 5671,
      "chemical": 5672,
      "shared": 5673,
      "task": 5674,
      "relief": 5675,
      "appeal": 5676,
      "appre": 5677,
      "ifying": 5678,
      "shape": 5679,
      "earl": 5680,
      "iny": 5681,
      "credits": 5682,
      "phase": 5683,
      "fron": 5684,
      "walk": 5685,
      "ye": 5686,
      "responsib": 5687,
      "germans": 5688,
      "temperature": 5689,
      "alan": 5690,
      "investigation": 5691,
      "rapidly": 5692,
      "professor": 5693,
      "bun": 5694,
      "hollywood": 5695,
      "everything": 5696,
      "armour": 5697,
      "davis": 5698,
      "myster": 5699,
      "1974": 5700,
      "mam": 5701,
      "malay": 5702,
      "junior": 5703,
      "gang": 5704,
      "bright": 5705,
      "naz": 5706,
      "settlement": 5707,
      "59": 5708,
      "57": 5709,
      "involve": 5710,
      "kentuck": 5711,
      "1973": 5712,
      "journey": 5713,
      "achu": 5714,
      "bou": 5715,
      "iger": 5716,
      "covering": 5717,
      "cited": 5718,
      "nast": 5719,
      "plate": 5720,
      "heim": 5721,
      "ols": 5722,
      "popularity": 5723,
      "knew": 5724,
      "breeding": 5725,
      "rub": 5726,
      "operating": 5727,
      "portray": 5728,
      "opinion": 5729,
      "shaped": 5730,
      "rane": 5731,
      "domestic": 5732,
      "ctors": 5733,
      "significantly": 5734,
      "1976": 5735,
      "global": 5736,
      "kim": 5737,
      "knowledge": 5738,
      "projects": 5739,
      "gene": 5740,
      "68": 5741,
      "mayor": 5742,
      "literary": 5743,
      "intersection": 5744,
      "izes": 5745,
      "injured": 5746,
      "evolution": 5747,
      "clean": 5748,
      "oncé": 5749,
      "reasons": 5750,
      "stages": 5751,
      "heat": 5752,
      "limit": 5753,
      "escap": 5754,
      "assault": 5755,
      "confeder": 5756,
      "aste": 5757,
      "skin": 5758,
      "sounds": 5759,
      "playoff": 5760,
      "dian": 5761,
      "fear": 5762,
      "synthe": 5763,
      "challenge": 5764,
      "substant": 5765,
      "unte": 5766,
      "mountains": 5767,
      "treated": 5768,
      "ilton": 5769,
      "missions": 5770,
      "dates": 5771,
      "archae": 5772,
      "humans": 5773,
      "250": 5774,
      "photograph": 5775,
      "rical": 5776,
      "muslim": 5777,
      "uss": 5778,
      "mud": 5779,
      "platform": 5780,
      "acres": 5781,
      "volcan": 5782,
      "storyline": 5783,
      "distinct": 5784,
      "accur": 5785,
      "beyoncé": 5786,
      "existence": 5787,
      "cells": 5788,
      "peninsu": 5789,
      "violence": 5790,
      "poem": 5791,
      "divisions": 5792,
      "aces": 5793,
      "breaking": 5794,
      "watched": 5795,
      "54": 5796,
      "adam": 5797,
      "orient": 5798,
      "chairman": 5799,
      "labour": 5800,
      "ario": 5801,
      "statement": 5802,
      "eag": 5803,
      "rupt": 5804,
      "reputation": 5805,
      "internal": 5806,
      "renamed": 5807,
      "thirty": 5808,
      "stable": 5809,
      "illa": 5810,
      "collected": 5811,
      "stret": 5812,
      "exact": 5813,
      "grapher": 5814,
      "genre": 5815,
      "53": 5816,
      "nik": 5817,
      "wings": 5818,
      "nevertheless": 5819,
      "hills": 5820,
      "females": 5821,
      "invent": 5822,
      "proceed": 5823,
      "kat": 5824,
      "allies": 5825,
      "expect": 5826,
      "raw": 5827,
      "syd": 5828,
      "strate": 5829,
      "models": 5830,
      "combination": 5831,
      "swim": 5832,
      "89": 5833,
      "bear": 5834,
      "volunte": 5835,
      "itude": 5836,
      "genet": 5837,
      "increasingly": 5838,
      "donald": 5839,
      "astron": 5840,
      "outer": 5841,
      "cot": 5842,
      "capable": 5843,
      "corn": 5844,
      "symp": 5845,
      "typical": 5846,
      "kentucky": 5847,
      "ires": 5848,
      "roc": 5849,
      "1946": 5850,
      "neither": 5851,
      "abilities": 5852,
      "1981": 5853,
      "rh": 5854,
      "gent": 5855,
      "declined": 5856,
      "converted": 5857,
      "blues": 5858,
      "buried": 5859,
      "details": 5860,
      "diam": 5861,
      "neut": 5862,
      "sab": 5863,
      "depth": 5864,
      "camera": 5865,
      "grave": 5866,
      "enjoyed": 5867,
      "tests": 5868,
      "160": 5869,
      "1950s": 5870,
      "applied": 5871,
      "dean": 5872,
      "itled": 5873,
      "producing": 5874,
      "norway": 5875,
      "poet": 5876,
      "setts": 5877,
      "learned": 5878,
      "virt": 5879,
      "sustained": 5880,
      "controversy": 5881,
      "1917": 5882,
      "chen": 5883,
      "massachu": 5884,
      "antly": 5885,
      "olympics": 5886,
      "arsen": 5887,
      "87": 5888,
      "foss": 5889,
      "championships": 5890,
      "aka": 5891,
      "gray": 5892,
      "ads": 5893,
      "ride": 5894,
      "massachusetts": 5895,
      "advoc": 5896,
      "embar": 5897,
      "torn": 5898,
      "mole": 5899,
      "warm": 5900,
      "triple": 5901,
      "decade": 5902,
      "approached": 5903,
      "easily": 5904,
      "inum": 5905,
      "entrance": 5906,
      "graded": 5907,
      "brain": 5908,
      "technical": 5909,
      "designs": 5910,
      "duty": 5911,
      "carrying": 5912,
      "bling": 5913,
      "responded": 5914,
      "download": 5915,
      "extension": 5916,
      "discovery": 5917,
      "chapel": 5918,
      "nut": 5919,
      "programs": 5920,
      "beautiful": 5921,
      "nate": 5922,
      "cia": 5923,
      "err": 5924,
      "pear": 5925,
      "typho": 5926,
      "1948": 5927,
      "sects": 5928,
      "succeeded": 5929,
      "gradually": 5930,
      "secure": 5931,
      "banks": 5932,
      "arranged": 5933,
      "1960": 5934,
      "dub": 5935,
      "specifically": 5936,
      "prize": 5937,
      "sud": 5938,
      "winner": 5939,
      "simpsons": 5940,
      "showing": 5941,
      "infe": 5942,
      "ette": 5943,
      "classical": 5944,
      "items": 5945,
      "ller": 5946,
      "crowd": 5947,
      "iles": 5948,
      "prisoners": 5949,
      "finals": 5950,
      "bn": 5951,
      "assess": 5952,
      "munic": 5953,
      "86": 5954,
      "credit": 5955,
      "ule": 5956,
      "frag": 5957,
      "bian": 5958,
      "udes": 5959,
      "tren": 5960,
      "1978": 5961,
      "exclus": 5962,
      "indicated": 5963,
      "similarly": 5964,
      "matt": 5965,
      "parties": 5966,
      "seems": 5967,
      "products": 5968,
      "additionally": 5969,
      "vietnam": 5970,
      "jon": 5971,
      "stro": 5972,
      "ignment": 5973,
      "sters": 5974,
      "presidential": 5975,
      "earliest": 5976,
      "constitut": 5977,
      "lasted": 5978,
      "threatened": 5979,
      "weakened": 5980,
      "terior": 5981,
      "warning": 5982,
      "mtv": 5983,
      "animated": 5984,
      "employe": 5985,
      "candidate": 5986,
      "72": 5987,
      "fruit": 5988,
      "municipal": 5989,
      "ani": 5990,
      "cruisers": 5991,
      "rural": 5992,
      "talk": 5993,
      "iro": 5994,
      "routes": 5995,
      "versary": 5996,
      "ruled": 5997,
      "legend": 5998,
      "700": 5999,
      "engineer": 6000,
      "án": 6001,
      "1915": 6002,
      "copy": 6003,
      "cise": 6004,
      "compo": 6005,
      "reform": 6006,
      "retained": 6007,
      "poland": 6008,
      "1977": 6009,
      "giant": 6010,
      "sydney": 6011,
      "clar": 6012,
      "writes": 6013,
      "nich": 6014,
      "circu": 6015,
      "maryland": 6016,
      "moore": 6017,
      "hugh": 6018,
      "vul": 6019,
      "alogue": 6020,
      "cooper": 6021,
      "omy": 6022,
      "presents": 6023,
      "gross": 6024,
      "basic": 6025,
      "pup": 6026,
      "restr": 6027,
      "kur": 6028,
      "usa": 6029,
      "superi": 6030,
      "69": 6031,
      "peninsula": 6032,
      "champions": 6033,
      "climate": 6034,
      "explor": 6035,
      "styles": 6036,
      "valu": 6037,
      "mers": 6038,
      "remix": 6039,
      "agency": 6040,
      "interior": 6041,
      "speaking": 6042,
      "adapted": 6043,
      "icon": 6044,
      "seeing": 6045,
      "supplies": 6046,
      "engines": 6047,
      "tony": 6048,
      "issance": 6049,
      "shado": 6050,
      "delivered": 6051,
      "afterwards": 6052,
      "magic": 6053,
      "diplo": 6054,
      "1963": 6055,
      "cycle": 6056,
      "pleas": 6057,
      "message": 6058,
      "interested": 6059,
      "hanna": 6060,
      "wre": 6061,
      "eco": 6062,
      "acid": 6063,
      "engineering": 6064,
      "dal": 6065,
      "yl": 6066,
      "storms": 6067,
      "equival": 6068,
      "alien": 6069,
      "consequ": 6070,
      "supporters": 6071,
      "landfall": 6072,
      "stopped": 6073,
      "entitled": 6074,
      "convin": 6075,
      "gordon": 6076,
      "architecture": 6077,
      "citizens": 6078,
      "icks": 6079,
      "siege": 6080,
      "affairs": 6081,
      "permanent": 6082,
      "settled": 6083,
      "drug": 6084,
      "infl": 6085,
      "1916": 6086,
      "extremely": 6087,
      "spar": 6088,
      "affect": 6089,
      "surviv": 6090,
      "causes": 6091,
      "dynast": 6092,
      "bt": 6093,
      "asian": 6094,
      "bure": 6095,
      "nur": 6096,
      "proposal": 6097,
      "wides": 6098,
      "downtown": 6099,
      "expen": 6100,
      "images": 6101,
      "importance": 6102,
      "mulder": 6103,
      "deaths": 6104,
      "tz": 6105,
      "restaur": 6106,
      "ries": 6107,
      "returns": 6108,
      "trig": 6109,
      "composer": 6110,
      "enem": 6111,
      "seek": 6112,
      "holy": 6113,
      "wich": 6114,
      "ratings": 6115,
      "pus": 6116,
      "1919": 6117,
      "asks": 6118,
      "deleg": 6119,
      "correct": 6120,
      "implement": 6121,
      "classification": 6122,
      "hull": 6123,
      "knots": 6124,
      "rhodes": 6125,
      "wonder": 6126,
      "albert": 6127,
      "bringing": 6128,
      "1962": 6129,
      "pig": 6130,
      "adams": 6131,
      "appropri": 6132,
      "patri": 6133,
      "entering": 6134,
      "aki": 6135,
      "survived": 6136,
      "kong": 6137,
      "retain": 6138,
      "compon": 6139,
      "competit": 6140,
      "studied": 6141,
      "fing": 6142,
      "references": 6143,
      "controversi": 6144,
      "aftermath": 6145,
      "describing": 6146,
      "streets": 6147,
      "offers": 6148,
      "saurus": 6149,
      "67": 6150,
      "mous": 6151,
      "eat": 6152,
      "connection": 6153,
      "inet": 6154,
      "acre": 6155,
      "medie": 6156,
      "dd": 6157,
      "umes": 6158,
      "incorporated": 6159,
      "fict": 6160,
      "bought": 6161,
      "colonial": 6162,
      "1938": 6163,
      "remember": 6164,
      "shield": 6165,
      "someone": 6166,
      "concerns": 6167,
      "environmental": 6168,
      "isms": 6169,
      "catch": 6170,
      "medic": 6171,
      "universe": 6172,
      "biography": 6173,
      "strateg": 6174,
      "argent": 6175,
      "portrayed": 6176,
      "miss": 6177,
      "lights": 6178,
      "guil": 6179,
      "lla": 6180,
      "arrested": 6181,
      "concerned": 6182,
      "61": 6183,
      "shots": 6184,
      "coin": 6185,
      "installed": 6186,
      "alliance": 6187,
      "funds": 6188,
      "reduce": 6189,
      "purchase": 6190,
      "recalled": 6191,
      "entially": 6192,
      "jur": 6193,
      "decline": 6194,
      "hunting": 6195,
      "rab": 6196,
      "simon": 6197,
      "tanks": 6198,
      "lion": 6199,
      "omin": 6200,
      "mere": 6201,
      "carl": 6202,
      "nomination": 6203,
      "izations": 6204,
      "feeling": 6205,
      "corporation": 6206,
      "universal": 6207,
      "bang": 6208,
      "og": 6209,
      "sale": 6210,
      "liberal": 6211,
      "medieval": 6212,
      "visible": 6213,
      "actual": 6214,
      "cking": 6215,
      "spons": 6216,
      "objects": 6217,
      "typhoon": 6218,
      "jane": 6219,
      "lets": 6220,
      "starts": 6221,
      "ansas": 6222,
      "chapter": 6223,
      "classified": 6224,
      "invited": 6225,
      "leaf": 6226,
      "sufficient": 6227,
      "recognition": 6228,
      "brist": 6229,
      "academic": 6230,
      "thousands": 6231,
      "driving": 6232,
      "identity": 6233,
      "harmon": 6234,
      "carbon": 6235,
      "circum": 6236,
      "conservative": 6237,
      "eral": 6238,
      "62": 6239,
      "ulate": 6240,
      "flash": 6241,
      "1956": 6242,
      "establishment": 6243,
      "noting": 6244,
      "crossed": 6245,
      "princess": 6246,
      "equipped": 6247,
      "oto": 6248,
      "fici": 6249,
      "agen": 6250,
      "passage": 6251,
      "anniversary": 6252,
      "admitted": 6253,
      "debate": 6254,
      "pure": 6255,
      "recommended": 6256,
      "decades": 6257,
      "historians": 6258,
      "130": 6259,
      "appointment": 6260,
      "iser": 6261,
      "veter": 6262,
      "1930s": 6263,
      "arsenal": 6264,
      "consisting": 6265,
      "maria": 6266,
      "81": 6267,
      "margin": 6268,
      "truth": 6269,
      "ales": 6270,
      "programme": 6271,
      "considerable": 6272,
      "prot": 6273,
      "frame": 6274,
      "colony": 6275,
      "1936": 6276,
      "aints": 6277,
      "thunder": 6278,
      "hamilton": 6279,
      "enemies": 6280,
      "circle": 6281,
      "claiming": 6282,
      "ala": 6283,
      "remainder": 6284,
      "duties": 6285,
      "posted": 6286,
      "charges": 6287,
      "navig": 6288,
      "manner": 6289,
      "continuing": 6290,
      "aria": 6291,
      "ranean": 6292,
      "classes": 6293,
      "pread": 6294,
      "ington": 6295,
      "kenned": 6296,
      "behavior": 6297,
      "gif": 6298,
      "rhyth": 6299,
      "utc": 6300,
      "communist": 6301,
      "widespread": 6302,
      "17th": 6303,
      "promote": 6304,
      "bern": 6305,
      "audio": 6306,
      "animation": 6307,
      "pictures": 6308,
      "distr": 6309,
      "1961": 6310,
      "willing": 6311,
      "electronic": 6312,
      "occasionally": 6313,
      "departure": 6314,
      "indon": 6315,
      "aspects": 6316,
      "looked": 6317,
      "nba": 6318,
      "compr": 6319,
      "flank": 6320,
      "slowly": 6321,
      "oral": 6322,
      "nether": 6323,
      "mono": 6324,
      "populations": 6325,
      "knight": 6326,
      "interpret": 6327,
      "massive": 6328,
      "psych": 6329,
      "indones": 6330,
      "attached": 6331,
      "romantic": 6332,
      "diag": 6333,
      "transition": 6334,
      "1953": 6335,
      "noon": 6336,
      "kennedy": 6337,
      "cleve": 6338,
      "iana": 6339,
      "orchestra": 6340,
      "wearing": 6341,
      "owners": 6342,
      "jordan": 6343,
      "punk": 6344,
      "races": 6345,
      "resources": 6346,
      "7th": 6347,
      "ware": 6348,
      "grav": 6349,
      "hypo": 6350,
      "emergency": 6351,
      "athen": 6352,
      "destruction": 6353,
      "continental": 6354,
      "juli": 6355,
      "parallel": 6356,
      "norman": 6357,
      "factory": 6358,
      "ili": 6359,
      "graphics": 6360,
      "sunday": 6361,
      "shut": 6362,
      "indiana": 6363,
      "assistance": 6364,
      "ento": 6365,
      "senator": 6366,
      "clubs": 6367,
      "howard": 6368,
      "crete": 6369,
      "certified": 6370,
      "ilation": 6371,
      "parish": 6372,
      "buff": 6373,
      "occurs": 6374,
      "5th": 6375,
      "angel": 6376,
      "haz": 6377,
      "belt": 6378,
      "liked": 6379,
      "treas": 6380,
      "transportation": 6381,
      "scully": 6382,
      "norwe": 6383,
      "theater": 6384,
      "monument": 6385,
      "nell": 6386,
      "lists": 6387,
      "address": 6388,
      "tested": 6389,
      "adventure": 6390,
      "memory": 6391,
      "superior": 6392,
      "income": 6393,
      "shark": 6394,
      "vessels": 6395,
      "aked": 6396,
      "hitler": 6397,
      "fighters": 6398,
      "apping": 6399,
      "vit": 6400,
      "1947": 6401,
      "properties": 6402,
      "ung": 6403,
      "conservation": 6404,
      "chorus": 6405,
      "demol": 6406,
      "ryan": 6407,
      "transl": 6408,
      "1958": 6409,
      "acknow": 6410,
      "icate": 6411,
      "portu": 6412,
      "1937": 6413,
      "equivalent": 6414,
      "110": 6415,
      "amend": 6416,
      "intention": 6417,
      "grass": 6418,
      "priest": 6419,
      "pope": 6420,
      "passengers": 6421,
      "involving": 6422,
      "weigh": 6423,
      "quant": 6424,
      "alco": 6425,
      "patrick": 6426,
      "74": 6427,
      "wers": 6428,
      "wwe": 6429,
      "1910": 6430,
      "opt": 6431,
      "possess": 6432,
      "heritage": 6433,
      "cope": 6434,
      "mathem": 6435,
      "oldest": 6436,
      "1957": 6437,
      "distur": 6438,
      "conduct": 6439,
      "terminus": 6440,
      "rober": 6441,
      "fled": 6442,
      "possibility": 6443,
      "ression": 6444,
      "prede": 6445,
      "bean": 6446,
      "enix": 6447,
      "regularly": 6448,
      "obtained": 6449,
      "prey": 6450,
      "agonist": 6451,
      "rescue": 6452,
      "stands": 6453,
      "shir": 6454,
      "allen": 6455,
      "derived": 6456,
      "finishing": 6457,
      "leton": 6458,
      "mexican": 6459,
      "illino": 6460,
      "committed": 6461,
      "accused": 6462,
      "ninth": 6463,
      "regon": 6464,
      "63": 6465,
      "consc": 6466,
      "cathe": 6467,
      "sculpt": 6468,
      "cleveland": 6469,
      "agues": 6470,
      "sleep": 6471,
      "porter": 6472,
      "reviewers": 6473,
      "favorite": 6474,
      "worst": 6475,
      "roger": 6476,
      "amaz": 6477,
      "inal": 6478,
      "vac": 6479,
      "conscious": 6480,
      "douglas": 6481,
      "crisis": 6482,
      "oregon": 6483,
      "moves": 6484,
      "illinois": 6485,
      "deput": 6486,
      "joining": 6487,
      "oli": 6488,
      "vehicle": 6489,
      "dick": 6490,
      "replacement": 6491,
      "lith": 6492,
      "hosted": 6493,
      "generated": 6494,
      "otic": 6495,
      "dynasty": 6496,
      "supposed": 6497,
      "panel": 6498,
      "hut": 6499,
      "tes": 6500,
      "segment": 6501,
      "aret": 6502,
      "hend": 6503,
      "assumed": 6504,
      "marke": 6505,
      "aboard": 6506,
      "pink": 6507,
      "stanley": 6508,
      "circulation": 6509,
      "appearing": 6510,
      "denied": 6511,
      "1959": 6512,
      "factor": 6513,
      "throne": 6514,
      "mates": 6515,
      "akers": 6516,
      "reality": 6517,
      "pled": 6518,
      "hone": 6519,
      "sic": 6520,
      "shear": 6521,
      "tunnel": 6522,
      "representatives": 6523,
      "bruce": 6524,
      "diff": 6525,
      "mediter": 6526,
      "infr": 6527,
      "unusual": 6528,
      "jum": 6529,
      "iar": 6530,
      "fictional": 6531,
      "tie": 6532,
      "completion": 6533,
      "migr": 6534,
      "freder": 6535,
      "commanded": 6536,
      "circuit": 6537,
      "solar": 6538,
      "ias": 6539,
      "outstanding": 6540,
      "mediterranean": 6541,
      "thy": 6542,
      "strongly": 6543,
      "beatles": 6544,
      "tied": 6545,
      "kevin": 6546,
      "costs": 6547,
      "1954": 6548,
      "norwegian": 6549,
      "wickets": 6550,
      "6th": 6551,
      "dating": 6552,
      "morgan": 6553,
      "1955": 6554,
      "turk": 6555,
      "begun": 6556,
      "arn": 6557,
      "monarch": 6558,
      "characteristics": 6559,
      "salt": 6560,
      "materials": 6561,
      "keeping": 6562,
      "ante": 6563,
      "exception": 6564,
      "bristol": 6565,
      "persu": 6566,
      "cathedr": 6567,
      "vary": 6568,
      "apt": 6569,
      "responsibility": 6570,
      "deem": 6571,
      "painted": 6572,
      "surpr": 6573,
      "praise": 6574,
      "bridges": 6575,
      "hann": 6576,
      "methods": 6577,
      "alleged": 6578,
      "ione": 6579,
      "scout": 6580,
      "isbn": 6581,
      "attor": 6582,
      "shaw": 6583,
      "aug": 6584,
      "auth": 6585,
      "fried": 6586,
      "driven": 6587,
      "surviving": 6588,
      "cancer": 6589,
      "passenger": 6590,
      "lisa": 6591,
      "nett": 6592,
      "telling": 6593,
      "ibility": 6594,
      "sailed": 6595,
      "everyone": 6596,
      "opposite": 6597,
      "16th": 6598,
      "representative": 6599,
      "chain": 6600,
      "racing": 6601,
      "carrier": 6602,
      "una": 6603,
      "funding": 6604,
      "column": 6605,
      "emerged": 6606,
      "shi": 6607,
      "uan": 6608,
      "atmosphere": 6609,
      "differences": 6610,
      "erup": 6611,
      "inn": 6612,
      "habitat": 6613,
      "dragon": 6614,
      "cott": 6615,
      "scheme": 6616,
      "analy": 6617,
      "thereafter": 6618,
      "aux": 6619,
      "pole": 6620,
      "uct": 6621,
      "dynam": 6622,
      "attributed": 6623,
      "onia": 6624,
      "otherwise": 6625,
      "mail": 6626,
      "orange": 6627,
      "kan": 6628,
      "weapon": 6629,
      "criminal": 6630,
      "82": 6631,
      "coordin": 6632,
      "abol": 6633,
      "carto": 6634,
      "platinum": 6635,
      "bombard": 6636,
      "71": 6637,
      "cs": 6638,
      "cash": 6639,
      "recovered": 6640,
      "adults": 6641,
      "eric": 6642,
      "somer": 6643,
      "ez": 6644,
      "plus": 6645,
      "dict": 6646,
      "korea": 6647,
      "hes": 6648,
      "warri": 6649,
      "lsen": 6650,
      "13th": 6651,
      "swi": 6652,
      "poses": 6653,
      "legislat": 6654,
      "strategy": 6655,
      "pav": 6656,
      "stayed": 6657,
      "wrong": 6658,
      "casting": 6659,
      "buy": 6660,
      "politic": 6661,
      "atro": 6662,
      "desire": 6663,
      "retirement": 6664,
      "serves": 6665,
      "communities": 6666,
      "effectively": 6667,
      "ole": 6668,
      "morris": 6669,
      "murray": 6670,
      "reinforce": 6671,
      "ministry": 6672,
      "1952": 6673,
      "pes": 6674,
      "ultural": 6675,
      "outbreak": 6676,
      "homo": 6677,
      "73": 6678,
      "musicians": 6679,
      "shed": 6680,
      "facing": 6681,
      "fee": 6682,
      "inity": 6683,
      "accommo": 6684,
      "falling": 6685,
      "pattern": 6686,
      "documentary": 6687,
      "fitted": 6688,
      "accounts": 6689,
      "distinguished": 6690,
      "elections": 6691,
      "nelson": 6692,
      "bone": 6693,
      "arrest": 6694,
      "robinson": 6695,
      "pse": 6696,
      "gus": 6697,
      "insur": 6698,
      "premiere": 6699,
      "itz": 6700,
      "batting": 6701,
      "rier": 6702,
      "underground": 6703,
      "rug": 6704,
      "1933": 6705,
      "neck": 6706,
      "aqu": 6707,
      "crosses": 6708,
      "inspiration": 6709,
      "marines": 6710,
      "attracted": 6711,
      "trials": 6712,
      "parks": 6713,
      "84": 6714,
      "convinced": 6715,
      "dissip": 6716,
      "strengthe": 6717,
      "wins": 6718,
      "aine": 6719,
      "submarine": 6720,
      "pm": 6721,
      "solution": 6722,
      "hil": 6723,
      "movements": 6724,
      "elder": 6725,
      "injuries": 6726,
      "raise": 6727,
      "needs": 6728,
      "votes": 6729,
      "ients": 6730,
      "elev": 6731,
      "sweden": 6732,
      "ceme": 6733,
      "separated": 6734,
      "1935": 6735,
      "ensure": 6736,
      "bels": 6737,
      "matthe": 6738,
      "sudden": 6739,
      "ented": 6740,
      "renew": 6741,
      "abled": 6742,
      "israel": 6743,
      "boil": 6744,
      "garrison": 6745,
      "wine": 6746,
      "predecess": 6747,
      "ras": 6748,
      "radar": 6749,
      "commemor": 6750,
      "symph": 6751,
      "battleships": 6752,
      "wear": 6753,
      "toronto": 6754,
      "sover": 6755,
      "hin": 6756,
      "1951": 6757,
      "faces": 6758,
      "1949": 6759,
      "welsh": 6760,
      "restored": 6761,
      "difficulty": 6762,
      "intense": 6763,
      "quo": 6764,
      "standards": 6765,
      "assem": 6766,
      "compos": 6767,
      "ulture": 6768,
      "byzantine": 6769,
      "atell": 6770,
      "surrounded": 6771,
      "facility": 6772,
      "delayed": 6773,
      "amy": 6774,
      "seemed": 6775,
      "authors": 6776,
      "rivers": 6777,
      "hoped": 6778,
      "depict": 6779,
      "requested": 6780,
      "measures": 6781,
      "childhood": 6782,
      "remn": 6783,
      "deli": 6784,
      "penalty": 6785,
      "netherlands": 6786,
      "productions": 6787,
      "bag": 6788,
      "tub": 6789,
      "internet": 6790,
      "sees": 6791,
      "impressed": 6792,
      "tomb": 6793,
      "apers": 6794,
      "absor": 6795,
      "puer": 6796,
      "loco": 6797,
      "temperatures": 6798,
      "dock": 6799,
      "consum": 6800,
      "reviewer": 6801,
      "elsewhere": 6802,
      "enses": 6803,
      "moderate": 6804,
      "concern": 6805,
      "greatly": 6806,
      "kal": 6807,
      "publishing": 6808,
      "thel": 6809,
      "cathedral": 6810,
      "dangerous": 6811,
      "courts": 6812,
      "aza": 6813,
      "jews": 6814,
      "examples": 6815,
      "gra": 6816,
      "meets": 6817,
      "send": 6818,
      "satell": 6819,
      "genes": 6820,
      "ott": 6821,
      "obtain": 6822,
      "rever": 6823,
      "cement": 6824,
      "leads": 6825,
      "convection": 6826,
      "bears": 6827,
      "creative": 6828,
      "rent": 6829,
      "spoke": 6830,
      "liqu": 6831,
      "legs": 6832,
      "queens": 6833,
      "bee": 6834,
      "adaptation": 6835,
      "recordings": 6836,
      "kelly": 6837,
      "94": 6838,
      "involvement": 6839,
      "dimen": 6840,
      "hundreds": 6841,
      "sts": 6842,
      "98": 6843,
      "iraq": 6844,
      "1900": 6845,
      "immediate": 6846,
      "easy": 6847,
      "eggs": 6848,
      "tone": 6849,
      "jazz": 6850,
      "ifications": 6851,
      "learn": 6852,
      "sweet": 6853,
      "pak": 6854,
      "pregn": 6855,
      "scholars": 6856,
      "gon": 6857,
      "formally": 6858,
      "russell": 6859,
      "thomp": 6860,
      "trained": 6861,
      "techniques": 6862,
      "comfort": 6863,
      "excell": 6864,
      "anyone": 6865,
      "bast": 6866,
      "journalist": 6867,
      "graduate": 6868,
      "encouraged": 6869,
      "bris": 6870,
      "learning": 6871,
      "wooden": 6872,
      "accompl": 6873,
      "lose": 6874,
      "bureau": 6875,
      "armen": 6876,
      "firing": 6877,
      "somewhat": 6878,
      "acks": 6879,
      "uran": 6880,
      "agas": 6881,
      "wet": 6882,
      "istry": 6883,
      "ayer": 6884,
      "suffering": 6885,
      "pale": 6886,
      "legislation": 6887,
      "uge": 6888,
      "prohib": 6889,
      "12th": 6890,
      "jet": 6891,
      "hud": 6892,
      "determ": 6893,
      "croatian": 6894,
      "thompson": 6895,
      "determine": 6896,
      "dismissed": 6897,
      "trophy": 6898,
      "powered": 6899,
      "promise": 6900,
      "shu": 6901,
      "assass": 6902,
      "pilo": 6903,
      "mature": 6904,
      "modified": 6905,
      "orb": 6906,
      "carter": 6907,
      "inqu": 6908,
      "profit": 6909,
      "hatt": 6910,
      "horror": 6911,
      "interests": 6912,
      "dna": 6913,
      "steven": 6914,
      "whereas": 6915,
      "clay": 6916,
      "diet": 6917,
      "alcohol": 6918,
      "bab": 6919,
      "difference": 6920,
      "anger": 6921,
      "islam": 6922,
      "forcing": 6923,
      "convoy": 6924,
      "attempting": 6925,
      "rice": 6926,
      "puerto": 6927,
      "nfl": 6928,
      "dish": 6929,
      "hans": 6930,
      "grace": 6931,
      "changing": 6932,
      "pha": 6933,
      "hub": 6934,
      "liz": 6935,
      "attacking": 6936,
      "calcul": 6937,
      "nbc": 6938,
      "poetry": 6939,
      "questions": 6940,
      "beck": 6941,
      "veget": 6942,
      "fles": 6943,
      "sized": 6944,
      "mete": 6945,
      "controversial": 6946,
      "formerly": 6947,
      "spears": 6948,
      "mars": 6949,
      "biggest": 6950,
      "hid": 6951,
      "ille": 6952,
      "harbor": 6953,
      "berlin": 6954,
      "astro": 6955,
      "register": 6956,
      "politan": 6957,
      "guardian": 6958,
      "conclusion": 6959,
      "9th": 6960,
      "phr": 6961,
      "starred": 6962,
      "closer": 6963,
      "influences": 6964,
      "absence": 6965,
      "eved": 6966,
      "batman": 6967,
      "huge": 6968,
      "bie": 6969,
      "monitor": 6970,
      "hungarian": 6971,
      "township": 6972,
      "stones": 6973,
      "rets": 6974,
      "intent": 6975,
      "wedding": 6976,
      "narrative": 6977,
      "diagno": 6978,
      "1913": 6979,
      "premiered": 6980,
      "instruments": 6981,
      "harris": 6982,
      "informed": 6983,
      "orial": 6984,
      "toll": 6985,
      "extin": 6986,
      "deemed": 6987,
      "83": 6988,
      "novels": 6989,
      "genetic": 6990,
      "commonwealth": 6991,
      "nels": 6992,
      "bats": 6993,
      "sight": 6994,
      "laboratory": 6995,
      "suic": 6996,
      "lod": 6997,
      "files": 6998,
      "apparently": 6999,
      "parker": 7000,
      "distributed": 7001,
      "dens": 7002,
      "landed": 7003,
      "landsc": 7004,
      "scand": 7005,
      "toms": 7006,
      "representing": 7007,
      "wig": 7008,
      "testing": 7009,
      "longest": 7010,
      "1926": 7011,
      "plain": 7012,
      "territories": 7013,
      "detach": 7014,
      "chel": 7015,
      "normally": 7016,
      "blow": 7017,
      "driver": 7018,
      "bronze": 7019,
      "watching": 7020,
      "tran": 7021,
      "helm": 7022,
      "cloud": 7023,
      "matters": 7024,
      "operate": 7025,
      "disci": 7026,
      "armament": 7027,
      "loop": 7028,
      "brick": 7029,
      "terror": 7030,
      "apple": 7031,
      "1927": 7032,
      "bos": 7033,
      "arrangement": 7034,
      "depos": 7035,
      "enters": 7036,
      "dee": 7037,
      "gallery": 7038,
      "restrict": 7039,
      "coins": 7040,
      "restoration": 7041,
      "victims": 7042,
      "1921": 7043,
      "secured": 7044,
      "visitors": 7045,
      "engage": 7046,
      "mainstream": 7047,
      "releases": 7048,
      "1934": 7049,
      "ameter": 7050,
      "unsuccessful": 7051,
      "comics": 7052,
      "hearing": 7053,
      "basin": 7054,
      "tenance": 7055,
      "giants": 7056,
      "believes": 7057,
      "pc": 7058,
      "refuge": 7059,
      "cad": 7060,
      "substit": 7061,
      "weekend": 7062,
      "defended": 7063,
      "influential": 7064,
      "resolution": 7065,
      "mck": 7066,
      "fishing": 7067,
      "zero": 7068,
      "depicted": 7069,
      "stall": 7070,
      "agents": 7071,
      "wolf": 7072,
      "rep": 7073,
      "houston": 7074,
      "printed": 7075,
      "legisl": 7076,
      "videos": 7077,
      "til": 7078,
      "format": 7079,
      "housing": 7080,
      "attorney": 7081,
      "mack": 7082,
      "mini": 7083,
      "ancy": 7084,
      "graphical": 7085,
      "fis": 7086,
      "founder": 7087,
      "churches": 7088,
      "fisher": 7089,
      "dominated": 7090,
      "pas": 7091,
      "amph": 7092,
      "notably": 7093,
      "900": 7094,
      "1912": 7095,
      "desert": 7096,
      "relationships": 7097,
      "fab": 7098,
      "rebell": 7099,
      "inary": 7100,
      "hole": 7101,
      "dramatic": 7102,
      "trek": 7103,
      "santa": 7104,
      "indians": 7105,
      "behavi": 7106,
      "cous": 7107,
      "swedish": 7108,
      "merged": 7109,
      "kne": 7110,
      "samuel": 7111,
      "languages": 7112,
      "neighbour": 7113,
      "jacob": 7114,
      "roberts": 7115,
      "onic": 7116,
      "diver": 7117,
      "skills": 7118,
      "meteor": 7119,
      "exit": 7120,
      "goslav": 7121,
      "simpson": 7122,
      "devil": 7123,
      "simult": 7124,
      "simultane": 7125,
      "string": 7126,
      "offices": 7127,
      "1932": 7128,
      "device": 7129,
      "cabinet": 7130,
      "pp": 7131,
      "forth": 7132,
      "communication": 7133,
      "drums": 7134,
      "shr": 7135,
      "occupation": 7136,
      "ouse": 7137,
      "imes": 7138,
      "finn": 7139,
      "stances": 7140,
      "imet": 7141,
      "chess": 7142,
      "mani": 7143,
      "raaf": 7144,
      "frequent": 7145,
      "opponents": 7146,
      "cliff": 7147,
      "gib": 7148,
      "phan": 7149,
      "cemetery": 7150,
      "phe": 7151,
      "tox": 7152,
      "anthony": 7153,
      "emotional": 7154,
      "140": 7155,
      "factors": 7156,
      "deployed": 7157,
      "remin": 7158,
      "rates": 7159,
      "glac": 7160,
      "teeth": 7161,
      "scientists": 7162,
      "jason": 7163,
      "rud": 7164,
      "util": 7165,
      "91": 7166,
      "dress": 7167,
      "warner": 7168,
      "dialogue": 7169,
      "tot": 7170,
      "reportedly": 7171,
      "alab": 7172,
      "dot": 7173,
      "operational": 7174,
      "93": 7175,
      "bapt": 7176,
      "yugoslav": 7177,
      "pill": 7178,
      "tis": 7179,
      "vs": 7180,
      "illi": 7181,
      "disput": 7182,
      "cessive": 7183,
      "happened": 7184,
      "mental": 7185,
      "agricultural": 7186,
      "97": 7187,
      "troit": 7188,
      "tap": 7189,
      "abbey": 7190,
      "footage": 7191,
      "experiences": 7192,
      "employees": 7193,
      "atus": 7194,
      "lowest": 7195,
      "maintenance": 7196,
      "constitutional": 7197,
      "successor": 7198,
      "gaga": 7199,
      "thes": 7200,
      "timore": 7201,
      "suitable": 7202,
      "obl": 7203,
      "aska": 7204,
      "ternal": 7205,
      "croatia": 7206,
      "approval": 7207,
      "negotiations": 7208,
      "detroit": 7209,
      "understand": 7210,
      "inhabit": 7211,
      "ón": 7212,
      "dent": 7213,
      "expression": 7214,
      "dum": 7215,
      "window": 7216,
      "gates": 7217,
      "orbit": 7218,
      "1929": 7219,
      "revolutionary": 7220,
      "handed": 7221,
      "wes": 7222,
      "1911": 7223,
      "drag": 7224,
      "personality": 7225,
      "appreci": 7226,
      "acknowled": 7227,
      "lis": 7228,
      "collect": 7229,
      "executed": 7230,
      "enthus": 7231,
      "drawing": 7232,
      "oxy": 7233,
      "mathemat": 7234,
      "employment": 7235,
      "discussed": 7236,
      "3d": 7237,
      "medium": 7238,
      "substantial": 7239,
      "170": 7240,
      "exposed": 7241,
      "wag": 7242,
      "crus": 7243,
      "barr": 7244,
      "flew": 7245,
      "uous": 7246,
      "ethnic": 7247,
      "fatal": 7248,
      "hook": 7249,
      "retreat": 7250,
      "portions": 7251,
      "sper": 7252,
      "hunt": 7253,
      "resign": 7254,
      "1931": 7255,
      "tornado": 7256,
      "aco": 7257,
      "1922": 7258,
      "grown": 7259,
      "gap": 7260,
      "tribute": 7261,
      "tenth": 7262,
      "jesus": 7263,
      "promp": 7264,
      "christop": 7265,
      "technique": 7266,
      "detailed": 7267,
      "xbox": 7268,
      "interstate": 7269,
      "sad": 7270,
      "melbourne": 7271,
      "accompany": 7272,
      "resigned": 7273,
      "clinton": 7274,
      "berry": 7275,
      "15th": 7276,
      "nielsen": 7277,
      "origins": 7278,
      "existed": 7279,
      "mov": 7280,
      "residential": 7281,
      "evans": 7282,
      "walker": 7283,
      "linked": 7284,
      "aus": 7285,
      "portra": 7286,
      "afternoon": 7287,
      "preferred": 7288,
      "spher": 7289,
      "communications": 7290,
      "confess": 7291,
      "listing": 7292,
      "marshall": 7293,
      "goods": 7294,
      "reveals": 7295,
      "susp": 7296,
      "organizations": 7297,
      "draf": 7298,
      "militia": 7299,
      "teacher": 7300,
      "aj": 7301,
      "stewart": 7302,
      "prevented": 7303,
      "organisation": 7304,
      "carib": 7305,
      "balance": 7306,
      "neighborhood": 7307,
      "iest": 7308,
      "seed": 7309,
      "pike": 7310,
      "manus": 7311,
      "pushed": 7312,
      "stab": 7313,
      "arriving": 7314,
      "mme": 7315,
      "blu": 7316,
      "interpre": 7317,
      "swift": 7318,
      "forty": 7319,
      "prosecut": 7320,
      "anglo": 7321,
      "belg": 7322,
      "isolated": 7323,
      "moments": 7324,
      "ube": 7325,
      "expo": 7326,
      "closing": 7327,
      "favorable": 7328,
      "sisters": 7329,
      "92": 7330,
      "sevent": 7331,
      "partly": 7332,
      "arian": 7333,
      "chase": 7334,
      "vals": 7335,
      "halo": 7336,
      "anticip": 7337,
      "nov": 7338,
      "turkish": 7339,
      "imens": 7340,
      "understanding": 7341,
      "cart": 7342,
      "covers": 7343,
      "designer": 7344,
      "periods": 7345,
      "marry": 7346,
      "departed": 7347,
      "instrumental": 7348,
      "imprison": 7349,
      "friendly": 7350,
      "lennon": 7351,
      "pione": 7352,
      "proced": 7353,
      "retri": 7354,
      "unes": 7355,
      "ordinary": 7356,
      "sarah": 7357,
      "familiar": 7358,
      "mortal": 7359,
      "stance": 7360,
      "ranking": 7361,
      "greece": 7362,
      "sharp": 7363,
      "baltimore": 7364,
      "fifteen": 7365,
      "austria": 7366,
      "extent": 7367,
      "usal": 7368,
      "regist": 7369,
      "absol": 7370,
      "icit": 7371,
      "stron": 7372,
      "budd": 7373,
      "impossible": 7374,
      "chell": 7375,
      "mines": 7376,
      "cker": 7377,
      "participate": 7378,
      "elli": 7379,
      "locomot": 7380,
      "fc": 7381,
      "waves": 7382,
      "arena": 7383,
      "ologist": 7384,
      "concerts": 7385,
      "instance": 7386,
      "trum": 7387,
      "iet": 7388,
      "uro": 7389,
      "hd": 7390,
      "diamond": 7391,
      "deputy": 7392,
      "diction": 7393,
      "ré": 7394,
      "yd": 7395,
      "seeking": 7396,
      "aire": 7397,
      "citing": 7398,
      "taught": 7399,
      "maid": 7400,
      "sugar": 7401,
      "specimens": 7402,
      "finale": 7403,
      "lux": 7404,
      "lex": 7405,
      "livan": 7406,
      "perce": 7407,
      "meat": 7408,
      "aa": 7409,
      "colorado": 7410,
      "spending": 7411,
      "dru": 7412,
      "meter": 7413,
      "dow": 7414,
      "picked": 7415,
      "irs": 7416,
      "patrol": 7417,
      "crystal": 7418,
      "bases": 7419,
      "stick": 7420,
      "newspapers": 7421,
      "creator": 7422,
      "rarely": 7423,
      "amendment": 7424,
      "dave": 7425,
      "ongo": 7426,
      "alum": 7427,
      "soil": 7428,
      "kap": 7429,
      "hey": 7430,
      "sullivan": 7431,
      "ghost": 7432,
      "doesn": 7433,
      "precip": 7434,
      "metropolitan": 7435,
      "mario": 7436,
      "bull": 7437,
      "diameter": 7438,
      "10th": 7439,
      "sacri": 7440,
      "frederick": 7441,
      "patron": 7442,
      "rows": 7443,
      "somerset": 7444,
      "uncertain": 7445,
      "vet": 7446,
      "deser": 7447,
      "1928": 7448,
      "14th": 7449,
      "physic": 7450,
      "pounds": 7451,
      "directors": 7452,
      "ultimate": 7453,
      "divor": 7454,
      "pace": 7455,
      "pute": 7456,
      "false": 7457,
      "citizen": 7458,
      "poison": 7459,
      "adi": 7460,
      "cole": 7461,
      "withdrew": 7462,
      "obser": 7463,
      "cant": 7464,
      "prom": 7465,
      "permission": 7466,
      "perspect": 7467,
      "woods": 7468,
      "upgraded": 7469,
      "exhibition": 7470,
      "bb": 7471,
      "encountered": 7472,
      "policies": 7473,
      "gilbert": 7474,
      "igen": 7475,
      "forests": 7476,
      "partially": 7477,
      "lined": 7478,
      "difficulties": 7479,
      "timber": 7480,
      "1925": 7481,
      "discover": 7482,
      "anny": 7483,
      "rescu": 7484,
      "iva": 7485,
      "dir": 7486,
      "khan": 7487,
      "bombers": 7488,
      "schedule": 7489,
      "inaug": 7490,
      "iowa": 7491,
      "legislature": 7492,
      "eval": 7493,
      "helic": 7494,
      "drin": 7495,
      "thrill": 7496,
      "suicide": 7497,
      "household": 7498,
      "mint": 7499,
      "smooth": 7500,
      "nichol": 7501,
      "cannon": 7502,
      "adjac": 7503,
      "fortress": 7504,
      "miami": 7505,
      "advice": 7506,
      "seattle": 7507,
      "barbar": 7508,
      "athletic": 7509,
      "pilots": 7510,
      "prus": 7511,
      "merchant": 7512,
      "loan": 7513,
      "shakes": 7514,
      "humor": 7515,
      "adjacent": 7516,
      "federation": 7517,
      "turrets": 7518,
      "expensive": 7519,
      "1924": 7520,
      "disaster": 7521,
      "violent": 7522,
      "feud": 7523,
      "magn": 7524,
      "indicate": 7525,
      "sword": 7526,
      "comments": 7527,
      "traveled": 7528,
      "benefit": 7529,
      "signs": 7530,
      "lemur": 7531,
      "wie": 7532,
      "refers": 7533,
      "philosophy": 7534,
      "hed": 7535,
      "armored": 7536,
      "gardens": 7537,
      "terri": 7538,
      "spur": 7539,
      "interesting": 7540,
      "seats": 7541,
      "wells": 7542,
      "oz": 7543,
      "pines": 7544,
      "uted": 7545,
      "thetic": 7546,
      "1920s": 7547,
      "oft": 7548,
      "mato": 7549,
      "ranging": 7550,
      "criticised": 7551,
      "sector": 7552,
      "values": 7553,
      "compete": 7554,
      "pitched": 7555,
      "rebellion": 7556,
      "guards": 7557,
      "minimum": 7558,
      "alpha": 7559,
      "missou": 7560,
      "pakistan": 7561,
      "atomic": 7562,
      "prompted": 7563,
      "gau": 7564,
      "fined": 7565,
      "remove": 7566,
      "struggle": 7567,
      "alabama": 7568,
      "brun": 7569,
      "iate": 7570,
      "harbour": 7571,
      "eagle": 7572,
      "marketing": 7573,
      "discipl": 7574,
      "satellite": 7575,
      "caribbean": 7576,
      "whil": 7577,
      "medicine": 7578,
      "destroyers": 7579,
      "nationally": 7580,
      "sank": 7581,
      "surprise": 7582,
      "numbered": 7583,
      "manuscri": 7584,
      "mour": 7585,
      "raj": 7586,
      "gery": 7587,
      "qualified": 7588,
      "collapse": 7589,
      "chy": 7590,
      "pare": 7591,
      "lawrence": 7592,
      "enterprise": 7593,
      "soldier": 7594,
      "neutral": 7595,
      "teaching": 7596,
      "bai": 7597,
      "rico": 7598,
      "napo": 7599,
      "hong": 7600,
      "collaboration": 7601,
      "possession": 7602,
      "whilst": 7603,
      "vast": 7604,
      "tha": 7605,
      "1923": 7606,
      "articles": 7607,
      "charlie": 7608,
      "spiritual": 7609,
      "gren": 7610,
      "indeed": 7611,
      "restaurant": 7612,
      "protagonist": 7613,
      "oxygen": 7614,
      "instru": 7615,
      "km2": 7616,
      "baker": 7617,
      "wore": 7618,
      "designation": 7619,
      "administrative": 7620,
      "hamp": 7621,
      "eing": 7622,
      "hindu": 7623,
      "ić": 7624,
      "rach": 7625,
      "tale": 7626,
      "minnes": 7627,
      "8th": 7628,
      "scat": 7629,
      "napoleon": 7630,
      "mason": 7631,
      "paintings": 7632,
      "worship": 7633,
      "fifty": 7634,
      "gle": 7635,
      "pretty": 7636,
      "riders": 7637,
      "pad": 7638,
      "helicop": 7639,
      "loved": 7640,
      "describe": 7641,
      "wait": 7642,
      "depending": 7643,
      "cel": 7644,
      "clock": 7645,
      "jar": 7646,
      "judic": 7647,
      "candidates": 7648,
      "migration": 7649,
      "echo": 7650,
      "pressive": 7651,
      "legislative": 7652,
      "dancing": 7653,
      "survivors": 7654,
      "dispute": 7655,
      "charter": 7656,
      "rounds": 7657,
      "villages": 7658,
      "wake": 7659,
      "assisted": 7660,
      "tight": 7661,
      "alive": 7662,
      "cester": 7663,
      "grammy": 7664,
      "nazi": 7665,
      "bowling": 7666,
      "hungary": 7667,
      "lone": 7668,
      "situated": 7669,
      "inland": 7670,
      "crews": 7671,
      "travelled": 7672,
      "dollars": 7673,
      "rie": 7674,
      "afford": 7675,
      "inher": 7676,
      "displayed": 7677,
      "pron": 7678,
      "11th": 7679,
      "hav": 7680,
      "noble": 7681,
      "tware": 7682,
      "victories": 7683,
      "oul": 7684,
      "surge": 7685,
      "survive": 7686,
      "dia": 7687,
      "kirk": 7688,
      "hem": 7689,
      "minimal": 7690,
      "degre": 7691,
      "ateur": 7692,
      "australians": 7693,
      "software": 7694,
      "restricted": 7695,
      "velt": 7696,
      "belgium": 7697,
      "promised": 7698,
      "playoffs": 7699,
      "appropriate": 7700,
      "kon": 7701,
      "symptoms": 7702,
      "marg": 7703,
      "reconna": 7704,
      "option": 7705,
      "serial": 7706,
      "diego": 7707,
      "embr": 7708,
      "earthqu": 7709,
      "funeral": 7710,
      "amongst": 7711,
      "behaviour": 7712,
      "uncle": 7713,
      "ios": 7714,
      "helping": 7715,
      "partnership": 7716,
      "publications": 7717,
      "benjam": 7718,
      "encing": 7719,
      "eliminated": 7720,
      "cade": 7721,
      "boss": 7722,
      "horn": 7723,
      "degrees": 7724,
      "jona": 7725,
      "itim": 7726,
      "keeper": 7727,
      "battalions": 7728,
      "poems": 7729,
      "drivers": 7730,
      "rugby": 7731,
      "reconnaissance": 7732,
      "rio": 7733,
      "purposes": 7734,
      "subsid": 7735,
      "eness": 7736,
      "orth": 7737,
      "mining": 7738,
      "colleg": 7739,
      "colonies": 7740,
      "kiss": 7741,
      "yon": 7742,
      "isle": 7743,
      "concrete": 7744,
      "ining": 7745,
      "dra": 7746,
      "monster": 7747,
      "1905": 7748,
      "ng": 7749,
      "voiced": 7750,
      "intel": 7751,
      "1908": 7752,
      "christopher": 7753,
      "alfred": 7754,
      "roots": 7755,
      "mos": 7756,
      "compilation": 7757,
      "fallen": 7758,
      "occasions": 7759,
      "repairs": 7760,
      "thinking": 7761,
      "sume": 7762,
      "trouble": 7763,
      "benjamin": 7764,
      "roose": 7765,
      "21st": 7766,
      "statue": 7767,
      "vig": 7768,
      "zes": 7769,
      "1909": 7770,
      "flower": 7771,
      "vietnames": 7772,
      "vietnamese": 7773,
      "shock": 7774,
      "jection": 7775,
      "anime": 7776,
      "attendance": 7777,
      "essential": 7778,
      "functions": 7779,
      "minnesota": 7780,
      "preserved": 7781,
      "clu": 7782,
      "munition": 7783,
      "console": 7784,
      "gry": 7785,
      "buck": 7786,
      "publicly": 7787,
      "matthew": 7788,
      "absolute": 7789,
      "rupted": 7790,
      "manhatt": 7791,
      "heading": 7792,
      "illness": 7793,
      "kyo": 7794,
      "franklin": 7795,
      "loyal": 7796,
      "lighting": 7797,
      "walking": 7798,
      "preparation": 7799,
      "steps": 7800,
      "manhattan": 7801,
      "defeating": 7802,
      "touring": 7803,
      "organised": 7804,
      "alignment": 7805,
      "businesses": 7806,
      "sang": 7807,
      "argument": 7808,
      "polar": 7809,
      "backing": 7810,
      "cide": 7811,
      "intensified": 7812,
      "roosevelt": 7813,
      "horiz": 7814,
      "believing": 7815,
      "wider": 7816,
      "signal": 7817,
      "asking": 7818,
      "flights": 7819,
      "amounts": 7820,
      "keys": 7821,
      "consistent": 7822,
      "altar": 7823,
      "residence": 7824,
      "highways": 7825,
      "elabor": 7826,
      "rocks": 7827,
      "competed": 7828,
      "1907": 7829,
      "kw": 7830,
      "inspe": 7831,
      "assum": 7832,
      "amid": 7833,
      "bent": 7834,
      "conqu": 7835,
      "signing": 7836,
      "imeter": 7837,
      "bard": 7838,
      "laho": 7839,
      "legitim": 7840,
      "therine": 7841,
      "resumed": 7842,
      "missis": 7843,
      "affil": 7844,
      "cargo": 7845,
      "opponent": 7846,
      "mississip": 7847,
      "kansas": 7848,
      "sick": 7849,
      "sunk": 7850,
      "subjects": 7851,
      "counties": 7852,
      "cylin": 7853,
      "ammunition": 7854,
      "documents": 7855,
      "agers": 7856,
      "assists": 7857,
      "alternate": 7858,
      "retail": 7859,
      "aggressive": 7860,
      "registered": 7861,
      "oy": 7862,
      "amateur": 7863,
      "blin": 7864,
      "aced": 7865,
      "submitted": 7866,
      "excav": 7867,
      "backs": 7868,
      "provincial": 7869,
      "itors": 7870,
      "audiences": 7871,
      "strategic": 7872,
      "ingly": 7873,
      "portland": 7874,
      "recur": 7875,
      "nad": 7876,
      "ishment": 7877,
      "stell": 7878,
      "kas": 7879,
      "aws": 7880,
      "vii": 7881,
      "deliber": 7882,
      "feelings": 7883,
      "engineers": 7884,
      "doubt": 7885,
      "conventional": 7886,
      "amin": 7887,
      "nash": 7888,
      "dogs": 7889,
      "warren": 7890,
      "rant": 7891,
      "predict": 7892,
      "cow": 7893,
      "ownership": 7894,
      "acle": 7895,
      "airborne": 7896,
      "montre": 7897,
      "netic": 7898,
      "beaten": 7899,
      "fires": 7900,
      "stern": 7901,
      "tribes": 7902,
      "tat": 7903,
      "shall": 7904,
      "completing": 7905,
      "percentage": 7906,
      "usd": 7907,
      "frig": 7908,
      "uding": 7909,
      "campbell": 7910,
      "waiting": 7911,
      "sig": 7912,
      "radical": 7913,
      "bros": 7914,
      "explosion": 7915,
      "lanes": 7916,
      "maj": 7917,
      "arist": 7918,
      "artistic": 7919,
      "shells": 7920,
      "astronom": 7921,
      "tin": 7922,
      "behalf": 7923,
      "shakespe": 7924,
      "cinema": 7925,
      "rix": 7926,
      "sian": 7927,
      "charity": 7928,
      "nol": 7929,
      "worn": 7930,
      "evolved": 7931,
      "stores": 7932,
      "rhythm": 7933,
      "shakespeare": 7934,
      "tennes": 7935,
      "laugh": 7936,
      "hunter": 7937,
      "chronicle": 7938,
      "nucle": 7939,
      "recognised": 7940,
      "billy": 7941,
      "globe": 7942,
      "chand": 7943,
      "divers": 7944,
      "persist": 7945,
      "conspir": 7946,
      "engagement": 7947,
      "revenue": 7948,
      "rip": 7949,
      "dul": 7950,
      "cze": 7951,
      "bic": 7952,
      "blocks": 7953,
      "gab": 7954,
      "pler": 7955,
      "margaret": 7956,
      "dwar": 7957,
      "cos": 7958,
      "targets": 7959,
      "itated": 7960,
      "aman": 7961,
      "coat": 7962,
      "ensu": 7963,
      "frustr": 7964,
      "suspended": 7965,
      "ske": 7966,
      "guine": 7967,
      "rav": 7968,
      "dess": 7969,
      "planets": 7970,
      "stair": 7971,
      "reluct": 7972,
      "lucas": 7973,
      "poorly": 7974,
      "cartoon": 7975,
      "movies": 7976,
      "mall": 7977,
      "impression": 7978,
      "prompt": 7979,
      "mississippi": 7980,
      "egyptian": 7981,
      "offering": 7982,
      "feather": 7983,
      "layer": 7984,
      "boards": 7985,
      "civilian": 7986,
      "measured": 7987,
      "mble": 7988,
      "guilty": 7989,
      "replacing": 7990,
      "provision": 7991,
      "ideal": 7992,
      "delay": 7993,
      "jury": 7994,
      "threw": 7995,
      "lips": 7996,
      "filed": 7997,
      "mush": 7998,
      "faster": 7999,
      "repl": 8000,
      "boundary": 8001,
      "tennessee": 8002,
      "360": 8003,
      "pound": 8004,
      "missouri": 8005,
      "craw": 8006,
      "visiting": 8007,
      "aimed": 8008,
      "armies": 8009,
      "lakes": 8010,
      "1906": 8011,
      "ora": 8012,
      "maneu": 8013,
      "louisiana": 8014,
      "beam": 8015,
      "looks": 8016,
      "galax": 8017,
      "temporarily": 8018,
      "sket": 8019,
      "fixed": 8020,
      "montreal": 8021,
      "nice": 8022,
      "represents": 8023,
      "simultaneously": 8024,
      "sau": 8025,
      "quiet": 8026,
      "surgery": 8027,
      "goth": 8028,
      "obvious": 8029,
      "taxon": 8030,
      "aviation": 8031,
      "1904": 8032,
      "clearly": 8033,
      "cular": 8034,
      "loose": 8035,
      "ima": 8036,
      "pene": 8037,
      "shipping": 8038,
      "acceler": 8039,
      "sequences": 8040,
      "gran": 8041,
      "closure": 8042,
      "iso": 8043,
      "readers": 8044,
      "philippines": 8045,
      "educational": 8046,
      "saved": 8047,
      "oon": 8048,
      "agre": 8049,
      "quad": 8050,
      "agriculture": 8051,
      "pher": 8052,
      "ounced": 8053,
      "coverage": 8054,
      "mitchell": 8055,
      "storage": 8056,
      "birthday": 8057,
      "vulner": 8058,
      "intercept": 8059,
      "dino": 8060,
      "ariz": 8061,
      "palest": 8062,
      "sung": 8063,
      "recommend": 8064,
      "alog": 8065,
      "progressive": 8066,
      "remnants": 8067,
      "dc": 8068,
      "fy": 8069,
      "institution": 8070,
      "protein": 8071,
      "patterns": 8072,
      "cancelled": 8073,
      "context": 8074,
      "grim": 8075,
      "strange": 8076,
      "comparison": 8077,
      "talent": 8078,
      "spotted": 8079,
      "aside": 8080,
      "autum": 8081,
      "wants": 8082,
      "practices": 8083,
      "fossil": 8084,
      "valuable": 8085,
      "perspective": 8086,
      "dw": 8087,
      "chet": 8088,
      "institutions": 8089,
      "metre": 8090,
      "cuba": 8091,
      "slip": 8092,
      "reflected": 8093,
      "butter": 8094,
      "graham": 8095,
      "notice": 8096,
      "motions": 8097,
      "hl": 8098,
      "suggesting": 8099,
      "propag": 8100,
      "wasn": 8101,
      "lesser": 8102,
      "contributions": 8103,
      "gé": 8104,
      "altered": 8105,
      "application": 8106,
      "rebuilt": 8107,
      "acou": 8108,
      "overseas": 8109,
      "fastest": 8110,
      "electro": 8111,
      "bones": 8112,
      "marie": 8113,
      "thirteen": 8114,
      "subspecies": 8115,
      "sitting": 8116,
      "loaded": 8117,
      "beauty": 8118,
      "pent": 8119,
      "wen": 8120,
      "physics": 8121,
      "ranks": 8122,
      "tong": 8123,
      "thum": 8124,
      "destroyer": 8125,
      "pulled": 8126,
      "yam": 8127,
      "vertical": 8128,
      "iated": 8129,
      "furthermore": 8130,
      "kane": 8131,
      "predomin": 8132,
      "drugs": 8133,
      "wicket": 8134,
      "ailed": 8135,
      "escaped": 8136,
      "decides": 8137,
      "jobs": 8138,
      "valid": 8139,
      "slaves": 8140,
      "abc": 8141,
      "pressing": 8142,
      "drove": 8143,
      "adequ": 8144,
      "dod": 8145,
      "ferry": 8146,
      "convers": 8147,
      "bombing": 8148,
      "listen": 8149,
      "hypothe": 8150,
      "oke": 8151,
      "allmusic": 8152,
      "cutting": 8153,
      "summit": 8154,
      "lacked": 8155,
      "subur": 8156,
      "confederate": 8157,
      "spider": 8158,
      "autumn": 8159,
      "intellect": 8160,
      "ij": 8161,
      "badly": 8162,
      "argues": 8163,
      "eign": 8164,
      "blind": 8165,
      "characterized": 8166,
      "flowers": 8167,
      "sovereign": 8168,
      "illegal": 8169,
      "motiv": 8170,
      "flagship": 8171,
      "icken": 8172,
      "controls": 8173,
      "severely": 8174,
      "lords": 8175,
      "feeding": 8176,
      "sha": 8177,
      "logist": 8178,
      "striking": 8179,
      "check": 8180,
      "bulk": 8181,
      "distinctive": 8182,
      "tamil": 8183,
      "juris": 8184,
      "oles": 8185,
      "umber": 8186,
      "founding": 8187,
      "prope": 8188,
      "mills": 8189,
      "persian": 8190,
      "tack": 8191,
      "indies": 8192,
      "arizona": 8193,
      "bak": 8194,
      "tokyo": 8195,
      "artney": 8196,
      "exh": 8197,
      "wayne": 8198,
      "trium": 8199,
      "musician": 8200,
      "starring": 8201,
      "oxide": 8202,
      "observations": 8203,
      "accum": 8204,
      "earning": 8205,
      "dense": 8206,
      "ranges": 8207,
      "bare": 8208,
      "explain": 8209,
      "fate": 8210,
      "saturday": 8211,
      "shift": 8212,
      "sé": 8213,
      "yield": 8214,
      "mirror": 8215,
      "sq": 8216,
      "rede": 8217,
      "inhabitants": 8218,
      "condem": 8219,
      "cave": 8220,
      "iers": 8221,
      "alber": 8222,
      "rook": 8223,
      "abund": 8224,
      "boo": 8225,
      "passion": 8226,
      "liberty": 8227,
      "dominant": 8228,
      "mund": 8229,
      "doors": 8230,
      "dylan": 8231,
      "iary": 8232,
      "turb": 8233,
      "mainland": 8234,
      "guitarist": 8235,
      "bonus": 8236,
      "nig": 8237,
      "pension": 8238,
      "definition": 8239,
      "excellent": 8240,
      "idency": 8241,
      "killer": 8242,
      "shak": 8243,
      "revival": 8244,
      "tempo": 8245,
      "spend": 8246,
      "jump": 8247,
      "ieties": 8248,
      "xx": 8249,
      "users": 8250,
      "squadrons": 8251,
      "phenom": 8252,
      "cultiv": 8253,
      "rell": 8254,
      "commanding": 8255,
      "mania": 8256,
      "pearl": 8257,
      "explains": 8258,
      "compass": 8259,
      "parliamentary": 8260,
      "meetings": 8261,
      "nominations": 8262,
      "tig": 8263,
      "statistics": 8264,
      "oliv": 8265,
      "kom": 8266,
      "athletes": 8267,
      "clash": 8268,
      "oklaho": 8269,
      "arctic": 8270,
      "xture": 8271,
      "descend": 8272,
      "faction": 8273,
      "carriers": 8274,
      "danger": 8275,
      "ambass": 8276,
      "maur": 8277,
      "demonstrated": 8278,
      "delaw": 8279,
      "artific": 8280,
      "ava": 8281,
      "arrive": 8282,
      "mrs": 8283,
      "illy": 8284,
      "hidden": 8285,
      "utical": 8286,
      "backed": 8287,
      "switzer": 8288,
      "aerial": 8289,
      "altit": 8290,
      "murphy": 8291,
      "predicted": 8292,
      "artwork": 8293,
      "broadway": 8294,
      "michel": 8295,
      "holiday": 8296,
      "harvey": 8297,
      "stere": 8298,
      "interpretation": 8299,
      "dall": 8300,
      "switzerland": 8301,
      "vard": 8302,
      "experimental": 8303,
      "pages": 8304,
      "northward": 8305,
      "conversion": 8306,
      "talking": 8307,
      "reaches": 8308,
      "ache": 8309,
      "honey": 8310,
      "duo": 8311,
      "prepare": 8312,
      "funny": 8313,
      "mechanical": 8314,
      "kees": 8315,
      "mercur": 8316,
      "riding": 8317,
      "census": 8318,
      "peaking": 8319,
      "ropo": 8320,
      "batter": 8321,
      "slave": 8322,
      "helps": 8323,
      "clif": 8324,
      "connect": 8325,
      "symphony": 8326,
      "barry": 8327,
      "1901": 8328,
      "apartment": 8329,
      "partial": 8330,
      "households": 8331,
      "considering": 8332,
      "texts": 8333,
      "declar": 8334,
      "oklahoma": 8335,
      "ique": 8336,
      "sax": 8337,
      "edin": 8338,
      "iran": 8339,
      "skull": 8340,
      "seriously": 8341,
      "austrian": 8342,
      "nova": 8343,
      "labe": 8344,
      "bombs": 8345,
      "liquid": 8346,
      "towers": 8347,
      "iner": 8348,
      "amps": 8349,
      "lift": 8350,
      "feels": 8351,
      "vas": 8352,
      "bald": 8353,
      "choose": 8354,
      "retro": 8355,
      "audition": 8356,
      "dread": 8357,
      "swimming": 8358,
      "repeatedly": 8359,
      "08": 8360,
      "useful": 8361,
      "predecessor": 8362,
      "delaware": 8363,
      "isen": 8364,
      "attained": 8365,
      "1902": 8366,
      "sony": 8367,
      "westward": 8368,
      "1903": 8369,
      "definite": 8370,
      "rings": 8371,
      "vous": 8372,
      "urer": 8373,
      "tales": 8374,
      "lithuan": 8375,
      "thanks": 8376,
      "sla": 8377,
      "waste": 8378,
      "copper": 8379,
      "circumstances": 8380,
      "enna": 8381,
      "juan": 8382,
      "practical": 8383,
      "dubbed": 8384,
      "kids": 8385,
      "stig": 8386,
      "ila": 8387,
      "perry": 8388,
      "dawn": 8389,
      "leslie": 8390,
      "luck": 8391,
      "electricity": 8392,
      "bacter": 8393,
      "delivery": 8394,
      "beats": 8395,
      "consequently": 8396,
      "perceived": 8397,
      "posit": 8398,
      "friendship": 8399,
      "todd": 8400,
      "papers": 8401,
      "melody": 8402,
      "verte": 8403,
      "coup": 8404,
      "zzle": 8405,
      "virus": 8406,
      "madagas": 8407,
      "trigger": 8408,
      "congreg": 8409,
      "remarked": 8410,
      "markets": 8411,
      "compens": 8412,
      "revolt": 8413,
      "chemistry": 8414,
      "wool": 8415,
      "improvements": 8416,
      "ballad": 8417,
      "radiation": 8418,
      "iling": 8419,
      "cc": 8420,
      "tours": 8421,
      "dinosaur": 8422,
      "aro": 8423,
      "acclaim": 8424,
      "denmark": 8425,
      "dic": 8426,
      "breath": 8427,
      "jonathan": 8428,
      "personally": 8429,
      "stev": 8430,
      "spell": 8431,
      "hammer": 8432,
      "accurate": 8433,
      "burton": 8434,
      "adm": 8435,
      "airlines": 8436,
      "metall": 8437,
      "atlanta": 8438,
      "rihanna": 8439,
      "rett": 8440,
      "enlisted": 8441,
      "pep": 8442,
      "lem": 8443,
      "marvel": 8444,
      "bene": 8445,
      "tactics": 8446,
      "landscape": 8447,
      "angular": 8448,
      "manga": 8449,
      "theatrical": 8450,
      "inals": 8451,
      "nixon": 8452,
      "hydrogen": 8453,
      "tang": 8454,
      "sting": 8455,
      "acher": 8456,
      "09": 8457,
      "gear": 8458,
      "johnny": 8459,
      "cin": 8460,
      "keith": 8461,
      "execution": 8462,
      "travels": 8463,
      "alexand": 8464,
      "strengthened": 8465,
      "ressing": 8466,
      "bah": 8467,
      "maker": 8468,
      "persons": 8469,
      "ruling": 8470,
      "explan": 8471,
      "ibn": 8472,
      "demands": 8473,
      "aig": 8474,
      "overw": 8475,
      "edwards": 8476,
      "proof": 8477,
      "ruth": 8478,
      "profile": 8479,
      "paras": 8480,
      "sixteen": 8481,
      "assembled": 8482,
      "rim": 8483,
      "mingham": 8484,
      "burns": 8485,
      "gender": 8486,
      "raising": 8487,
      "princi": 8488,
      "stol": 8489,
      "campaigns": 8490,
      "bernard": 8491,
      "lob": 8492,
      "daughters": 8493,
      "illustrated": 8494,
      "succession": 8495,
      "intim": 8496,
      "hore": 8497,
      "gos": 8498,
      "blan": 8499,
      "ptions": 8500,
      "powder": 8501,
      "ruption": 8502,
      "oblig": 8503,
      "patt": 8504,
      "intervent": 8505,
      "demanded": 8506,
      "aggreg": 8507,
      "brilli": 8508,
      "lus": 8509,
      "archbishop": 8510,
      "targe": 8511,
      "pitts": 8512,
      "lain": 8513,
      "apolis": 8514,
      "turret": 8515,
      "wilhelm": 8516,
      "compound": 8517,
      "compounds": 8518,
      "dispat": 8519,
      "clothing": 8520,
      "115": 8521,
      "elevation": 8522,
      "toy": 8523,
      "insisted": 8524,
      "rebel": 8525,
      "gentle": 8526,
      "arnold": 8527,
      "semin": 8528,
      "membership": 8529,
      "jimmy": 8530,
      "phoenix": 8531,
      "cture": 8532,
      "burial": 8533,
      "adventures": 8534,
      "extend": 8535,
      "connecting": 8536,
      "finger": 8537,
      "madagascar": 8538,
      "dressed": 8539,
      "ticket": 8540,
      "kurt": 8541,
      "mercury": 8542,
      "amb": 8543,
      "canter": 8544,
      "sak": 8545,
      "tracy": 8546,
      "struggled": 8547,
      "bearing": 8548,
      "rebound": 8549,
      "agger": 8550,
      "nev": 8551,
      "fewer": 8552,
      "settlers": 8553,
      "rachel": 8554,
      "neil": 8555,
      "investment": 8556,
      "insects": 8557,
      "edited": 8558,
      "valent": 8559,
      "trading": 8560,
      "volcano": 8561,
      "increases": 8562,
      "mort": 8563,
      "compliment": 8564,
      "yankees": 8565,
      "demolished": 8566,
      "ctr": 8567,
      "decisions": 8568,
      "conquest": 8569,
      "manuel": 8570,
      "liner": 8571,
      "succeed": 8572,
      "stronger": 8573,
      "prove": 8574,
      "spart": 8575,
      "ghan": 8576,
      "een": 8577,
      "earn": 8578,
      "alice": 8579,
      "fourteen": 8580,
      "birmingham": 8581,
      "rag": 8582,
      "remark": 8583,
      "removal": 8584,
      "external": 8585,
      "developers": 8586,
      "exposure": 8587,
      "aming": 8588,
      "advertising": 8589,
      "exactly": 8590,
      "dust": 8591,
      "answer": 8592,
      "obama": 8593,
      "placement": 8594,
      "jup": 8595,
      "ori": 8596,
      "warfare": 8597,
      "ading": 8598,
      "culmin": 8599,
      "objective": 8600,
      "concentration": 8601,
      "cards": 8602,
      "venue": 8603,
      "glen": 8604,
      "som": 8605,
      "electrical": 8606,
      "qualifying": 8607,
      "discovers": 8608,
      "challenged": 8609,
      "pursue": 8610,
      "quarterback": 8611,
      "abu": 8612,
      "magazines": 8613,
      "deterior": 8614,
      "erected": 8615,
      "sciences": 8616,
      "hearts": 8617,
      "bobby": 8618,
      "lac": 8619,
      "defences": 8620,
      "masters": 8621,
      "wealthy": 8622,
      "confron": 8623,
      "gie": 8624,
      "herald": 8625,
      "stuff": 8626,
      "exercise": 8627,
      "hudson": 8628,
      "gence": 8629,
      "defending": 8630,
      "armoured": 8631,
      "fs": 8632,
      "twi": 8633,
      "tram": 8634,
      "trench": 8635,
      "acces": 8636,
      "juven": 8637,
      "amen": 8638,
      "pam": 8639,
      "connectic": 8640,
      "approaching": 8641,
      "connecticut": 8642,
      "limits": 8643,
      "nered": 8644,
      "caa": 8645,
      "odox": 8646,
      "dimension": 8647,
      "coron": 8648,
      "harm": 8649,
      "establishing": 8650,
      "ontario": 8651,
      "sta": 8652,
      "tai": 8653,
      "hence": 8654,
      "doctr": 8655,
      "craz": 8656,
      "acknowledged": 8657,
      "itted": 8658,
      "monte": 8659,
      "understood": 8660,
      "morrison": 8661,
      "mccartney": 8662,
      "icke": 8663,
      "gods": 8664,
      "centers": 8665,
      "acoustic": 8666,
      "realized": 8667,
      "commentary": 8668,
      "putting": 8669,
      "axis": 8670,
      "indicating": 8671,
      "raids": 8672,
      "evalu": 8673,
      "fasc": 8674,
      "burning": 8675,
      "initiated": 8676,
      "lov": 8677,
      "epic": 8678,
      "supplied": 8679,
      "glee": 8680,
      "friday": 8681,
      "architectural": 8682,
      "lium": 8683,
      "traveling": 8684,
      "clip": 8685,
      "announcement": 8686,
      "strand": 8687,
      "select": 8688,
      "arrangements": 8689,
      "shorter": 8690,
      "tube": 8691,
      "slavery": 8692,
      "canterbury": 8693,
      "athens": 8694,
      "unless": 8695,
      "vern": 8696,
      "improvement": 8697,
      "athe": 8698,
      "fier": 8699,
      "theore": 8700,
      "visits": 8701,
      "ongoing": 8702,
      "tna": 8703,
      "volumes": 8704,
      "leonard": 8705,
      "mong": 8706,
      "pist": 8707,
      "voices": 8708,
      "withdrawal": 8709,
      "precipitation": 8710,
      "oct": 8711,
      "stress": 8712,
      "permitted": 8713,
      "sultan": 8714,
      "celebrated": 8715,
      "uniform": 8716,
      "survival": 8717,
      "pipe": 8718,
      "wid": 8719,
      "boom": 8720,
      "hate": 8721,
      "parach": 8722,
      "tape": 8723,
      "preparations": 8724,
      "discussion": 8725,
      "graduated": 8726,
      "lig": 8727,
      "stationed": 8728,
      "debt": 8729,
      "bomber": 8730,
      "justin": 8731,
      "hardy": 8732,
      "dissipated": 8733,
      "recovery": 8734,
      "pend": 8735,
      "conven": 8736,
      "translation": 8737,
      "evacuated": 8738,
      "hast": 8739,
      "photographs": 8740,
      "tent": 8741,
      "cann": 8742,
      "silent": 8743,
      "hosts": 8744,
      "wreck": 8745,
      "extratro": 8746,
      "extratropical": 8747,
      "itary": 8748,
      "uefa": 8749,
      "promotional": 8750,
      "beau": 8751,
      "industries": 8752,
      "fleming": 8753,
      "shadow": 8754,
      "guese": 8755,
      "angered": 8756,
      "titan": 8757,
      "blast": 8758,
      "attitude": 8759,
      "collections": 8760,
      "requires": 8761,
      "currency": 8762,
      "roe": 8763,
      "voyage": 8764,
      "esp": 8765,
      "trick": 8766,
      "vancou": 8767,
      "vancouver": 8768,
      "biographer": 8769,
      "originated": 8770,
      "youngest": 8771,
      "reporter": 8772,
      "sonic": 8773,
      "onymous": 8774,
      "penetr": 8775,
      "tension": 8776,
      "crops": 8777,
      "ucing": 8778,
      "suspect": 8779,
      "exclusive": 8780,
      "vertebr": 8781,
      "jupiter": 8782,
      "terrain": 8783,
      "confront": 8784,
      "tooth": 8785,
      "estimates": 8786,
      "strongest": 8787,
      "05": 8788,
      "specimen": 8789,
      "referring": 8790,
      "tubes": 8791,
      "grove": 8792,
      "athy": 8793,
      "troop": 8794,
      "colleagues": 8795,
      "millenn": 8796,
      "donated": 8797,
      "cuts": 8798,
      "watershed": 8799,
      "nag": 8800,
      "indicates": 8801,
      "supplement": 8802,
      "transit": 8803,
      "potter": 8804,
      "lang": 8805,
      "minority": 8806,
      "guinea": 8807,
      "manor": 8808,
      "marking": 8809,
      "ati": 8810,
      "rangers": 8811,
      "wii": 8812,
      "ceased": 8813,
      "luke": 8814,
      "closest": 8815,
      "horizon": 8816,
      "trough": 8817,
      "dj": 8818,
      "mg": 8819,
      "devast": 8820,
      "uranium": 8821,
      "thouse": 8822,
      "cruise": 8823,
      "bradman": 8824,
      "portuguese": 8825,
      "drinking": 8826,
      "expert": 8827,
      "stim": 8828,
      "decide": 8829,
      "speaker": 8830,
      "collins": 8831,
      "earthquake": 8832,
      "programming": 8833,
      "phrase": 8834,
      "sharks": 8835,
      "density": 8836,
      "jama": 8837,
      "attending": 8838,
      "heaven": 8839,
      "oked": 8840,
      "rena": 8841,
      "signature": 8842,
      "rolled": 8843,
      "territorial": 8844,
      "parent": 8845,
      "southeastern": 8846,
      "gathered": 8847,
      "gments": 8848,
      "emphasis": 8849,
      "scattered": 8850,
      "identify": 8851,
      "achievement": 8852,
      "lawyer": 8853,
      "discuss": 8854,
      "350": 8855,
      "vamp": 8856,
      "æthel": 8857,
      "ader": 8858,
      "bypass": 8859,
      "failing": 8860,
      "07": 8861,
      "traditionally": 8862,
      "cousin": 8863,
      "artificial": 8864,
      "mons": 8865,
      "1893": 8866,
      "advertise": 8867,
      "merely": 8868,
      "dwight": 8869,
      "photography": 8870,
      "concentrated": 8871,
      "outr": 8872,
      "forecast": 8873,
      "bench": 8874,
      "voting": 8875,
      "collapsed": 8876,
      "chal": 8877,
      "topped": 8878,
      "interpreted": 8879,
      "clan": 8880,
      "spaces": 8881,
      "continuous": 8882,
      "democrats": 8883,
      "provinces": 8884,
      "06": 8885,
      "viv": 8886,
      "governments": 8887,
      "panic": 8888,
      "scription": 8889,
      "principles": 8890,
      "bust": 8891,
      "annually": 8892,
      "kills": 8893,
      "1896": 8894,
      "cros": 8895,
      "publisher": 8896,
      "applications": 8897,
      "makers": 8898,
      "predators": 8899,
      "competing": 8900,
      "questioned": 8901,
      "hampshire": 8902,
      "edinburgh": 8903,
      "gaz": 8904,
      "prices": 8905,
      "offense": 8906,
      "sciento": 8907,
      "oliver": 8908,
      "ncaa": 8909,
      "aes": 8910,
      "ée": 8911,
      "ende": 8912,
      "prisoner": 8913,
      "105": 8914,
      "buffalo": 8915,
      "thal": 8916,
      "seized": 8917,
      "orthodox": 8918,
      "tribe": 8919,
      "adier": 8920,
      "minster": 8921,
      "portrayal": 8922,
      "accompanying": 8923,
      "declaration": 8924,
      "lomb": 8925,
      "reverse": 8926,
      "feld": 8927,
      "coalition": 8928,
      "conceived": 8929,
      "optim": 8930,
      "mick": 8931,
      "ision": 8932,
      "flex": 8933,
      "respective": 8934,
      "investigate": 8935,
      "heroes": 8936,
      "sending": 8937,
      "consolid": 8938,
      "afghan": 8939,
      "universities": 8940,
      "escort": 8941,
      "stops": 8942,
      "dual": 8943,
      "1898": 8944,
      "bisho": 8945,
      "portrait": 8946,
      "tenure": 8947,
      "broadcasting": 8948,
      "fairly": 8949,
      "astru": 8950,
      "racial": 8951,
      "victorian": 8952,
      "spoken": 8953,
      "hawa": 8954,
      "kil": 8955,
      "m2": 8956,
      "innov": 8957,
      "reinforcements": 8958,
      "foster": 8959,
      "indigen": 8960,
      "abuse": 8961,
      "regime": 8962,
      "terminal": 8963,
      "revenge": 8964,
      "partis": 8965,
      "certainly": 8966,
      "experiments": 8967,
      "proportion": 8968,
      "talks": 8969,
      "goddess": 8970,
      "flows": 8971,
      "beneath": 8972,
      "output": 8973,
      "representation": 8974,
      "beng": 8975,
      "hind": 8976,
      "magnit": 8977,
      "flooded": 8978,
      "worthy": 8979,
      "elig": 8980,
      "lope": 8981,
      "aber": 8982,
      "craig": 8983,
      "supervis": 8984,
      "ruler": 8985,
      "recurring": 8986,
      "fed": 8987,
      "hitting": 8988,
      "indigenous": 8989,
      "hide": 8990,
      "veloc": 8991,
      "plum": 8992,
      "lind": 8993,
      "imetres": 8994,
      "xi": 8995,
      "ralph": 8996,
      "disband": 8997,
      "salv": 8998,
      "argentina": 8999,
      "cen": 9000,
      "profession": 9001,
      "branches": 9002,
      "fundament": 9003,
      "overwhel": 9004,
      "user": 9005,
      "courses": 9006,
      "till": 9007,
      "zig": 9008,
      "reward": 9009,
      "volunteers": 9010,
      "cotton": 9011,
      "spy": 9012,
      "reconstruction": 9013,
      "historically": 9014,
      "amor": 9015,
      "dioc": 9016,
      "yorkshire": 9017,
      "revised": 9018,
      "lloy": 9019,
      "enforce": 9020,
      "ifer": 9021,
      "contribution": 9022,
      "components": 9023,
      "enthusi": 9024,
      "recip": 9025,
      "trunk": 9026,
      "maya": 9027,
      "songwriter": 9028,
      "drown": 9029,
      "tender": 9030,
      "redes": 9031,
      "handle": 9032,
      "jerry": 9033,
      "cable": 9034,
      "christianity": 9035,
      "commenting": 9036,
      "celt": 9037,
      "turner": 9038,
      "solved": 9039,
      "imagery": 9040,
      "1940s": 9041,
      "sect": 9042,
      "patients": 9043,
      "companion": 9044,
      "ministers": 9045,
      "toxic": 9046,
      "ambassador": 9047,
      "devices": 9048,
      "drummer": 9049,
      "reducing": 9050,
      "charted": 9051,
      "hul": 9052,
      "gospe": 9053,
      "reduction": 9054,
      "gaming": 9055,
      "infrastru": 9056,
      "grossing": 9057,
      "underwent": 9058,
      "destroying": 9059,
      "antonio": 9060,
      "rar": 9061,
      "unclear": 9062,
      "authorized": 9063,
      "duration": 9064,
      "millennium": 9065,
      "1899": 9066,
      "enhan": 9067,
      "replied": 9068,
      "gaining": 9069,
      "hammad": 9070,
      "multiplayer": 9071,
      "component": 9072,
      "hir": 9073,
      "shallow": 9074,
      "witch": 9075,
      "ulous": 9076,
      "consult": 9077,
      "serge": 9078,
      "identical": 9079,
      "genesis": 9080,
      "fying": 9081,
      "ffield": 9082,
      "winners": 9083,
      "marge": 9084,
      "surve": 9085,
      "competitive": 9086,
      "reflect": 9087,
      "proposals": 9088,
      "inge": 9089,
      "memo": 9090,
      "samples": 9091,
      "prev": 9092,
      "connections": 9093,
      "approaches": 9094,
      "insist": 9095,
      "mosco": 9096,
      "finland": 9097,
      "frequency": 9098,
      "streak": 9099,
      "requirements": 9100,
      "apy": 9101,
      "corrid": 9102,
      "traded": 9103,
      "reveal": 9104,
      "hawk": 9105,
      "seventeen": 9106,
      "cket": 9107,
      "lloyd": 9108,
      "distant": 9109,
      "arrives": 9110,
      "embarked": 9111,
      "translated": 9112,
      "cav": 9113,
      "tho": 9114,
      "uration": 9115,
      "wire": 9116,
      "lifetime": 9117,
      "characteristic": 9118,
      "chronic": 9119,
      "surrendered": 9120,
      "resolved": 9121,
      "urally": 9122,
      "smoke": 9123,
      "intervention": 9124,
      "kam": 9125,
      "significance": 9126,
      "researchers": 9127,
      "queensland": 9128,
      "sings": 9129,
      "nake": 9130,
      "finance": 9131,
      "whate": 9132,
      "romance": 9133,
      "norfolk": 9134,
      "platforms": 9135,
      "whatever": 9136,
      "climb": 9137,
      "shin": 9138,
      "rider": 9139,
      "uma": 9140,
      "navigation": 9141,
      "turkey": 9142,
      "burned": 9143,
      "stereo": 9144,
      "crack": 9145,
      "carn": 9146,
      "warriors": 9147,
      "nicholas": 9148,
      "stef": 9149,
      "belgian": 9150,
      "confidence": 9151,
      "dak": 9152,
      "ampton": 9153,
      "loud": 9154,
      "itals": 9155,
      "banned": 9156,
      "praising": 9157,
      "hawaii": 9158,
      "ür": 9159,
      "neo": 9160,
      "thrown": 9161,
      "springs": 9162,
      "exclusively": 9163,
      "suddenly": 9164,
      "crop": 9165,
      "commanders": 9166,
      "rebels": 9167,
      "atop": 9168,
      "ensed": 9169,
      "smart": 9170,
      "aser": 9171,
      "elite": 9172,
      "varied": 9173,
      "celebration": 9174,
      "davies": 9175,
      "balls": 9176,
      "considers": 9177,
      "karl": 9178,
      "chore": 9179,
      "crimes": 9180,
      "1850": 9181,
      "pairs": 9182,
      "emmy": 9183,
      "descent": 9184,
      "vincent": 9185,
      "cox": 9186,
      "prix": 9187,
      "nt": 9188,
      "flames": 9189,
      "intr": 9190,
      "secre": 9191,
      "awak": 9192,
      "lide": 9193,
      "parody": 9194,
      "catherine": 9195,
      "verses": 9196,
      "thorough": 9197,
      "taxes": 9198,
      "bren": 9199,
      "mansion": 9200,
      "reviewed": 9201,
      "screenplay": 9202,
      "cession": 9203,
      "mum": 9204,
      "sample": 9205,
      "counters": 9206,
      "trib": 9207,
      "handled": 9208,
      "plaza": 9209,
      "toured": 9210,
      "sailing": 9211,
      "tab": 9212,
      "leigh": 9213,
      "immigr": 9214,
      "shares": 9215,
      "bennett": 9216,
      "shoulder": 9217,
      "remote": 9218,
      "vić": 9219,
      "districts": 9220,
      "tical": 9221,
      "icing": 9222,
      "advised": 9223,
      "scope": 9224,
      "boilers": 9225,
      "reactions": 9226,
      "villa": 9227,
      "empty": 9228,
      "vor": 9229,
      "presidency": 9230,
      "hughes": 9231,
      "kö": 9232,
      "lier": 9233,
      "125": 9234,
      "truck": 9235,
      "diversity": 9236,
      "1897": 9237,
      "vulnerable": 9238,
      "resur": 9239,
      "affir": 9240,
      "intermedi": 9241,
      "riel": 9242,
      "medals": 9243,
      "judges": 9244,
      "scores": 9245,
      "darwin": 9246,
      "opportunities": 9247,
      "sustain": 9248,
      "idol": 9249,
      "beer": 9250,
      "proceeded": 9251,
      "presentation": 9252,
      "philosoph": 9253,
      "ike": 9254,
      "intersects": 9255,
      "lover": 9256,
      "pull": 9257,
      "mans": 9258,
      "strikes": 9259,
      "sile": 9260,
      "harvard": 9261,
      "nose": 9262,
      "geoff": 9263,
      "acles": 9264,
      "saxon": 9265,
      "disturb": 9266,
      "encies": 9267,
      "oslo": 9268,
      "nautical": 9269,
      "swiss": 9270,
      "telegraph": 9271,
      "reinforced": 9272,
      "bombardment": 9273,
      "infrastructure": 9274,
      "bann": 9275,
      "maine": 9276,
      "cleared": 9277,
      "rocky": 9278,
      "traditions": 9279,
      "cameron": 9280,
      "rivalry": 9281,
      "tas": 9282,
      "structural": 9283,
      "observation": 9284,
      "manufacturing": 9285,
      "moscow": 9286,
      "cena": 9287,
      "convict": 9288,
      "lasting": 9289,
      "kate": 9290,
      "extending": 9291,
      "commissioner": 9292,
      "marshal": 9293,
      "exile": 9294,
      "exists": 9295,
      "exceed": 9296,
      "stroke": 9297,
      "rally": 9298,
      "alaska": 9299,
      "pittsburgh": 9300,
      "baron": 9301,
      "posts": 9302,
      "explicit": 9303,
      "petition": 9304,
      "chancell": 9305,
      "protests": 9306,
      "indonesia": 9307,
      "peters": 9308,
      "knights": 9309,
      "cof": 9310,
      "tiger": 9311,
      "milk": 9312,
      "lighted": 9313,
      "rodr": 9314,
      "transported": 9315,
      "construct": 9316,
      "realistic": 9317,
      "daw": 9318,
      "tonnes": 9319,
      "drafted": 9320,
      "airing": 9321,
      "drain": 9322,
      "clothes": 9323,
      "gins": 9324,
      "swing": 9325,
      "gift": 9326,
      "seal": 9327,
      "mckin": 9328,
      "essentially": 9329,
      "decorated": 9330,
      "moor": 9331,
      "shan": 9332,
      "nonetheless": 9333,
      "eating": 9334,
      "drink": 9335,
      "mystery": 9336,
      "bred": 9337,
      "relatives": 9338,
      "funk": 9339,
      "terry": 9340,
      "teles": 9341,
      "participation": 9342,
      "pover": 9343,
      "theories": 9344,
      "beating": 9345,
      "thers": 9346,
      "commenced": 9347,
      "cyclones": 9348,
      "coaches": 9349,
      "random": 9350,
      "triumph": 9351,
      "runner": 9352,
      "rp": 9353,
      "rivals": 9354,
      "turnpike": 9355,
      "maintaining": 9356,
      "vick": 9357,
      "yn": 9358,
      "absent": 9359,
      "colours": 9360,
      "restore": 9361,
      "accessible": 9362,
      "relocated": 9363,
      "canyon": 9364,
      "eleph": 9365,
      "wallace": 9366,
      "toler": 9367,
      "leans": 9368,
      "airline": 9369,
      "choreo": 9370,
      "colors": 9371,
      "reforms": 9372,
      "twc": 9373,
      "preparing": 9374,
      "microsoft": 9375,
      "instruct": 9376,
      "itarian": 9377,
      "witnesses": 9378,
      "ux": 9379,
      "viii": 9380,
      "mixing": 9381,
      "honours": 9382,
      "cats": 9383,
      "jtwc": 9384,
      "withdrawn": 9385,
      "monthly": 9386,
      "cules": 9387,
      "owen": 9388,
      "warnings": 9389,
      "inations": 9390,
      "enzy": 9391,
      "ribute": 9392,
      "syria": 9393,
      "aya": 9394,
      "constitu": 9395,
      "inquir": 9396,
      "meg": 9397,
      "senators": 9398,
      "patient": 9399,
      "alt": 9400,
      "usive": 9401,
      "mobil": 9402,
      "ores": 9403,
      "idae": 9404,
      "breast": 9405,
      "1890": 9406,
      "reich": 9407,
      "volcanic": 9408,
      "eva": 9409,
      "routine": 9410,
      "haven": 9411,
      "kis": 9412,
      "unexpected": 9413,
      "dell": 9414,
      "impl": 9415,
      "displaced": 9416,
      "writings": 9417,
      "amazing": 9418,
      "magnitude": 9419,
      "concerning": 9420,
      "republicans": 9421,
      "israeli": 9422,
      "rust": 9423,
      "pete": 9424,
      "mim": 9425,
      "endor": 9426,
      "breaks": 9427,
      "mythology": 9428,
      "sheffield": 9429,
      "larry": 9430,
      "interviews": 9431,
      "tul": 9432,
      "ighted": 9433,
      "dying": 9434,
      "hurricanes": 9435,
      "aide": 9436,
      "lightning": 9437,
      "hollow": 9438,
      "carries": 9439,
      "meteorological": 9440,
      "chip": 9441,
      "panzer": 9442,
      "mare": 9443,
      "elic": 9444,
      "organic": 9445,
      "learns": 9446,
      "blocked": 9447,
      "archaeological": 9448,
      "chile": 9449,
      "lian": 9450,
      "bryan": 9451,
      "commercially": 9452,
      "mish": 9453,
      "idal": 9454,
      "illes": 9455,
      "1895": 9456,
      "corporate": 9457,
      "chambers": 9458,
      "jefferson": 9459,
      "variations": 9460,
      "interaction": 9461,
      "johnston": 9462,
      "reader": 9463,
      "grandfather": 9464,
      "sponsored": 9465,
      "judicial": 9466,
      "displays": 9467,
      "cyrus": 9468,
      "dreadn": 9469,
      "confusion": 9470,
      "arguing": 9471,
      "villain": 9472,
      "chelsea": 9473,
      "shifted": 9474,
      "root": 9475,
      "odd": 9476,
      "bott": 9477,
      "worlds": 9478,
      "parkway": 9479,
      "dallas": 9480,
      "dinner": 9481,
      "malaysia": 9482,
      "clarke": 9483,
      "salary": 9484,
      "austin": 9485,
      "guerr": 9486,
      "faculty": 9487,
      "variation": 9488,
      "desper": 9489,
      "segments": 9490,
      "imposed": 9491,
      "soph": 9492,
      "paraly": 9493,
      "planes": 9494,
      "stevens": 9495,
      "04": 9496,
      "inhab": 9497,
      "editions": 9498,
      "uton": 9499,
      "costu": 9500,
      "releg": 9501,
      "costume": 9502,
      "trend": 9503,
      "recover": 9504,
      "funded": 9505,
      "landers": 9506,
      "emotion": 9507,
      "pard": 9508,
      "org": 9509,
      "diverse": 9510,
      "oriented": 9511,
[...]
